<unk>	0
<s>	0
</s>	0
▁t	-0
▁th	-1
▁a	-2
▁i	-3
▁w	-4
▁the	-5
▁,	-6
▁s	-7
re	-8
▁o	-9
▁.	-10
in	-11
at	-12
nd	-13
er	-14
ou	-15
▁c	-16
▁b	-17
▁m	-18
▁&	-19
os	-20
▁h	-21
ing	-22
▁and	-23
en	-24
▁p	-25
ap	-26
▁to	-27
on	-28
▁f	-29
▁d	-30
an	-31
es	-32
apos	-33
or	-34
▁of	-35
al	-36
▁in	-37
▁l	-38
ed	-39
is	-40
▁y	-41
it	-42
ar	-43
▁that	-44
ot	-45
▁g	-46
▁we	-47
▁n	-48
om	-49
▁you	-50
as	-51
▁wh	-52
ic	-53
le	-54
▁it	-55
ve	-56
▁e	-57
ll	-58
ow	-59
▁is	-60
▁be	-61
us	-62
ly	-63
ut	-64
ion	-65
et	-66
▁re	-67
▁on	-68
ent	-69
qu	-70
ct	-71
▁this	-72
ld	-73
ver	-74
ay	-75
▁so	-76
▁ha	-77
▁st	-78
id	-79
ur	-80
ig	-81
ch	-82
▁he	-83
ro	-84
▁for	-85
quot	-86
ke	-87
ce	-88
se	-89
▁they	-90
▁was	-91
▁an	-92
am	-93
▁do	-94
▁li	-95
ir	-96
op	-97
ith	-98
▁u	-99
im	-100
▁are	-101
st	-102
▁go	-103
▁with	-104
ally	-105
▁k	-106
th	-107
▁what	-108
ra	-109
▁have	-110
▁ab	-111
▁se	-112
▁but	-113
▁can	-114
ol	-115
▁as	-116
▁sh	-117
▁j	-118
ation	-119
--	-120
▁--	-121
out	-122
ht	-123
▁ne	-124
▁wor	-125
▁me	-126
▁ch	-127
▁com	-128
ad	-129
▁?	-130
▁at	-131
ere	-132
▁r	-133
very	-134
ould	-135
▁not	-136
▁about	-137
▁there	-138
ge	-139
ter	-140
▁fr	-141
ill	-142
▁all	-143
ant	-144
od	-145
ul	-146
il	-147
▁my	-148
ore	-149
▁de	-150
▁ex	-151
▁som	-152
ust	-153
ers	-154
▁us	-155
▁pe	-156
▁pro	-157
ight	-158
▁or	-159
▁one	-160
ear	-161
▁con	-162
art	-163
▁peop	-164
▁people	-165
ess	-166
▁bec	-167
▁like	-168
ck	-169
ate	-170
▁lo	-171
um	-172
ure	-173
ies	-174
▁from	-175
▁v	-176
ok	-177
▁if	-178
ive	-179
est	-180
▁ma	-181
ist	-182
ity	-183
▁our	-184
▁al	-185
nt	-186
ble	-187
if	-188
▁now	-189
▁te	-190
▁kn	-191
use	-192
ind	-193
▁just	-194
▁these	-195
ect	-196
▁when	-197
▁out	-198
rou	-199
▁int	-200
ink	-201
all	-202
▁sp	-203
▁:	-204
ause	-205
un	-206
▁know	-207
▁tr	-208
▁thing	-209
▁how	-210
▁because	-211
▁them	-212
and	-213
ie	-214
▁see	-215
▁who	-216
▁think	-217
▁very	-218
ci	-219
▁up	-220
her	-221
ort	-222
▁get	-223
▁by	-224
▁some	-225
▁act	-226
▁pl	-227
ich	-228
iv	-229
▁im	-230
▁your	-231
▁more	-232
one	-233
ain	-234
▁1	-235
el	-236
▁going	-237
▁year	-238
▁sa	-239
▁would	-240
▁had	-241
▁en	-242
▁su	-243
▁tim	-244
▁were	-245
ost	-246
em	-247
▁their	-248
▁which	-249
our	-250
ame	-251
▁look	-252
og	-253
ine	-254
ast	-255
ose	-256
▁here	-257
▁than	-258
▁work	-259
▁really	-260
ment	-261
▁ta	-262
▁comp	-263
▁want	-264
ually	-265
▁le	-266
iz	-267
00	-268
are	-269
▁world	-270
gh	-271
▁fa	-272
▁way	-273
ous	-274
reat	-275
ard	-276
▁every	-277
▁then	-278
ack	-279
hing	-280
▁un	-281
▁no	-282
▁man	-283
▁exp	-284
▁oth	-285
ans	-286
▁ev	-287
▁per	-288
▁don	-289
ab	-290
▁has	-291
ide	-292
▁time	-293
ag	-294
▁actually	-295
pp	-296
ions	-297
▁qu	-298
▁say	-299
app	-300
▁will	-301
age	-302
alk	-303
▁could	-304
▁fe	-305
▁into	-306
▁did	-307
ence	-308
ong	-309
▁am	-310
res	-311
ild	-312
▁where	-313
▁ag	-314
ud	-315
▁years	-316
▁other	-317
▁things	-318
▁she	-319
▁tw	-320
▁somet	-321
▁ar	-322
ach	-323
▁well	-324
▁pr	-325
iff	-326
itt	-327
▁new	-328
▁cl	-329
nder	-330
▁any	-331
ical	-332
▁af	-333
▁diff	-334
▁happ	-335
▁make	-336
fe	-337
▁co	-338
▁need	-339
▁right	-340
ip	-341
▁been	-342
▁imp	-343
▁fir	-344
so	-345
▁start	-346
▁two	-347
▁part	-348
▁bu	-349
▁2	-350
▁over	-351
▁said	-352
▁first	-353
ia	-354
ace	-355
ice	-356
ory	-357
▁ro	-358
▁mu	-359
red	-360
ree	-361
▁something	-362
▁mo	-363
▁dis	-364
pt	-365
ry	-366
ite	-367
orm	-368
own	-369
ount	-370
▁po	-371
▁back	-372
ang	-373
▁much	-374
▁those	-375
ass	-376
round	-377
▁differe	-378
▁talk	-379
ound	-380
▁call	-381
▁ph	-382
▁also	-383
ens	-384
de	-385
ib	-386
sel	-387
▁spe	-388
rain	-389
olog	-390
▁most	-391
▁ac	-392
ign	-393
cent	-394
ue	-395
▁life	-396
ater	-397
▁his	-398
lo	-399
ff	-400
▁cont	-401
▁got	-402
▁lot	-403
ves	-404
ces	-405
act	-406
ght	-407
▁kind	-408
ult	-409
▁even	-410
ome	-411
ple	-412
king	-413
▁fo	-414
ittle	-415
▁little	-416
ep	-417
vel	-418
▁bet	-419
▁under	-420
way	-421
ber	-422
▁day	-423
ody	-424
▁ad	-425
▁her	-426
▁res	-427
▁only	-428
oss	-429
ving	-430
ru	-431
▁bo	-432
▁des	-433
▁many	-434
ated	-435
ations	-436
▁take	-437
able	-438
▁ind	-439
▁why	-440
▁sy	-441
ial	-442
co	-443
▁let	-444
▁good	-445
▁br	-446
▁em	-447
ict	-448
▁hum	-449
▁different	-450
▁gr	-451
▁does	-452
▁show	-453
rough	-454
▁real	-455
▁ide	-456
▁;	-457
ire	-458
ick	-459
▁through	-460
ell	-461
▁around	-462
ance	-463
du	-464
▁comm	-465
▁pre	-466
▁may	-467
ase	-468
cess	-469
int	-470
▁inter	-471
other	-472
▁tell	-473
ning	-474
ish	-475
▁sm	-476
day	-477
form	-478
ents	-479
▁down	-480
▁off	-481
▁being	-482
▁put	-483
ms	-484
ange	-485
ak	-486
▁sc	-487
ath	-488
▁wr	-489
ress	-490
▁use	-491
▁thou	-492
▁proble	-493
▁inc	-494
ade	-495
ible	-496
ful	-497
wn	-498
▁count	-499
les	-500
▁big	-501
▁same	-502
▁happen	-503
▁gen	-504
ary	-505
ject	-506
ors	-507
ether	-508
ark	-509
▁fact	-510
▁come	-511
xt	-512
ual	-513
lect	-514
▁great	-515
▁three	-516
iver	-517
▁try	-518
▁thank	-519
▁pers	-520
▁car	-521
stem	-522
▁ra	-523
ys	-524
ower	-525
▁dec	-526
ord	-527
ting	-528
ile	-529
urn	-530
▁doing	-531
▁sur	-532
per	-533
▁find	-534
▁human	-535
ved	-536
▁tra	-537
ren	-538
▁bl	-539
▁app	-540
▁exper	-541
chn	-542
ically	-543
▁child	-544
▁sim	-545
▁after	-546
▁gu	-547
▁stud	-548
▁quest	-549
▁percent	-550
con	-551
▁cr	-552
▁brain	-553
▁system	-554
▁again	-555
▁lear	-556
▁col	-557
▁wom	-558
cial	-559
self	-560
▁techn	-561
nds	-562
fore	-563
be	-564
ics	-565
▁rem	-566
▁sch	-567
▁inv	-568
▁own	-569
▁called	-570
▁jo	-571
ied	-572
▁today	-573
we	-574
▁bel	-575
▁build	-576
body	-577
▁should	-578
igh	-579
ating	-580
ian	-581
▁made	-582
thing	-583
illion	-584
ition	-585
ology	-586
▁inst	-587
ac	-588
▁long	-589
ious	-590
ates	-591
▁ear	-592
▁import	-593
▁creat	-594
▁ask	-595
▁underst	-596
▁ob	-597
▁sci	-598
▁hel	-599
▁fl	-600
te	-601
▁ins	-602
ize	-603
▁person	-604
ric	-605
▁dr	-606
▁ke	-607
▁change	-608
ons	-609
ft	-610
▁end	-611
ities	-612
▁didn	-613
ty	-614
▁bas	-615
ars	-616
▁last	-617
▁feel	-618
▁mean	-619
▁thought	-620
▁important	-621
▁pu	-622
ool	-623
▁cour	-624
pe	-625
▁idea	-626
▁imag	-627
lic	-628
▁3	-629
ph	-630
▁trans	-631
▁art	-632
▁started	-633
ise	-634
▁help	-635
▁exam	-636
▁design	-637
erest	-638
▁before	-639
▁pol	-640
▁its	-641
▁school	-642
▁understand	-643
▁went	-644
▁rel	-645
▁belie	-646
▁play	-647
▁power	-648
▁story	-649
▁give	-650
▁might	-651
▁problem	-652
▁another	-653
kes	-654
▁interest	-655
▁found	-656
▁cons	-657
ily	-658
▁never	-659
▁him	-660
ope	-661
▁turn	-662
▁produ	-663
gan	-664
▁kid	-665
ough	-666
▁eng	-667
▁fu	-668
als	-669
000	-670
▁better	-671
▁course	-672
▁hu	-673
ular	-674
▁each	-675
▁sol	-676
▁fam	-677
▁still	-678
ution	-679
av	-680
▁next	-681
▁able	-682
atter	-683
▁bit	-684
ility	-685
▁mon	-686
▁point	-687
▁learn	-688
ists	-689
ction	-690
ert	-691
▁str	-692
▁rep	-693
▁few	-694
▁ent	-695
ience	-696
▁min	-697
▁commun	-698
▁tog	-699
velop	-700
ix	-701
▁together	-702
▁high	-703
arch	-704
▁gra	-705
ather	-706
▁dat	-707
eric	-708
ween	-709
▁num	-710
▁came	-711
,000	-712
uc	-713
▁ed	-714
ness	-715
▁mod	-716
erg	-717
▁sl	-718
atch	-719
▁develop	-720
oth	-721
▁mus	-722
▁cell	-723
▁comple	-724
▁fin	-725
▁between	-726
▁love	-727
▁question	-728
▁la	-729
▁med	-730
oc	-731
▁four	-732
amp	-733
old	-734
ense	-735
ited	-736
▁ser	-737
ines	-738
ward	-739
▁women	-740
read	-741
▁ago	-742
▁mom	-743
alth	-744
▁sort	-745
ave	-746
ized	-747
▁19	-748
▁cre	-749
▁seco	-750
▁data	-751
▁cent	-752
▁10	-753
▁word	-754
▁place	-755
iss	-756
▁plan	-757
cy	-758
▁met	-759
▁used	-760
ced	-761
▁ext	-762
▁20	-763
▁grow	-764
▁too	-765
iness	-766
ures	-767
▁att	-768
ork	-769
ways	-770
ger	-771
▁op	-772
az	-773
▁maybe	-774
▁water	-775
▁light	-776
oney	-777
▁nat	-778
▁example	-779
▁old	-780
aph	-781
formation	-782
▁read	-783
▁ok	-784
▁less	-785
ific	-786
▁technology	-787
▁live	-788
ings	-789
▁done	-790
▁small	-791
▁americ	-792
ered	-793
conom	-794
ute	-795
▁doesn	-796
ven	-797
▁el	-798
▁beh	-799
▁care	-800
cept	-801
#9	-802
▁&#9	-803
ets	-804
▁wanted	-805
▁wo	-806
▁econom	-807
▁children	-808
▁bus	-809
▁looking	-810
▁chang	-811
▁always	-812
▁gener	-813
▁believe	-814
▁project	-815
▁dem	-816
▁rec	-817
ably	-818
▁univer	-819
▁eff	-820
▁far	-821
▁money	-822
▁giv	-823
pl	-824
▁teach	-825
▁partic	-826
ale	-827
▁ter	-828
selves	-829
▁move	-830
▁expl	-831
▁comput	-832
ail	-833
▁working	-834
▁bi	-835
▁ever	-836
▁5	-837
ands	-838
▁health	-839
▁second	-840
▁war	-841
▁book	-842
▁whole	-843
▁information	-844
▁poss	-845
▁reas	-846
▁hard	-847
▁lar	-848
ative	-849
▁five	-850
▁country	-851
▁kids	-852
▁food	-853
▁reg	-854
▁sk	-855
▁home	-856
ational	-857
▁away	-858
▁stu	-859
▁using	-860
▁form	-861
▁everything	-862
▁create	-863
▁trying	-864
▁4	-865
▁run	-866
▁mind	-867
▁resp	-868
fect	-869
ural	-870
▁cap	-871
▁prot	-872
hip	-873
▁lead	-874
▁sing	-875
vers	-876
led	-877
▁frie	-878
▁space	-879
▁cou	-880
ird	-881
▁acc	-882
▁million	-883
▁cor	-884
pr	-885
▁sub	-886
▁means	-887
cer	-888
ries	-889
▁supp	-890
nect	-891
ism	-892
▁open	-893
▁pict	-894
gr	-895
ments	-896
▁vis	-897
▁pass	-898
▁conf	-899
▁pub	-900
▁hand	-901
▁process	-902
▁fun	-903
ract	-904
▁fut	-905
gg	-906
wh	-907
▁become	-908
▁organ	-909
▁compan	-910
ne	-911
▁walk	-912
▁doll	-913
ah	-914
ruct	-915
▁number	-916
▁anim	-917
ins	-918
▁pres	-919
▁times	-920
▁thinking	-921
▁share	-922
ten	-923
▁took	-924
▁future	-925
▁best	-926
sw	-927
its	-928
ories	-929
▁prob	-930
▁energ	-931
▁social	-932
▁quite	-933
▁val	-934
▁cle	-935
▁pop	-936
▁elect	-937
ead	-938
▁glo	-939
rib	-940
▁contro	-941
▁intern	-942
▁sw	-943
▁soci	-944
aut	-945
ention	-946
▁char	-947
roup	-948
▁says	-949
▁head	-950
▁rese	-951
iew	-952
▁ted	-953
▁left	-954
▁enough	-955
ues	-956
▁energy	-957
ogr	-958
▁pat	-959
▁answ	-960
vern	-961
ks	-962
▁gre	-963
iting	-964
▁aut	-965
alf	-966
ertain	-967
▁getting	-968
▁afric	-969
▁making	-970
▁group	-971
▁lives	-972
ner	-973
ety	-974
▁body	-975
▁comes	-976
▁env	-977
▁beg	-978
ouse	-979
nce	-980
bs	-981
▁without	-982
▁set	-983
▁month	-984
▁research	-985
cus	-986
irl	-987
▁science	-988
bal	-989
▁okay	-990
▁govern	-991
▁probably	-992
▁ty	-993
▁room	-994
▁spec	-995
ier	-996
▁pret	-997
ts	-998
▁sound	-999
▁business	-1000
ital	-1001
▁connect	-1002
▁interesting	-1003
▁keep	-1004
▁!	-1005
▁eas	-1006
▁sense	-1007
▁music	-1008
ices	-1009
▁phot	-1010
▁happened	-1011
▁cur	-1012
▁top	-1013
▁moment	-1014
▁countries	-1015
ying	-1016
▁makes	-1017
▁det	-1018
ood	-1019
▁pretty	-1020
▁educ	-1021
ont	-1022
iron	-1023
▁city	-1024
▁hist	-1025
▁talking	-1026
▁add	-1027
▁environ	-1028
▁beaut	-1029
▁dist	-1030
▁yet	-1031
▁dollars	-1032
▁pie	-1033
▁lang	-1034
▁youn	-1035
▁men	-1036
▁while	-1037
▁imagine	-1038
ever	-1039
lf	-1040
▁mor	-1041
▁phys	-1042
▁acr	-1043
▁mark	-1044
ina	-1045
▁cho	-1046
▁half	-1047
▁told	-1048
idd	-1049
ior	-1050
▁200	-1051
▁par	-1052
▁such	-1053
uring	-1054
▁reason	-1055
▁mar	-1056
▁experience	-1057
▁cult	-1058
▁air	-1059
▁stand	-1060
▁simple	-1061
aces	-1062
▁opp	-1063
▁wee	-1064
▁earth	-1065
▁scient	-1066
io	-1067
▁list	-1068
▁polit	-1069
▁else	-1070
▁allow	-1071
▁across	-1072
ote	-1073
llow	-1074
▁langu	-1075
▁z	-1076
aps	-1077
bo	-1078
ew	-1079
▁matter	-1080
▁face	-1081
▁vide	-1082
▁lab	-1083
▁rob	-1084
▁case	-1085
▁girl	-1086
▁once	-1087
▁stuff	-1088
▁ey	-1089
▁cells	-1090
ided	-1091
ately	-1092
▁bre	-1093
ient	-1094
▁sign	-1095
▁stop	-1096
▁inside	-1097
▁living	-1098
▁building	-1099
▁side	-1100
▁mem	-1101
▁saw	-1102
no	-1103
▁asked	-1104
▁amaz	-1105
▁bring	-1106
▁model	-1107
▁watch	-1108
gs	-1109
▁ways	-1110
▁global	-1111
der	-1112
▁hope	-1113
▁hour	-1114
▁later	-1115
▁family	-1116
▁anything	-1117
▁bad	-1118
▁inf	-1119
▁stre	-1120
man	-1121
▁young	-1122
ember	-1123
▁happens	-1124
work	-1125
▁goes	-1126
▁prof	-1127
ality	-1128
▁coming	-1129
▁wa	-1130
▁environment	-1131
▁rest	-1132
lly	-1133
ograph	-1134
▁wrong	-1135
▁suc	-1136
▁age	-1137
ught	-1138
ince	-1139
ulation	-1140
▁particular	-1141
▁pain	-1142
▁six	-1143
▁single	-1144
▁ref	-1145
▁mach	-1146
▁equ	-1147
▁sit	-1148
air	-1149
ilt	-1150
imes	-1151
most	-1152
▁public	-1153
▁yes	-1154
▁wonder	-1155
▁whether	-1156
where	-1157
me	-1158
ortun	-1159
▁days	-1160
▁within	-1161
▁problems	-1162
▁sure	-1163
▁having	-1164
▁states	-1165
▁thous	-1166
▁def	-1167
▁someone	-1168
▁blo	-1169
▁control	-1170
▁heart	-1171
▁certain	-1172
▁nothing	-1173
▁both	-1174
iter	-1175
ivid	-1176
▁begin	-1177
▁complete	-1178
orn	-1179
▁loc	-1180
▁self	-1181
▁seen	-1182
▁che	-1183
▁effect	-1184
▁fig	-1185
▁basically	-1186
ank	-1187
cing	-1188
▁answer	-1189
arent	-1190
▁level	-1191
aterial	-1192
▁unt	-1193
▁words	-1194
▁often	-1195
▁billion	-1196
▁ca	-1197
▁picture	-1198
ern	-1199
ott	-1200
▁gl	-1201
▁fore	-1202
▁news	-1203
▁test	-1204
▁computer	-1205
med	-1206
olution	-1207
▁ideas	-1208
eng	-1209
▁saying	-1210
utes	-1211
▁myself	-1212
▁remember	-1213
▁fil	-1214
▁hear	-1215
ization	-1216
ash	-1217
▁mag	-1218
▁almost	-1219
▁everybody	-1220
ape	-1221
▁kill	-1222
▁dev	-1223
itive	-1224
▁product	-1225
▁looked	-1226
▁exact	-1227
▁language	-1228
▁video	-1229
ime	-1230
▁community	-1231
nding	-1232
less	-1233
▁state	-1234
lish	-1235
▁30	-1236
▁possible	-1237
ters	-1238
▁dise	-1239
▁pos	-1240
▁true	-1241
▁class	-1242
▁material	-1243
ants	-1244
▁amazing	-1245
ling	-1246
▁cond	-1247
▁africa	-1248
ots	-1249
unch	-1250
▁individ	-1251
gram	-1252
▁sec	-1253
▁treat	-1254
▁incred	-1255
▁aud	-1256
▁iss	-1257
▁di	-1258
aper	-1259
ury	-1260
▁net	-1261
ready	-1262
▁chall	-1263
▁night	-1264
▁works	-1265
▁sou	-1266
ering	-1267
▁history	-1268
▁exc	-1269
▁already	-1270
▁9	-1271
side	-1272
▁cost	-1273
▁ge	-1274
▁beautif	-1275
ases	-1276
▁disco	-1277
▁ass	-1278
iddle	-1279
▁entire	-1280
▁individual	-1281
na	-1282
ware	-1283
▁looks	-1284
▁sometimes	-1285
▁guy	-1286
▁50	-1287
▁oh	-1288
▁job	-1289
▁heard	-1290
▁experim	-1291
▁cal	-1292
get	-1293
ndred	-1294
▁decided	-1295
▁instead	-1296
▁adv	-1297
▁vir	-1298
▁education	-1299
▁dire	-1300
▁past	-1301
▁until	-1302
▁middle	-1303
▁hundred	-1304
ene	-1305
rop	-1306
▁built	-1307
▁united	-1308
pect	-1309
▁mil	-1310
▁contin	-1311
▁friends	-1312
▁stories	-1313
▁success	-1314
up	-1315
▁vo	-1316
imate	-1317
row	-1318
▁ret	-1319
▁tool	-1320
▁follow	-1321
▁pay	-1322
▁tre	-1323
▁collect	-1324
▁months	-1325
▁since	-1326
▁result	-1327
▁program	-1328
▁government	-1329
ives	-1330
ages	-1331
ustr	-1332
vious	-1333
▁house	-1334
▁large	-1335
osed	-1336
tern	-1337
▁couple	-1338
▁beautiful	-1339
▁6	-1340
▁15	-1341
atic	-1342
ield	-1343
▁deep	-1344
▁wasn	-1345
▁const	-1346
▁order	-1347
▁train	-1348
▁society	-1349
to	-1350
▁dep	-1351
▁free	-1352
ken	-1353
▁dra	-1354
▁everyone	-1355
ames	-1356
ired	-1357
▁piece	-1358
▁huge	-1359
▁figure	-1360
▁taking	-1361
▁internet	-1362
▁engine	-1363
▁nature	-1364
▁minutes	-1365
▁law	-1366
▁nor	-1367
▁woman	-1368
▁god	-1369
▁universe	-1370
land	-1371
▁bab	-1372
1;	-1373
3;	-1374
▁isn	-1375
▁&#91;	-1376
▁&#93;	-1377
▁though	-1378
br	-1379
▁ris	-1380
ivity	-1381
▁somebody	-1382
▁av	-1383
▁became	-1384
▁exactly	-1385
ron	-1386
▁cancer	-1387
▁planet	-1388
▁7	-1389
bers	-1390
ream	-1391
▁har	-1392
▁quick	-1393
▁incre	-1394
▁learned	-1395
▁8	-1396
▁100	-1397
▁sex	-1398
▁id	-1399
▁appro	-1400
ental	-1401
▁team	-1402
▁listen	-1403
▁must	-1404
▁view	-1405
▁complex	-1406
etic	-1407
▁front	-1408
uck	-1409
ined	-1410
▁abs	-1411
ision	-1412
li	-1413
▁china	-1414
▁inno	-1415
▁green	-1416
▁mother	-1417
▁completely	-1418
▁focus	-1419
▁themselves	-1420
▁behav	-1421
sy	-1422
ond	-1423
▁ve	-1424
ians	-1425
▁cra	-1426
▁speak	-1427
▁created	-1428
▁study	-1429
dd	-1430
▁rev	-1431
▁gets	-1432
▁univers	-1433
ared	-1434
omes	-1435
ane	-1436
▁emp	-1437
aster	-1438
▁step	-1439
▁third	-1440
▁ye	-1441
▁happening	-1442
line	-1443
▁questions	-1444
▁fre	-1445
▁struct	-1446
▁meet	-1447
▁hours	-1448
▁miss	-1449
▁prov	-1450
▁game	-1451
ats	-1452
▁knew	-1453
▁places	-1454
▁sho	-1455
▁arch	-1456
▁name	-1457
ability	-1458
▁others	-1459
gest	-1460
▁rad	-1461
▁rather	-1462
ub	-1463
▁kinds	-1464
▁students	-1465
▁line	-1466
▁against	-1467
ien	-1468
▁clear	-1469
cul	-1470
▁democ	-1471
ential	-1472
▁ant	-1473
▁cam	-1474
icult	-1475
▁—	-1476
▁shows	-1477
▁ste	-1478
aking	-1479
▁invest	-1480
ional	-1481
▁itself	-1482
▁es	-1483
▁mic	-1484
▁mass	-1485
▁mess	-1486
▁opportun	-1487
▁ones	-1488
▁ourselves	-1489
▁bra	-1490
itting	-1491
cle	-1492
▁mill	-1493
▁neur	-1494
▁parent	-1495
▁..	-1496
▁vi	-1497
▁simp	-1498
▁close	-1499
▁black	-1500
▁company	-1501
▁...	-1502
▁sun	-1503
ising	-1504
▁coll	-1505
▁hold	-1506
▁explain	-1507
▁bro	-1508
▁pot	-1509
▁innov	-1510
ogn	-1511
ming	-1512
▁gave	-1513
▁norm	-1514
▁relations	-1515
▁thousands	-1516
▁meas	-1517
ones	-1518
▁object	-1519
▁difference	-1520
iqu	-1521
▁fail	-1522
▁yeah	-1523
▁expect	-1524
▁worked	-1525
ush	-1526
olved	-1527
▁difficult	-1528
▁dru	-1529
▁ple	-1530
istic	-1531
▁jour	-1532
▁land	-1533
▁grand	-1534
▁wind	-1535
▁ho	-1536
▁turns	-1537
▁happy	-1538
▁impro	-1539
▁couldn	-1540
▁disease	-1541
▁finally	-1542
▁typ	-1543
acter	-1544
lud	-1545
▁full	-1546
▁surpr	-1547
▁during	-1548
▁learning	-1549
ator	-1550
▁da	-1551
▁oil	-1552
att	-1553
▁interact	-1554
▁eur	-1555
▁won	-1556
haps	-1557
ibly	-1558
▁ele	-1559
▁network	-1560
▁american	-1561
ider	-1562
▁del	-1563
▁early	-1564
▁america	-1565
▁perhaps	-1566
▁death	-1567
▁india	-1568
▁mot	-1569
ients	-1570
▁bott	-1571
▁outside	-1572
▁deal	-1573
▁along	-1574
cc	-1575
▁ill	-1576
▁fund	-1577
ination	-1578
▁amount	-1579
▁arg	-1580
▁liter	-1581
▁lots	-1582
▁changed	-1583
▁cir	-1584
▁hy	-1585
sych	-1586
wards	-1587
urs	-1588
▁ident	-1589
▁market	-1590
ret	-1591
▁machine	-1592
▁systems	-1593
▁takes	-1594
▁behavior	-1595
▁powerful	-1596
▁population	-1597
▁emot	-1598
▁colle	-1599
▁recent	-1600
▁red	-1601
▁short	-1602
▁guys	-1603
▁math	-1604
▁leg	-1605
ump	-1606
▁tem	-1607
▁fear	-1608
▁oper	-1609
▁sens	-1610
▁least	-1611
▁south	-1612
▁natural	-1613
▁fall	-1614
▁protect	-1615
▁species	-1616
▁eat	-1617
▁obvious	-1618
▁dig	-1619
▁seven	-1620
▁spend	-1621
▁cy	-1622
▁present	-1623
▁audience	-1624
ctor	-1625
▁pred	-1626
▁psych	-1627
▁super	-1628
fu	-1629
▁fly	-1630
aring	-1631
▁culture	-1632
▁given	-1633
▁animals	-1634
▁cut	-1635
▁easy	-1636
▁behind	-1637
▁extra	-1638
▁maj	-1639
ident	-1640
▁hands	-1641
ither	-1642
▁mole	-1643
▁york	-1644
▁paper	-1645
▁simply	-1646
not	-1647
▁var	-1648
▁image	-1649
▁yourself	-1650
▁field	-1651
▁opt	-1652
vered	-1653
▁fight	-1654
▁media	-1655
elt	-1656
▁low	-1657
▁squ	-1658
▁realized	-1659
ased	-1660
▁lim	-1661
gress	-1662
▁stay	-1663
▁needed	-1664
▁companies	-1665
▁chr	-1666
▁sle	-1667
verage	-1668
ature	-1669
ny	-1670
▁er	-1671
astic	-1672
▁trad	-1673
utions	-1674
▁father	-1675
▁personal	-1676
ides	-1677
▁bar	-1678
ns	-1679
▁non	-1680
▁local	-1681
▁serv	-1682
▁pract	-1683
▁exist	-1684
▁needs	-1685
▁century	-1686
▁relationship	-1687
▁eight	-1688
▁emb	-1689
▁terr	-1690
▁major	-1691
erv	-1692
▁perform	-1693
▁economic	-1694
ri	-1695
year	-1696
▁dream	-1697
▁leave	-1698
▁political	-1699
room	-1700
ode	-1701
face	-1702
▁europe	-1703
▁12	-1704
▁area	-1705
ted	-1706
▁chem	-1707
▁absol	-1708
gen	-1709
▁18	-1710
▁access	-1711
▁record	-1712
cks	-1713
▁felt	-1714
itions	-1715
▁support	-1716
ney	-1717
inary	-1718
▁turned	-1719
by	-1720
▁key	-1721
▁extre	-1722
▁north	-1723
▁common	-1724
▁famil	-1725
▁leaders	-1726
▁absolute	-1727
cious	-1728
ledge	-1729
▁eyes	-1730
▁event	-1731
▁ap	-1732
▁oce	-1733
ially	-1734
▁friend	-1735
ake	-1736
▁40	-1737
▁value	-1738
▁seeing	-1739
▁communic	-1740
▁beginning	-1741
▁ice	-1742
▁break	-1743
ological	-1744
▁win	-1745
ource	-1746
▁film	-1747
ison	-1748
▁ess	-1749
ived	-1750
idence	-1751
cl	-1752
ument	-1753
▁spent	-1754
▁perfect	-1755
▁bill	-1756
▁viol	-1757
▁taken	-1758
▁patter	-1759
▁photograph	-1760
osp	-1761
▁longer	-1762
▁moving	-1763
▁mult	-1764
▁sent	-1765
▁wonderful	-1766
mer	-1767
▁desc	-1768
▁draw	-1769
▁includ	-1770
▁strong	-1771
ipp	-1772
fully	-1773
▁voice	-1774
▁cities	-1775
▁ground	-1776
▁civ	-1777
▁cannot	-1778
▁quickly	-1779
▁parts	-1780
▁robot	-1781
inal	-1782
▁buy	-1783
▁began	-1784
▁experiment	-1785
▁week	-1786
rought	-1787
▁special	-1788
itch	-1789
▁camp	-1790
▁size	-1791
▁reach	-1792
rodu	-1793
▁pick	-1794
▁growth	-1795
dden	-1796
▁surv	-1797
▁parents	-1798
▁sudden	-1799
▁stage	-1800
▁occ	-1801
▁tot	-1802
▁blue	-1803
▁cool	-1804
▁terms	-1805
▁whatever	-1806
ule	-1807
▁requ	-1808
ources	-1809
▁box	-1810
▁conv	-1811
▁travel	-1812
▁ir	-1813
itect	-1814
▁sleep	-1815
▁center	-1816
▁architect	-1817
▁enc	-1818
▁lost	-1819
▁profess	-1820
▁impact	-1821
▁wouldn	-1822
▁national	-1823
ony	-1824
ex	-1825
ows	-1826
▁vers	-1827
▁near	-1828
▁images	-1829
ples	-1830
port	-1831
▁cop	-1832
▁dead	-1833
ium	-1834
▁sum	-1835
▁poor	-1836
▁repres	-1837
els	-1838
ife	-1839
▁wall	-1840
hood	-1841
▁anal	-1842
▁auth	-1843
▁rich	-1844
▁either	-1845
▁street	-1846
▁knowledge	-1847
zy	-1848
▁insp	-1849
▁tried	-1850
ung	-1851
iving	-1852
▁feed	-1853
▁write	-1854
ilar	-1855
▁bene	-1856
▁consum	-1857
lt	-1858
▁obs	-1859
ively	-1860
▁risk	-1861
ustain	-1862
▁morning	-1863
aw	-1864
▁sil	-1865
▁fast	-1866
▁hosp	-1867
▁situ	-1868
▁opportunity	-1869
uth	-1870
▁stat	-1871
▁attention	-1872
▁aw	-1873
ivers	-1874
▁approach	-1875
ised	-1876
▁flo	-1877
▁direct	-1878
▁average	-1879
▁sitting	-1880
▁die	-1881
▁modern	-1882
oud	-1883
▁phil	-1884
▁recogn	-1885
▁english	-1886
▁measure	-1887
mb	-1888
ales	-1889
▁fav	-1890
▁fire	-1891
▁based	-1892
▁camer	-1893
▁meaning	-1894
▁reality	-1895
▁books	-1896
▁weeks	-1897
▁born	-1898
▁comb	-1899
▁orig	-1900
bor	-1901
ton	-1902
ateg	-1903
ption	-1904
▁caus	-1905
cially	-1906
▁giving	-1907
▁spread	-1908
▁growing	-1909
▁rele	-1910
▁animal	-1911
▁instit	-1912
▁changes	-1913
▁extreme	-1914
com	-1915
rent	-1916
▁physical	-1917
ler	-1918
▁pa	-1919
▁poll	-1920
iction	-1921
▁scientists	-1922
ills	-1923
ators	-1924
ggest	-1925
▁civil	-1926
▁economy	-1927
▁suggest	-1928
enge	-1929
▁bur	-1930
▁sat	-1931
▁dest	-1932
▁text	-1933
▁anyone	-1934
▁feeling	-1935
▁respons	-1936
▁interested	-1937
▁25	-1938
izing	-1939
▁indust	-1940
▁structure	-1941
▁hot	-1942
ances	-1943
▁white	-1944
ibility	-1945
▁brought	-1946
▁climate	-1947
go	-1948
xy	-1949
ented	-1950
▁crit	-1951
▁humans	-1952
▁dna	-1953
▁favor	-1954
iny	-1955
ored	-1956
▁hor	-1957
▁pur	-1958
▁ability	-1959
▁developed	-1960
acy	-1961
erm	-1962
aged	-1963
anger	-1964
▁nice	-1965
asc	-1966
▁eye	-1967
▁vac	-1968
▁gone	-1969
▁post	-1970
▁redu	-1971
▁color	-1972
▁seems	-1973
▁main	-1974
▁press	-1975
urb	-1976
▁foot	-1977
▁soft	-1978
▁tools	-1979
▁millions	-1980
▁tradition	-1981
▁ce	-1982
▁save	-1983
▁girls	-1984
▁peace	-1985
▁incredible	-1986
▁revolution	-1987
gn	-1988
end	-1989
inese	-1990
▁dark	-1991
▁sustain	-1992
▁challenge	-1993
ards	-1994
▁hon	-1995
▁smart	-1996
▁running	-1997
loy	-1998
▁priv	-1999
▁tele	-2000
▁known	-2001
▁affect	-2002
▁democra	-2003
▁numbers	-2004
▁developing	-2005
▁pull	-2006
▁realize	-2007
ford	-2008
▁circ	-2009
▁path	-2010
▁issue	-2011
▁describ	-2012
▁express	-2013
▁starting	-2014
ery	-2015
▁road	-2016
▁type	-2017
▁baby	-2018
▁truth	-2019
▁ast	-2020
▁chinese	-2021
▁creating	-2022
sh	-2023
▁/	-2024
▁ocean	-2025
▁online	-2026
▁development	-2027
ids	-2028
ral	-2029
lict	-2030
▁wrote	-2031
ites	-2032
ouch	-2033
▁ach	-2034
▁understanding	-2035
▁arm	-2036
bon	-2037
cking	-2038
▁scale	-2039
▁bottom	-2040
▁playing	-2041
▁fem	-2042
▁vol	-2043
▁guess	-2044
▁similar	-2045
ains	-2046
▁soon	-2047
▁vill	-2048
▁general	-2049
▁hundreds	-2050
vent	-2051
ensive	-2052
▁relig	-2053
▁innovation	-2054
▁solution	-2055
▁rul	-2056
▁benef	-2057
▁neigh	-2058
amed	-2059
of	-2060
ged	-2061
▁prom	-2062
▁slow	-2063
▁blood	-2064
▁writing	-2065
▁trust	-2066
eed	-2067
eter	-2068
▁unf	-2069
▁force	-2070
▁telling	-2071
▁literally	-2072
▁absolutely	-2073
▁polic	-2074
cr	-2075
ique	-2076
▁mov	-2077
▁seem	-2078
▁areas	-2079
▁movement	-2080
▁dan	-2081
▁deg	-2082
▁alone	-2083
▁knows	-2084
▁medic	-2085
▁university	-2086
▁gives	-2087
ned	-2088
par	-2089
▁espe	-2090
▁asking	-2091
▁sounds	-2092
▁theory	-2093
▁convers	-2094
▁serious	-2095
▁technolog	-2096
▁especially	-2097
istan	-2098
▁experien	-2099
▁patients	-2100
apt	-2101
▁aren	-2102
▁depe	-2103
erence	-2104
▁current	-2105
▁predict	-2106
▁bir	-2107
ister	-2108
▁rate	-2109
▁concept	-2110
▁forward	-2111
▁generation	-2112
ift	-2113
oph	-2114
▁goog	-2115
▁ult	-2116
▁prin	-2117
▁scre	-2118
▁suff	-2119
▁showed	-2120
▁patient	-2121
por	-2122
▁pictures	-2123
▁transform	-2124
▁cars	-2125
▁prop	-2126
▁phone	-2127
▁solve	-2128
▁nobody	-2129
lu	-2130
▁imm	-2131
▁led	-2132
▁worth	-2133
▁industry	-2134
▁proper	-2135
▁discovered	-2136
▁teachers	-2137
chan	-2138
▁bal	-2139
▁bed	-2140
▁dou	-2141
▁plant	-2142
let	-2143
ove	-2144
▁lad	-2145
▁tur	-2146
entially	-2147
▁changing	-2148
▁materials	-2149
ug	-2150
book	-2151
▁arr	-2152
▁boy	-2153
▁feet	-2154
▁normal	-2155
▁incredibly	-2156
ik	-2157
▁est	-2158
ellig	-2159
▁produce	-2160
▁recently	-2161
▁east	-2162
▁avail	-2163
▁fundam	-2164
▁democracy	-2165
▁obviously	-2166
arr	-2167
ified	-2168
▁ball	-2169
▁compet	-2170
▁indeed	-2171
▁subject	-2172
▁challeng	-2173
▁sea	-2174
▁stra	-2175
▁potential	-2176
▁map	-2177
▁tar	-2178
▁fair	-2179
▁games	-2180
he	-2181
ley	-2182
▁ah	-2183
asing	-2184
▁table	-2185
▁peri	-2186
▁among	-2187
▁involved	-2188
▁evolution	-2189
ify	-2190
▁bey	-2191
▁fur	-2192
▁lif	-2193
▁office	-2194
▁resources	-2195
ther	-2196
▁tas	-2197
usion	-2198
▁achie	-2199
▁defin	-2200
▁touch	-2201
▁talked	-2202
▁schools	-2203
▁surface	-2204
▁conflict	-2205
ency	-2206
▁son	-2207
imens	-2208
▁haven	-2209
▁carbon	-2210
▁visual	-2211
▁beyond	-2212
▁google	-2213
▁period	-2214
▁birth	-2215
▁chance	-2216
▁compass	-2217
ried	-2218
▁joh	-2219
osing	-2220
▁sell	-2221
▁shape	-2222
ilities	-2223
▁detail	-2224
▁digital	-2225
▁journey	-2226
▁intellig	-2227
▁happiness	-2228
ese	-2229
unt	-2230
▁rece	-2231
▁tiny	-2232
▁west	-2233
isions	-2234
▁choice	-2235
▁except	-2236
▁electric	-2237
▁technologies	-2238
▁hig	-2239
▁hit	-2240
▁cross	-2241
▁rules	-2242
▁groups	-2243
ival	-2244
▁meth	-2245
▁safe	-2246
▁sand	-2247
▁mount	-2248
▁web	-2249
ences	-2250
▁danger	-2251
▁issues	-2252
▁vision	-2253
▁progress	-2254
ps	-2255
ock	-2256
▁medical	-2257
bit	-2258
▁sn	-2259
iant	-2260
osph	-2261
▁lay	-2262
▁stru	-2263
▁mechan	-2264
▁message	-2265
▁situation	-2266
xic	-2267
▁necess	-2268
▁function	-2269
▁projects	-2270
jo	-2271
▁flu	-2272
▁mal	-2273
▁mob	-2274
oring	-2275
▁flow	-2276
▁sold	-2277
like	-2278
▁neg	-2279
ero	-2280
ires	-2281
▁creative	-2282
▁80	-2283
▁cit	-2284
▁div	-2285
▁lea	-2286
▁send	-2287
▁device	-2288
▁memory	-2289
▁search	-2290
▁account	-2291
▁available	-2292
ein	-2293
▁ep	-2294
▁react	-2295
▁please	-2296
▁compassion	-2297
▁everywhere	-2298
ma	-2299
▁60	-2300
▁activ	-2301
▁breat	-2302
str	-2303
▁11	-2304
▁ec	-2305
ades	-2306
▁cart	-2307
▁freed	-2308
▁miles	-2309
▁attack	-2310
▁teacher	-2311
abor	-2312
▁bird	-2313
▁nine	-2314
▁tend	-2315
▁wish	-2316
▁becomes	-2317
▁putting	-2318
▁walking	-2319
▁suddenly	-2320
iar	-2321
vert	-2322
odies	-2323
▁drive	-2324
▁likely	-2325
▁consider	-2326
▁evidence	-2327
ala	-2328
▁dam	-2329
▁rock	-2330
▁cause	-2331
▁tells	-2332
▁bigger	-2333
▁results	-2334
▁certainly	-2335
▁individuals	-2336
▁199	-2337
▁rid	-2338
▁park	-2339
▁wait	-2340
ishing	-2341
▁micro	-2342
▁designed	-2343
▁particip	-2344
▁ban	-2345
▁code	-2346
▁blind	-2347
▁action	-2348
▁passion	-2349
ips	-2350
oms	-2351
light	-2352
▁cris	-2353
▁died	-2354
▁song	-2355
▁clean	-2356
une	-2357
▁emerg	-2358
▁towards	-2359
fort	-2360
▁pan	-2361
arily	-2362
▁capt	-2363
uly	-2364
apan	-2365
cuss	-2366
▁crazy	-2367
▁waste	-2368
▁anybody	-2369
▁reasons	-2370
▁hospital	-2371
▁conscious	-2372
ext	-2373
▁mis	-2374
▁basic	-2375
▁cloud	-2376
▁japan	-2377
▁moral	-2378
▁sever	-2379
▁computers	-2380
rage	-2381
▁jud	-2382
ously	-2383
▁virt	-2384
▁magic	-2385
▁ready	-2386
▁aware	-2387
▁bacter	-2388
▁notice	-2389
▁college	-2390
▁favorite	-2391
▁drug	-2392
▁prim	-2393
▁report	-2394
▁stress	-2395
▁improve	-2396
▁scientific	-2397
medi	-2398
▁hiv	-2399
antly	-2400
▁lose	-2401
▁print	-2402
▁trial	-2403
▁x	-2404
uit	-2405
▁lived	-2406
▁solar	-2407
▁violence	-2408
ores	-2409
ished	-2410
▁fant	-2411
▁port	-2412
▁rain	-2413
▁citiz	-2414
▁molec	-2415
▁author	-2416
▁introdu	-2417
▁examples	-2418
▁software	-2419
▁apart	-2420
▁encou	-2421
▁starts	-2422
▁taught	-2423
view	-2424
ctors	-2425
▁transl	-2426
▁biggest	-2427
ners	-2428
▁din	-2429
▁pen	-2430
▁onto	-2431
▁square	-2432
▁freedom	-2433
▁several	-2434
▁extraord	-2435
▁eventually	-2436
onse	-2437
▁adm	-2438
▁tom	-2439
▁star	-2440
estern	-2441
▁graph	-2442
▁choose	-2443
▁neighbor	-2444
▁particularly	-2445
▁meant	-2446
▁moved	-2447
▁camera	-2448
▁screen	-2449
▁quality	-2450
ee	-2451
ges	-2452
ude	-2453
▁bank	-2454
▁vacc	-2455
▁minds	-2456
▁faster	-2457
▁forest	-2458
▁context	-2459
▁showing	-2460
▁student	-2461
umb	-2462
▁tv	-2463
▁luck	-2464
▁prison	-2465
izations	-2466
▁content	-2467
▁surprising	-2468
▁communities	-2469
▁brit	-2470
ground	-2471
▁drugs	-2472
▁finan	-2473
▁secret	-2474
▁further	-2475
▁gt	-2476
ring	-2477
▁door	-2478
▁totally	-2479
▁collabor	-2480
▁represent	-2481
▁lt	-2482
▁isl	-2483
urity	-2484
▁fish	-2485
▁worse	-2486
▁region	-2487
▁decisions	-2488
dom	-2489
more	-2490
▁farm	-2491
▁jobs	-2492
▁labor	-2493
ruction	-2494
ims	-2495
nces	-2496
rast	-2497
▁ara	-2498
▁dav	-2499
oming	-2500
▁stick	-2501
▁brains	-2502
▁immedi	-2503
▁village	-2504
▁positive	-2505
▁response	-2506
▁connected	-2507
nal	-2508
▁dad	-2509
▁whe	-2510
▁mathem	-2511
▁threat	-2512
agn	-2513
▁bud	-2514
others	-2515
▁assum	-2516
▁virus	-2517
▁method	-2518
▁strateg	-2519
▁skin	-2520
▁chemical	-2521
come	-2522
ucle	-2523
▁rand	-2524
▁adult	-2525
▁detect	-2526
▁remark	-2527
▁training	-2528
▁watching	-2529
yn	-2530
amm	-2531
▁dom	-2532
▁san	-2533
▁swe	-2534
▁push	-2535
▁studies	-2536
▁eth	-2537
▁fix	-2538
▁pal	-2539
▁afgh	-2540
▁fine	-2541
▁ther	-2542
▁carry	-2543
▁allowed	-2544
▁western	-2545
▁character	-2546
▁including	-2547
cked	-2548
ging	-2549
▁fasc	-2550
▁spir	-2551
▁webs	-2552
▁wants	-2553
▁buildings	-2554
fer	-2555
phone	-2556
verty	-2557
▁mine	-2558
▁artist	-2559
▁international	-2560
ief	-2561
ops	-2562
iger	-2563
ured	-2564
▁ign	-2565
▁mir	-2566
atory	-2567
eties	-2568
▁conc	-2569
▁infect	-2570
▁poverty	-2571
akes	-2572
▁grew	-2573
▁influ	-2574
▁nucle	-2575
▁appear	-2576
▁crisis	-2577
▁mental	-2578
▁decision	-2579
ama	-2580
▁16	-2581
▁sus	-2582
▁john	-2583
▁separ	-2584
▁shown	-2585
▁bodies	-2586
▁return	-2587
▁activity	-2588
▁perspect	-2589
▁position	-2590
▁traditional	-2591
▁hom	-2592
▁fill	-2593
▁repl	-2594
▁wild	-2595
▁speed	-2596
▁christ	-2597
▁doctor	-2598
▁plants	-2599
▁largest	-2600
ech	-2601
how	-2602
soci	-2603
▁deb	-2604
▁movie	-2605
▁trees	-2606
▁service	-2607
▁continue	-2608
▁hop	-2609
▁oxy	-2610
▁syn	-2611
▁clin	-2612
▁cook	-2613
▁earl	-2614
ughter	-2615
▁afghan	-2616
icle	-2617
▁201	-2618
▁den	-2619
▁glass	-2620
▁named	-2621
▁temper	-2622
▁extremely	-2623
ai	-2624
bb	-2625
po	-2626
▁14	-2627
▁clos	-2628
▁mist	-2629
▁pack	-2630
▁vari	-2631
▁wife	-2632
▁accept	-2633
▁imposs	-2634
▁killed	-2635
▁minute	-2636
▁central	-2637
▁discuss	-2638
▁finding	-2639
▁objects	-2640
ued	-2641
▁90	-2642
▁hur	-2643
▁link	-2644
▁ended	-2645
▁income	-2646
▁conditions	-2647
ann	-2648
men	-2649
▁rap	-2650
▁enjo	-2651
istics	-2652
▁corre	-2653
▁lower	-2654
▁talks	-2655
▁truly	-2656
licated	-2657
▁anymore	-2658
▁politics	-2659
▁signific	-2660
▁specific	-2661
▁supposed	-2662
zz	-2663
ros	-2664
idge	-2665
inct	-2666
▁doc	-2667
itten	-2668
▁cold	-2669
▁muse	-2670
▁forms	-2671
▁effort	-2672
▁however	-2673
▁products	-2674
▁listening	-2675
▁organization	-2676
sect	-2677
▁ger	-2678
▁calcul	-2679
▁skills	-2680
▁excited	-2681
▁security	-2682
▁solutions	-2683
▁bom	-2684
▁cat	-2685
▁sal	-2686
eless	-2687
▁vict	-2688
▁cases	-2689
▁david	-2690
ologist	-2691
▁associ	-2692
▁points	-2693
▁source	-2694
▁surger	-2695
▁exciting	-2696
▁scr	-2697
itary	-2698
▁goal	-2699
▁role	-2700
▁allows	-2701
▁employ	-2702
▁fascin	-2703
▁higher	-2704
▁princi	-2705
▁robots	-2706
for	-2707
ped	-2708
cise	-2709
ffic	-2710
nded	-2711
oles	-2712
▁ken	-2713
ulate	-2714
▁above	-2715
▁raise	-2716
▁policy	-2717
▁african	-2718
▁reading	-2719
▁extraordinary	-2720
eth	-2721
erve	-2722
▁ran	-2723
▁arab	-2724
▁kept	-2725
▁sorts	-2726
▁museum	-2727
▁philos	-2728
▁strugg	-2729
▁doctors	-2730
▁usually	-2731
▁impossible	-2732
oid	-2733
rep	-2734
▁alive	-2735
osphere	-2736
▁rights	-2737
▁provide	-2738
▁publish	-2739
▁conversation	-2740
▁late	-2741
▁trib	-2742
▁afford	-2743
▁determ	-2744
▁disapp	-2745
▁weight	-2746
▁machines	-2747
cape	-2748
iest	-2749
▁purp	-2750
▁lands	-2751
▁models	-2752
▁somehow	-2753
▁thousand	-2754
▁financial	-2755
▁successful	-2756
▁13	-2757
here	-2758
cient	-2759
▁trou	-2760
▁smell	-2761
▁neurons	-2762
▁expensive	-2763
50	-2764
ray	-2765
emic	-2766
▁king	-2767
ressed	-2768
▁bunch	-2769
ression	-2770
▁engage	-2771
▁genetic	-2772
▁strange	-2773
▁families	-2774
▁throughout	-2775
▁essentially	-2776
▁fundamental	-2777
oke	-2778
▁ang	-2779
▁cry	-2780
ining	-2781
▁anyway	-2782
▁concer	-2783
▁capital	-2784
▁familiar	-2785
▁straight	-2786
▁teaching	-2787
▁somewhere	-2788
ster	-2789
▁ine	-2790
▁thr	-2791
urban	-2792
▁roll	-2793
▁slight	-2794
▁distrib	-2795
▁humanity	-2796
▁treatment	-2797
ams	-2798
ror	-2799
ube	-2800
▁70	-2801
▁effic	-2802
▁loved	-2803
▁manage	-2804
▁pieces	-2805
▁saving	-2806
▁series	-2807
▁plastic	-2808
▁americans	-2809
▁societies	-2810
fr	-2811
▁sad	-2812
▁sky	-2813
aries	-2814
cules	-2815
▁swim	-2816
▁clearly	-2817
▁explore	-2818
▁critical	-2819
▁17	-2820
▁upon	-2821
▁board	-2822
▁shark	-2823
▁types	-2824
▁larger	-2825
▁colleag	-2826
▁pattern	-2827
▁sym	-2828
▁desp	-2829
▁magn	-2830
▁page	-2831
▁funny	-2832
▁beauty	-2833
▁famous	-2834
▁reflect	-2835
▁patterns	-2836
ffe	-2837
omen	-2838
▁jump	-2839
▁tiss	-2840
▁demon	-2841
▁babies	-2842
▁thanks	-2843
▁respect	-2844
▁seconds	-2845
▁becoming	-2846
▁therefore	-2847
cies	-2848
▁gas	-2849
▁lau	-2850
▁hall	-2851
▁rise	-2852
▁police	-2853
▁random	-2854
▁citizens	-2855
▁effective	-2856
oon	-2857
put	-2858
rael	-2859
▁ann	-2860
ought	-2861
▁coun	-2862
▁hous	-2863
▁site	-2864
▁actual	-2865
▁molecules	-2866
▁recognize	-2867
▁fort	-2868
▁trade	-2869
ustrial	-2870
▁shared	-2871
▁greater	-2872
▁smaller	-2873
▁fantastic	-2874
▁increasing	-2875
▁complicated	-2876
▁perspective	-2877
unk	-2878
▁fra	-2879
ained	-2880
▁drop	-2881
vision	-2882
▁optim	-2883
▁launch	-2884
▁spirit	-2885
▁architecture	-2886
back	-2887
▁tal	-2888
▁heav	-2889
▁quot	-2890
▁corru	-2891
▁store	-2892
▁throw	-2893
▁female	-2894
▁version	-2895
▁standing	-2896
▁engineering	-2897
egr	-2898
▁lat	-2899
▁hero	-2900
▁pros	-2901
▁shap	-2902
▁bread	-2903
▁costs	-2904
▁genes	-2905
▁liber	-2906
▁party	-2907
▁unique	-2908
▁bacteria	-2909
▁demonstr	-2910
▁medicine	-2911
▁painting	-2912
ob	-2913
ike	-2914
▁198	-2915
▁hole	-2916
▁legs	-2917
▁prep	-2918
▁older	-2919
▁contrib	-2920
▁healthy	-2921
▁willing	-2922
▁written	-2923
▁anywhere	-2924
▁discover	-2925
▁unfortun	-2926
ana	-2927
iti	-2928
ulf	-2929
▁et	-2930
amic	-2931
fact	-2932
rene	-2933
▁iran	-2934
uments	-2935
▁forget	-2936
▁levels	-2937
▁nation	-2938
▁achieve	-2939
▁biology	-2940
▁journal	-2941
▁cust	-2942
▁mobile	-2943
▁creativity	-2944
▁electricity	-2945
▁immediately	-2946
▁environmental	-2947
aur	-2948
time	-2949
▁kil	-2950
▁mos	-2951
ently	-2952
▁chair	-2953
▁offic	-2954
▁trick	-2955
▁urban	-2956
itation	-2957
▁democr	-2958
▁electr	-2959
▁comfort	-2960
▁increase	-2961
▁connection	-2962
▁afghanistan	-2963
ees	-2964
▁ben	-2965
▁ver	-2966
▁uses	-2967
▁israel	-2968
▁speech	-2969
▁surgery	-2970
▁website	-2971
▁practice	-2972
▁dangerous	-2973
▁organizations	-2974
uss	-2975
ball	-2976
iced	-2977
▁fit	-2978
▁final	-2979
▁services	-2980
ises	-2981
iven	-2982
▁vul	-2983
acity	-2984
▁card	-2985
▁cele	-2986
▁fold	-2987
▁remind	-2988
▁decades	-2989
▁speaking	-2990
▁production	-2991
▁alg	-2992
▁radio	-2993
▁beings	-2994
▁belief	-2995
▁earlier	-2996
▁mr	-2997
rest	-2998
▁fle	-2999
aging	-3000
iling	-3001
▁forth	-3002
▁celebr	-3003
▁histor	-3004
▁popular	-3005
▁standard	-3006
▁following	-3007
aly	-3008
oty	-3009
pro	-3010
▁ut	-3011
mend	-3012
▁nut	-3013
ables	-3014
▁race	-3015
▁autom	-3016
▁match	-3017
▁track	-3018
▁honest	-3019
atically	-3020
▁television	-3021
aign	-3022
▁dro	-3023
▁sequ	-3024
▁enjoy	-3025
▁spect	-3026
ping	-3027
word	-3028
▁hus	-3029
▁pet	-3030
▁wood	-3031
▁broad	-3032
▁cover	-3033
▁campaign	-3034
▁remarkable	-3035
sequ	-3036
▁harv	-3037
▁none	-3038
▁yell	-3039
▁coffe	-3040
▁mention	-3041
▁waiting	-3042
▁challenges	-3043
▁industrial	-3044
▁21	-3045
▁veh	-3046
itude	-3047
▁apply	-3048
▁diagn	-3049
▁oppos	-3050
▁price	-3051
▁spaces	-3052
▁useful	-3053
▁vulner	-3054
▁massive	-3055
▁emotional	-3056
▁interview	-3057
▁intelligence	-3058
omet	-3059
▁alth	-3060
▁phen	-3061
▁coffee	-3062
▁helped	-3063
▁physic	-3064
▁address	-3065
▁evolved	-3066
▁performance	-3067
▁mix	-3068
▁sor	-3069
▁boys	-3070
▁birds	-3071
▁stars	-3072
▁insect	-3073
▁walked	-3074
ologists	-3075
▁himself	-3076
▁cultural	-3077
▁military	-3078
▁understood	-3079
iet	-3080
▁exh	-3081
▁gold	-3082
▁hell	-3083
▁task	-3084
▁career	-3085
▁invent	-3086
▁sexual	-3087
▁wealth	-3088
▁private	-3089
▁although	-3090
▁president	-3091
igr	-3092
imb	-3093
resh	-3094
▁ira	-3095
▁sam	-3096
▁ten	-3097
▁tor	-3098
ounds	-3099
▁weren	-3100
▁decide	-3101
▁multip	-3102
▁choices	-3103
▁nuclear	-3104
▁physics	-3105
▁surround	-3106
▁condition	-3107
ays	-3108
son	-3109
▁je	-3110
arian	-3111
attle	-3112
ement	-3113
▁mars	-3114
▁email	-3115
▁frank	-3116
▁lines	-3117
▁photo	-3118
▁german	-3119
▁classroom	-3120
▁experiments	-3121
▁neighborhood	-3122
owd	-3123
yle	-3124
▁fac	-3125
iding	-3126
▁tree	-3127
▁dance	-3128
imately	-3129
reprene	-3130
▁creates	-3131
▁phenomen	-3132
uing	-3133
▁town	-3134
▁gradu	-3135
▁whose	-3136
▁worry	-3137
ception	-3138
▁eating	-3139
▁highly	-3140
▁photos	-3141
▁meeting	-3142
▁slightly	-3143
▁direction	-3144
do	-3145
aff	-3146
iate	-3147
ndon	-3148
▁197	-3149
▁wis	-3150
board	-3151
▁zero	-3152
ashion	-3153
▁custom	-3154
▁integr	-3155
▁summer	-3156
▁target	-3157
▁values	-3158
▁facebook	-3159
▁complexity	-3160
▁conference	-3161
ipt	-3162
used	-3163
▁fat	-3164
▁ton	-3165
epend	-3166
▁iraq	-3167
▁scan	-3168
▁select	-3169
iversity	-3170
▁purpose	-3171
▁inspired	-3172
▁networks	-3173
▁transport	-3174
bel	-3175
uted	-3176
▁aid	-3177
▁ord	-3178
▁rom	-3179
▁beat	-3180
▁blog	-3181
▁austr	-3182
▁artists	-3183
▁driving	-3184
▁daughter	-3185
▁identity	-3186
▁entreprene	-3187
▁unfortunately	-3188
imin	-3189
rees	-3190
▁log	-3191
istry	-3192
rench	-3193
▁male	-3194
▁motiv	-3195
▁lights	-3196
▁london	-3197
▁focused	-3198
▁streets	-3199
▁invented	-3200
yr	-3201
▁$	-3202
uct	-3203
ancy	-3204
anda	-3205
band	-3206
isms	-3207
▁inj	-3208
aling	-3209
▁base	-3210
▁cand	-3211
▁gala	-3212
▁term	-3213
▁ahead	-3214
▁displ	-3215
▁drink	-3216
▁enorm	-3217
▁breast	-3218
▁destro	-3219
▁answers	-3220
▁independ	-3221
▁instance	-3222
▁spending	-3223
▁differences	-3224
imp	-3225
the	-3226
▁rule	-3227
▁dying	-3228
▁occur	-3229
lications	-3230
▁mathemat	-3231
▁temperature	-3232
▁laws	-3233
▁moon	-3234
▁poet	-3235
▁teen	-3236
▁analy	-3237
▁slide	-3238
▁greatest	-3239
▁profound	-3240
▁sustainable	-3241
cope	-3242
oper	-3243
▁cru	-3244
▁hey	-3245
ening	-3246
▁shop	-3247
▁river	-3248
▁worst	-3249
▁decade	-3250
▁fellow	-3251
▁mostly	-3252
▁terrible	-3253
▁leadership	-3254
▁24	-3255
cell	-3256
olve	-3257
▁etc	-3258
order	-3259
orrow	-3260
▁gent	-3261
▁mexic	-3262
▁range	-3263
▁survive	-3264
▁trouble	-3265
▁various	-3266
▁scientist	-3267
sc	-3268
anc	-3269
ceed	-3270
orge	-3271
▁500	-3272
▁atm	-3273
▁dog	-3274
apped	-3275
▁afra	-3276
▁shot	-3277
▁weap	-3278
▁check	-3279
▁instr	-3280
▁causes	-3281
▁shares	-3282
▁knowing	-3283
▁traffic	-3284
▁diseases	-3285
▁document	-3286
key	-3287
outh	-3288
wise	-3289
▁mut	-3290
▁fing	-3291
▁symb	-3292
▁laugh	-3293
▁commer	-3294
▁depart	-3295
▁dimens	-3296
▁consequ	-3297
▁foreign	-3298
▁mission	-3299
bert	-3300
▁cla	-3301
▁plat	-3302
atives	-3303
▁catch	-3304
▁pleas	-3305
▁afraid	-3306
▁brings	-3307
▁flying	-3308
▁resist	-3309
▁sharing	-3310
▁philosoph	-3311
▁published	-3312
▁communicate	-3313
la	-3314
iles	-3315
▁dyn	-3316
antic	-3317
▁join	-3318
▁mich	-3319
▁vast	-3320
iation	-3321
▁floor	-3322
▁frame	-3323
▁stren	-3324
▁active	-3325
▁noticed	-3326
▁prevent	-3327
▁washing	-3328
▁capacity	-3329
▁foundation	-3330
gth	-3331
▁eg	-3332
▁nan	-3333
▁tun	-3334
orith	-3335
▁peng	-3336
▁tens	-3337
▁twice	-3338
▁devices	-3339
▁respond	-3340
▁algorith	-3341
▁possibly	-3342
▁institutions	-3343
iers	-3344
itor	-3345
▁amb	-3346
iforn	-3347
▁bang	-3348
▁dram	-3349
▁paid	-3350
▁below	-3351
▁pengu	-3352
▁sorry	-3353
▁members	-3354
▁californ	-3355
▁directly	-3356
▁strength	-3357
▁corruption	-3358
▁experiences	-3359
ec	-3360
fl	-3361
zil	-3362
▁joy	-3363
▁pig	-3364
▁tit	-3365
▁narr	-3366
▁reve	-3367
▁stem	-3368
thetic	-3369
▁chick	-3370
▁surve	-3371
▁indian	-3372
▁nearly	-3373
▁supply	-3374
▁emotion	-3375
▁missing	-3376
▁controll	-3377
ze	-3378
▁ur	-3379
ened	-3380
wide	-3381
▁fro	-3382
▁aids	-3383
▁loss	-3384
▁basis	-3385
▁novel	-3386
▁recon	-3387
▁rough	-3388
▁brazil	-3389
▁cooper	-3390
▁forces	-3391
▁inspir	-3392
▁reduce	-3393
▁tissue	-3394
▁electron	-3395
▁relative	-3396
ky	-3397
load	-3398
▁gun	-3399
▁tax	-3400
▁hang	-3401
▁wide	-3402
▁accord	-3403
▁closer	-3404
▁gentle	-3405
▁micros	-3406
▁unlike	-3407
▁fashion	-3408
▁moments	-3409
▁california	-3410
alia	-3411
izes	-3412
idden	-3413
itted	-3414
▁note	-3415
▁airpl	-3416
▁crowd	-3417
▁magaz	-3418
▁parad	-3419
▁autism	-3420
▁compon	-3421
▁depend	-3422
▁switch	-3423
▁justice	-3424
▁stopped	-3425
▁molecule	-3426
▁produced	-3427
▁communication	-3428
osy	-3429
▁ble	-3430
▁mad	-3431
▁chris	-3432
▁oxygen	-3433
rastruct	-3434
▁hearing	-3435
▁bringing	-3436
▁infrastruct	-3437
ya	-3438
ett	-3439
▁org	-3440
itter	-3441
▁lack	-3442
▁russ	-3443
▁seed	-3444
ission	-3445
▁lunch	-3446
▁deliver	-3447
▁studying	-3448
▁colleagues	-3449
▁opportunities	-3450
iot	-3451
▁gay	-3452
▁mid	-3453
ufact	-3454
▁forg	-3455
▁rare	-3456
▁agree	-3457
▁shift	-3458
▁attract	-3459
▁despite	-3460
▁helping	-3461
▁opposite	-3462
▁programs	-3463
▁governments	-3464
▁consciousness	-3465
rew	-3466
athy	-3467
oses	-3468
▁burn	-3469
▁doub	-3470
▁accur	-3471
▁avoid	-3472
▁feels	-3473
▁volunt	-3474
▁yellow	-3475
▁conserv	-3476
▁correct	-3477
▁mountain	-3478
▁original	-3479
▁religion	-3480
kn	-3481
▁mit	-3482
othes	-3483
▁vote	-3484
▁adapt	-3485
▁invis	-3486
▁metaph	-3487
▁brother	-3488
▁degrees	-3489
▁husband	-3490
ios	-3491
empt	-3492
▁dar	-3493
▁tum	-3494
▁puzz	-3495
icking	-3496
▁brill	-3497
▁faces	-3498
▁wheel	-3499
▁island	-3500
▁passed	-3501
▁played	-3502
▁ancient	-3503
▁addition	-3504
▁manufact	-3505
▁structures	-3506
▁imagination	-3507
▁significant	-3508
▁relationships	-3509
ked	-3510
tle	-3511
▁fab	-3512
▁mas	-3513
▁vot	-3514
stein	-3515
▁acad	-3516
ricult	-3517
▁total	-3518
▁failure	-3519
▁insight	-3520
▁tremend	-3521
▁agricult	-3522
▁password	-3523
▁gar	-3524
▁cogn	-3525
▁lucky	-3526
▁visit	-3527
▁bought	-3528
▁commercial	-3529
▁1.	-3530
vant	-3531
▁bul	-3532
▁appl	-3533
▁hair	-3534
▁sick	-3535
▁fully	-3536
▁intel	-3537
▁newsp	-3538
▁flight	-3539
▁lesson	-3540
▁therap	-3541
▁turning	-3542
▁atmosphere	-3543
▁differently	-3544
ada	-3545
off	-3546
win	-3547
ches	-3548
▁alt	-3549
house	-3550
▁fuel	-3551
▁reco	-3552
▁accom	-3553
▁cheap	-3554
▁embra	-3555
▁mouth	-3556
▁easily	-3557
▁matters	-3558
▁require	-3559
▁argument	-3560
▁benefits	-3561
▁necessary	-3562
▁statistics	-3563
▁importantly	-3564
ibr	-3565
rad	-3566
tend	-3567
▁hyd	-3568
▁bees	-3569
▁core	-3570
▁equal	-3571
▁corner	-3572
▁demand	-3573
▁window	-3574
▁restaur	-3575
▁majority	-3576
leg	-3577
▁196	-3578
▁mel	-3579
▁sug	-3580
riage	-3581
▁heat	-3582
▁mamm	-3583
▁paul	-3584
▁brand	-3585
▁coast	-3586
▁mosqu	-3587
▁broken	-3588
▁consid	-3589
▁grandm	-3590
▁forever	-3591
▁describe	-3592
▁enormous	-3593
▁fighting	-3594
▁background	-3595
lim	-3596
hand	-3597
iber	-3598
based	-3599
icles	-3600
▁diet	-3601
▁rapid	-3602
▁sport	-3603
osystem	-3604
▁advant	-3605
▁batter	-3606
▁wisdom	-3607
ifically	-3608
▁british	-3609
▁emotions	-3610
▁entirely	-3611
▁diversity	-3612
▁fascinating	-3613
ils	-3614
ager	-3615
mark	-3616
apers	-3617
▁gard	-3618
▁trip	-3619
▁shoot	-3620
▁events	-3621
▁french	-3622
▁leading	-3623
▁according	-3624
▁ecosystem	-3625
▁landscape	-3626
▁professor	-3627
▁researchers	-3628
▁responsible	-3629
▁infrastructure	-3630
wor	-3631
zen	-3632
aced	-3633
▁tow	-3634
agers	-3635
anced	-3636
itely	-3637
▁band	-3638
▁bone	-3639
ifying	-3640
▁breath	-3641
▁remain	-3642
▁symbol	-3643
▁voices	-3644
ulations	-3645
▁effects	-3646
▁nations	-3647
▁workers	-3648
▁compared	-3649
▁received	-3650
aria	-3651
bble	-3652
vere	-3653
▁300	-3654
▁bag	-3655
▁egg	-3656
▁hyp	-3657
▁held	-3658
▁mort	-3659
▁rout	-3660
▁crime	-3661
▁grown	-3662
▁motor	-3663
▁prior	-3664
▁shoes	-3665
▁altern	-3666
▁corpor	-3667
▁remote	-3668
af	-3669
roud	-3670
vity	-3671
ysis	-3672
▁saf	-3673
ulous	-3674
▁block	-3675
▁tough	-3676
▁deeply	-3677
▁expand	-3678
▁neuros	-3679
▁designer	-3680
▁suffering	-3681
▁department	-3682
▁amp	-3683
▁fed	-3684
▁reb	-3685
itable	-3686
▁adults	-3687
▁regular	-3688
▁virtual	-3689
▁strategy	-3690
▁invisible	-3691
▁responsibility	-3692
ax	-3693
mon	-3694
ctic	-3695
reci	-3696
▁mur	-3697
▁van	-3698
print	-3699
▁exer	-3700
▁iron	-3701
▁pair	-3702
pected	-3703
▁giant	-3704
▁quant	-3705
▁users	-3706
▁master	-3707
▁reward	-3708
▁seemed	-3709
▁benefit	-3710
▁contact	-3711
▁illness	-3712
▁insects	-3713
▁pressure	-3714
▁creatures	-3715
osh	-3716
uge	-3717
▁ju	-3718
thes	-3719
verse	-3720
▁epid	-3721
▁shel	-3722
▁spot	-3723
▁tast	-3724
▁wear	-3725
▁daily	-3726
▁offer	-3727
▁paint	-3728
▁gotten	-3729
▁drawing	-3730
▁shouldn	-3731
▁brilliant	-3732
▁biological	-3733
▁ultimately	-3734
dp	-3735
hy	-3736
val	-3737
aker	-3738
▁400	-3739
ander	-3740
▁appe	-3741
▁wond	-3742
ipment	-3743
orders	-3744
▁domin	-3745
▁habit	-3746
▁dreams	-3747
▁genome	-3748
▁interp	-3749
▁balance	-3750
▁element	-3751
▁farmers	-3752
▁politic	-3753
▁protein	-3754
▁european	-3755
▁japanese	-3756
▁partners	-3757
▁worldwide	-3758
▁interaction	-3759
hab	-3760
roll	-3761
▁mat	-3762
▁rat	-3763
▁gene	-3764
▁repe	-3765
▁shut	-3766
▁swed	-3767
▁bound	-3768
▁climb	-3769
▁enter	-3770
▁legal	-3771
▁proud	-3772
▁dinner	-3773
▁failed	-3774
▁meters	-3775
▁terror	-3776
▁compare	-3777
▁destroy	-3778
▁illustr	-3779
▁typical	-3780
▁volunte	-3781
▁cognitive	-3782
▁perfectly	-3783
▁collective	-3784
▁tremendous	-3785
cles	-3786
▁fol	-3787
▁gap	-3788
ipped	-3789
water	-3790
▁defe	-3791
encies	-3792
▁cycle	-3793
▁faith	-3794
▁fresh	-3795
▁veget	-3796
▁hidden	-3797
▁thinks	-3798
▁transm	-3799
▁related	-3800
▁billions	-3801
▁magazine	-3802
▁childhood	-3803
▁definition	-3804
edd	-3805
edia	-3806
pped	-3807
rupt	-3808
term	-3809
▁due	-3810
▁gdp	-3811
esome	-3812
▁asia	-3813
▁cred	-3814
▁hate	-3815
▁host	-3816
▁teles	-3817
▁10,000	-3818
▁bridge	-3819
▁convin	-3820
▁double	-3821
▁attempt	-3822
▁concent	-3823
▁experts	-3824
▁managed	-3825
▁replace	-3826
▁metaphor	-3827
▁previous	-3828
▁whenever	-3829
▁discovery	-3830
▁intellect	-3831
▁depression	-3832
▁possibility	-3833
arm	-3834
cons	-3835
▁dry	-3836
▁hun	-3837
▁und	-3838
iable	-3839
▁meat	-3840
▁chann	-3841
▁round	-3842
▁simpl	-3843
▁truck	-3844
▁weird	-3845
connect	-3846
▁raised	-3847
▁versus	-3848
▁artific	-3849
▁keeping	-3850
▁mothers	-3851
▁negative	-3852
▁otherwise	-3853
ulpt	-3854
▁jew	-3855
uries	-3856
▁chur	-3857
▁tour	-3858
▁calls	-3859
▁mouse	-3860
▁stuck	-3861
▁colors	-3862
▁sculpt	-3863
ification	-3864
▁everyday	-3865
▁efficient	-3866
▁equipment	-3867
▁essential	-3868
ypt	-3869
▁ax	-3870
rict	-3871
▁intu	-3872
▁apple	-3873
▁leads	-3874
▁names	-3875
▁surge	-3876
ography	-3877
▁desire	-3878
▁fairly	-3879
▁sector	-3880
▁figured	-3881
▁install	-3882
▁married	-3883
▁concentr	-3884
▁normally	-3885
▁planning	-3886
▁languages	-3887
▁universal	-3888
▁investment	-3889
ius	-3890
cket	-3891
otic	-3892
▁bee	-3893
▁fif	-3894
oking	-3895
▁edge	-3896
▁opin	-3897
▁wire	-3898
apping	-3899
▁antib	-3900
▁categ	-3901
▁helps	-3902
▁quote	-3903
▁easier	-3904
▁sister	-3905
▁appreci	-3906
▁leaving	-3907
▁station	-3908
▁studied	-3909
▁investig	-3910
▁struggle	-3911
▁influence	-3912
▁businesses	-3913
▁democratic	-3914
▁necessarily	-3915
ha	-3916
▁disp	-3917
▁stim	-3918
▁tick	-3919
▁unex	-3920
▁frequ	-3921
▁subst	-3922
▁ladies	-3923
▁letter	-3924
▁notion	-3925
▁origin	-3926
▁awesome	-3927
▁holding	-3928
▁planets	-3929
▁radical	-3930
▁distance	-3931
▁feedback	-3932
▁platform	-3933
▁advantage	-3934
▁increasingly	-3935
cop	-3936
hold	-3937
▁pow	-3938
arter	-3939
atell	-3940
rogen	-3941
▁empt	-3942
▁gain	-3943
▁grad	-3944
▁nutr	-3945
▁egypt	-3946
▁dollar	-3947
▁incent	-3948
▁mexico	-3949
▁transp	-3950
▁diction	-3951
▁limited	-3952
▁watched	-3953
▁accident	-3954
▁creation	-3955
imensional	-3956
ties	-3957
▁odd	-3958
known	-3959
▁ange	-3960
▁bomb	-3961
▁1,000	-3962
▁homes	-3963
▁aspect	-3964
▁astron	-3965
▁desert	-3966
▁houses	-3967
▁leader	-3968
▁losing	-3969
▁invited	-3970
▁precise	-3971
▁followed	-3972
▁economics	-3973
▁entertain	-3974
▁electrical	-3975
throp	-3976
▁harm	-3977
elling	-3978
▁argue	-3979
▁moves	-3980
▁prize	-3981
▁damage	-3982
▁expert	-3983
▁satell	-3984
▁succeed	-3985
▁vaccine	-3986
▁marriage	-3987
▁separate	-3988
▁seriously	-3989
anes	-3990
▁intr	-3991
▁click	-3992
▁facts	-3993
▁battle	-3994
▁bright	-3995
▁opened	-3996
▁twitter	-3997
▁surprise	-3998
▁surprised	-3999
dimensional	-4000
▁constantly	-4001
▁comfortable	-4002
irt	-4003
lin	-4004
▁1,	-4005
▁150	-4006
▁sen	-4007
anted	-4008
▁disc	-4009
▁ship	-4010
ctions	-4011
ipping	-4012
▁liked	-4013
▁rural	-4014
▁sugar	-4015
entally	-4016
▁begins	-4017
▁commit	-4018
▁counter	-4019
▁malaria	-4020
▁markets	-4021
▁prototy	-4022
▁weapons	-4023
▁wearing	-4024
ibilities	-4025
▁elements	-4026
▁finished	-4027
▁australia	-4028
▁associated	-4029
▁competition	-4030
▁experienced	-4031
ami	-4032
ara	-4033
omy	-4034
pid	-4035
▁mc	-4036
ears	-4037
mber	-4038
onym	-4039
▁jan	-4040
▁mer	-4041
essed	-4042
ortex	-4043
▁hack	-4044
▁soph	-4045
▁aging	-4046
issions	-4047
▁degree	-4048
▁gather	-4049
▁organs	-4050
▁shapes	-4051
▁capable	-4052
▁killing	-4053
▁letters	-4054
▁airplane	-4055
▁believed	-4056
▁resource	-4057
▁survival	-4058
▁currently	-4059
▁hopefully	-4060
▁washington	-4061
emy	-4062
▁ug	-4063
▁ein	-4064
celer	-4065
▁horr	-4066
▁purs	-4067
▁brown	-4068
▁franc	-4069
▁kenya	-4070
▁fourth	-4071
▁george	-4072
▁highest	-4073
▁sending	-4074
▁einstein	-4075
▁multiple	-4076
▁described	-4077
▁engineers	-4078
▁operating	-4079
▁dimensions	-4080
▁expression	-4081
▁phenomenon	-4082
pan	-4083
▁gh	-4084
eral	-4085
ocol	-4086
▁dol	-4087
▁los	-4088
illed	-4089
point	-4090
▁agre	-4091
▁army	-4092
▁dial	-4093
▁hurt	-4094
▁lapt	-4095
▁root	-4096
▁valu	-4097
▁exhib	-4098
▁heads	-4099
▁noise	-4100
▁circum	-4101
▁fortun	-4102
▁harder	-4103
▁safety	-4104
▁factory	-4105
▁organic	-4106
▁suggests	-4107
▁tomorrow	-4108
▁concerned	-4109
▁professional	-4110
▁specifically	-4111
und	-4112
apse	-4113
enty	-4114
odes	-4115
▁bon	-4116
▁cow	-4117
▁pil	-4118
erson	-4119
inist	-4120
▁pole	-4121
▁rein	-4122
▁vibr	-4123
forest	-4124
▁diver	-4125
▁belong	-4126
▁charge	-4127
▁cartoon	-4128
▁charles	-4129
▁courage	-4130
▁england	-4131
▁musical	-4132
▁theater	-4133
▁trained	-4134
▁soldiers	-4135
▁employees	-4136
▁artificial	-4137
oh	-4138
rum	-4139
uls	-4140
▁wik	-4141
▁exch	-4142
▁gift	-4143
▁hasn	-4144
▁peak	-4145
▁puts	-4146
acters	-4147
idents	-4148
itness	-4149
▁holes	-4150
▁honor	-4151
▁horse	-4152
▁maint	-4153
▁perce	-4154
▁uncle	-4155
▁advert	-4156
▁bubble	-4157
lication	-4158
▁official	-4159
▁ordinary	-4160
▁characters	-4161
▁perception	-4162
▁transition	-4163
▁generations	-4164
▁construction	-4165
dy	-4166
asa	-4167
mar	-4168
osm	-4169
▁zo	-4170
▁les	-4171
▁row	-4172
▁spl	-4173
▁adop	-4174
▁dots	-4175
▁fell	-4176
▁lady	-4177
▁libr	-4178
▁migr	-4179
▁mush	-4180
▁recy	-4181
▁tail	-4182
ession	-4183
ulated	-4184
▁church	-4185
▁finish	-4186
▁leaves	-4187
▁unless	-4188
entional	-4189
▁chicken	-4190
▁mosquit	-4191
▁identify	-4192
ij	-4193
ls	-4194
oun	-4195
head	-4196
uous	-4197
▁cha	-4198
▁cup	-4199
▁era	-4200
▁mak	-4201
▁wow	-4202
olves	-4203
▁jack	-4204
▁liqu	-4205
▁shif	-4206
▁vent	-4207
ushing	-4208
▁grade	-4209
▁indic	-4210
▁toile	-4211
▁canada	-4212
▁inform	-4213
▁acceler	-4214
▁contain	-4215
▁penguins	-4216
▁property	-4217
▁chemistry	-4218
▁collection	-4219
▁transformation	-4220
iat	-4221
mas	-4222
berg	-4223
isco	-4224
▁pip	-4225
iques	-4226
▁arts	-4227
▁date	-4228
▁grid	-4229
▁shad	-4230
▁chart	-4231
▁lifet	-4232
▁niger	-4233
▁sympt	-4234
▁caused	-4235
▁facing	-4236
▁paying	-4237
▁reform	-4238
▁sharks	-4239
▁slowly	-4240
▁studio	-4241
▁curious	-4242
▁testing	-4243
▁weather	-4244
▁whereas	-4245
▁valuable	-4246
▁unexpected	-4247
▁distribution	-4248
enn	-4249
ason	-4250
zing	-4251
▁ath	-4252
▁nav	-4253
itals	-4254
▁evil	-4255
▁impl	-4256
atures	-4257
▁steps	-4258
▁attach	-4259
▁refuge	-4260
▁videos	-4261
▁details	-4262
▁equival	-4263
▁religious	-4264
▁considered	-4265
▁passionate	-4266
anz	-4267
col	-4268
reg	-4269
▁lu	-4270
roph	-4271
wood	-4272
▁fal	-4273
▁lin	-4274
asion	-4275
gment	-4276
owing	-4277
▁cosm	-4278
▁hung	-4279
▁lawy	-4280
▁myst	-4281
▁user	-4282
▁whom	-4283
▁grain	-4284
▁solid	-4285
▁advent	-4286
▁frustr	-4287
ographic	-4288
▁article	-4289
▁cutting	-4290
▁partner	-4291
▁analysis	-4292
▁feelings	-4293
▁pleasure	-4294
▁sentence	-4295
▁consequences	-4296
cap	-4297
lex	-4298
▁il	-4299
cipl	-4300
rete	-4301
▁unp	-4302
neath	-4303
▁2008	-4304
▁arms	-4305
▁ride	-4306
▁thom	-4307
lation	-4308
▁awful	-4309
▁humor	-4310
▁limit	-4311
▁march	-4312
▁scene	-4313
▁walls	-4314
▁improv	-4315
▁patent	-4316
▁review	-4317
▁stream	-4318
▁stupid	-4319
▁appropr	-4320
▁extract	-4321
▁setting	-4322
▁vehicle	-4323
▁cultures	-4324
▁election	-4325
▁minister	-4326
▁designers	-4327
▁interface	-4328
▁wondering	-4329
▁underneath	-4330
▁photographs	-4331
ey	-4332
ael	-4333
ume	-4334
▁ba	-4335
cers	-4336
life	-4337
▁nur	-4338
▁asks	-4339
▁dish	-4340
▁mart	-4341
▁pure	-4342
▁samp	-4343
▁scen	-4344
▁wars	-4345
▁empty	-4346
▁pages	-4347
▁shame	-4348
▁circle	-4349
▁closed	-4350
▁deeper	-4351
▁pollen	-4352
▁signal	-4353
▁empathy	-4354
▁clinical	-4355
▁molecular	-4356
▁civilization	-4357
fo	-4358
ads	-4359
cra	-4360
ham	-4361
care	-4362
ests	-4363
uits	-4364
▁bow	-4365
▁eld	-4366
▁ham	-4367
▁ing	-4368
▁ves	-4369
▁adam	-4370
▁crop	-4371
making	-4372
▁plane	-4373
▁pregn	-4374
▁sight	-4375
▁spoke	-4376
▁filled	-4377
▁liquid	-4378
▁phones	-4379
▁treated	-4380
▁engineer	-4381
▁northern	-4382
▁convinced	-4383
▁practical	-4384
▁psychology	-4385
▁grandmother	-4386
▁institution	-4387
ta	-4388
▁ru	-4389
ener	-4390
iors	-4391
▁bear	-4392
▁dogs	-4393
▁tall	-4394
cience	-4395
ensity	-4396
▁beach	-4397
▁fewer	-4398
▁negot	-4399
ometers	-4400
▁caught	-4401
▁fields	-4402
▁player	-4403
▁poetry	-4404
▁pounds	-4405
▁silence	-4406
▁birthday	-4407
▁congress	-4408
▁expected	-4409
▁location	-4410
▁mushroom	-4411
▁reaction	-4412
▁construct	-4413
▁encourage	-4414
▁management	-4415
▁protection	-4416
▁entrepreneurs	-4417
30	-4418
set	-4419
lock	-4420
osis	-4421
uary	-4422
▁gam	-4423
▁gps	-4424
▁jul	-4425
▁lic	-4426
▁wel	-4427
▁coal	-4428
▁hunt	-4429
▁nerv	-4430
▁reci	-4431
▁remo	-4432
▁soil	-4433
urally	-4434
urance	-4435
▁folks	-4436
▁manip	-4437
▁smile	-4438
▁sweet	-4439
▁debate	-4440
▁driver	-4441
▁observ	-4442
▁conduct	-4443
▁display	-4444
▁michael	-4445
▁opening	-4446
▁promise	-4447
▁launched	-4448
▁released	-4449
▁algorithms	-4450
▁equivalent	-4451
ka	-4452
bur	-4453
min	-4454
▁45	-4455
▁nar	-4456
▁phr	-4457
▁rit	-4458
▁tap	-4459
▁hadn	-4460
▁myth	-4461
▁scar	-4462
▁warm	-4463
ension	-4464
illing	-4465
▁concl	-4466
▁genet	-4467
▁ideal	-4468
▁inner	-4469
▁staff	-4470
▁stock	-4471
▁stood	-4472
▁tumor	-4473
▁blocks	-4474
▁define	-4475
▁vessel	-4476
▁battery	-4477
▁sources	-4478
▁witness	-4479
▁affected	-4480
▁emerging	-4481
▁printing	-4482
▁hospitals	-4483
▁invention	-4484
▁organized	-4485
▁importance	-4486
▁personally	-4487
▁techniques	-4488
▁consumption	-4489
met	-4490
▁ox	-4491
semb	-4492
ength	-4493
▁nurs	-4494
ateful	-4495
father	-4496
▁brief	-4497
▁false	-4498
▁grass	-4499
▁quiet	-4500
▁saved	-4501
akistan	-4502
itarian	-4503
▁critic	-4504
▁forced	-4505
▁motion	-4506
▁picked	-4507
▁eastern	-4508
▁lessons	-4509
▁warming	-4510
▁emissions	-4511
▁gentlemen	-4512
▁newspaper	-4513
▁typically	-4514
▁independent	-4515
20	-4516
agr	-4517
ato	-4518
cil	-4519
fit	-4520
zed	-4521
▁35	-4522
▁pm	-4523
▁lie	-4524
▁abst	-4525
▁cave	-4526
▁eleph	-4527
▁prove	-4528
▁sides	-4529
▁buying	-4530
▁garden	-4531
▁gender	-4532
▁spring	-4533
▁status	-4534
▁thomas	-4535
▁toward	-4536
▁arrived	-4537
▁dynamic	-4538
▁fiction	-4539
▁nervous	-4540
▁victims	-4541
▁worried	-4542
▁lifetime	-4543
▁marketing	-4544
▁processes	-4545
▁definitely	-4546
▁politicians	-4547
yl	-4548
▁uns	-4549
place	-4550
▁acqu	-4551
▁bike	-4552
▁bits	-4553
▁flat	-4554
▁init	-4555
▁lect	-4556
▁roof	-4557
▁weak	-4558
▁yout	-4559
▁auton	-4560
▁chain	-4561
▁court	-4562
▁metal	-4563
▁occup	-4564
▁prote	-4565
▁risks	-4566
▁analog	-4567
▁ingred	-4568
▁prefer	-4569
▁trials	-4570
▁covered	-4571
▁harvard	-4572
▁players	-4573
▁contract	-4574
▁requires	-4575
▁spectrum	-4576
▁stronger	-4577
▁designing	-4578
▁mortality	-4579
▁mountains	-4580
▁organisms	-4581
▁relatively	-4582
▁vulnerable	-4583
au	-4584
hi	-4585
izz	-4586
rel	-4587
irty	-4588
olds	-4589
▁ens	-4590
▁las	-4591
▁shr	-4592
▁ske	-4593
ograp	-4594
▁cere	-4595
▁lies	-4596
▁lift	-4597
▁poem	-4598
▁qual	-4599
▁snow	-4600
▁2,000	-4601
▁colon	-4602
▁heavy	-4603
▁illeg	-4604
▁mirac	-4605
▁notes	-4606
▁topic	-4607
oration	-4608
▁budget	-4609
▁galaxy	-4610
▁calling	-4611
▁germany	-4612
▁roughly	-4613
▁youtube	-4614
▁epidemic	-4615
▁pakistan	-4616
▁rational	-4617
▁thoughts	-4618
▁principle	-4619
▁technical	-4620
▁connections	-4621
▁effectively	-4622
▁intelligent	-4623
▁intellectual	-4624
ih	-4625
vi	-4626
car	-4627
gra	-4628
pes	-4629
down	-4630
▁anx	-4631
▁que	-4632
▁rig	-4633
ament	-4634
craft	-4635
▁bath	-4636
▁dece	-4637
▁kore	-4638
▁maps	-4639
angers	-4640
athers	-4641
▁claim	-4642
▁goods	-4643
▁credit	-4644
▁microb	-4645
▁severe	-4646
▁winter	-4647
inations	-4648
▁command	-4649
▁release	-4650
▁singing	-4651
▁infected	-4652
▁mistakes	-4653
▁institute	-4654
▁narrative	-4655
▁principles	-4656
och	-4657
abol	-4658
amin	-4659
aren	-4660
edic	-4661
frie	-4662
▁ber	-4663
▁rot	-4664
▁unc	-4665
being	-4666
force	-4667
▁anti	-4668
▁bare	-4669
▁dere	-4670
▁mand	-4671
▁nose	-4672
▁resc	-4673
▁aston	-4674
▁goals	-4675
▁minim	-4676
▁polio	-4677
▁serve	-4678
▁yester	-4679
▁engaged	-4680
▁falling	-4681
▁gravity	-4682
▁transpl	-4683
▁circumst	-4684
▁grateful	-4685
▁memories	-4686
▁authority	-4687
▁producing	-4688
▁restaurant	-4689
▁possibilities	-4690
da	-4691
rs	-4692
icy	-4693
▁hem	-4694
▁pin	-4695
▁2000	-4696
▁2010	-4697
▁cath	-4698
▁isol	-4699
▁jail	-4700
▁milk	-4701
▁unus	-4702
▁wine	-4703
lement	-4704
▁dolph	-4705
▁islam	-4706
▁james	-4707
▁shall	-4708
quality	-4709
▁candid	-4710
▁exists	-4711
▁former	-4712
▁height	-4713
▁medium	-4714
▁repair	-4715
▁valley	-4716
▁exercise	-4717
▁sophistic	-4718
▁introduced	-4719
▁laboratory	-4720
▁alternative	-4721
▁mathematics	-4722
▁environments	-4723
rom	-4724
ula	-4725
cont	-4726
gged	-4727
▁copy	-4728
▁horm	-4729
▁seat	-4730
▁unit	-4731
olving	-4732
▁added	-4733
▁error	-4734
▁layer	-4735
▁plans	-4736
▁reven	-4737
▁satis	-4738
▁anonym	-4739
▁forgot	-4740
▁amounts	-4741
▁signals	-4742
▁exchange	-4743
▁explains	-4744
▁relevant	-4745
▁tracking	-4746
▁carefully	-4747
▁yesterday	-4748
▁participate	-4749
azz	-4750
ino	-4751
▁oct	-4752
eline	-4753
erves	-4754
▁bush	-4755
▁inev	-4756
▁orch	-4757
▁haiti	-4758
▁ignor	-4759
▁rates	-4760
▁sites	-4761
▁darwin	-4762
▁regard	-4763
▁reveal	-4764
▁sweden	-4765
▁actions	-4766
▁channel	-4767
▁brothers	-4768
▁dramatic	-4769
▁existing	-4770
▁proteins	-4771
▁mentioned	-4772
▁particles	-4773
cal	-4774
cast	-4775
talk	-4776
tech	-4777
▁aug	-4778
▁sir	-4779
enced	-4780
estic	-4781
▁gall	-4782
▁gree	-4783
▁gulf	-4784
▁pray	-4785
▁sees	-4786
lessly	-4787
porary	-4788
stream	-4789
▁label	-4790
▁multi	-4791
▁flower	-4792
▁member	-4793
▁robert	-4794
▁survey	-4795
▁100,000	-4796
▁applied	-4797
▁dealing	-4798
▁depends	-4799
▁finance	-4800
▁opinion	-4801
▁rapidly	-4802
▁constant	-4803
▁generate	-4804
▁awareness	-4805
▁framework	-4806
▁interpret	-4807
▁introduce	-4808
▁telescope	-4809
▁behavioral	-4810
▁profession	-4811
▁grandfather	-4812
ago	-4813
▁na	-4814
aked	-4815
cest	-4816
gets	-4817
imer	-4818
rets	-4819
▁ric	-4820
▁sem	-4821
▁twe	-4822
▁ven	-4823
▁bell	-4824
▁item	-4825
▁lung	-4826
▁plus	-4827
▁refr	-4828
▁wake	-4829
▁wave	-4830
▁chose	-4831
▁cyber	-4832
▁estab	-4833
▁estim	-4834
ulating	-4835
vention	-4836
▁fright	-4837
▁lifest	-4838
▁scared	-4839
▁senses	-4840
▁sports	-4841
▁capture	-4842
▁combine	-4843
▁earthqu	-4844
▁forests	-4845
▁intense	-4846
▁primary	-4847
▁reprodu	-4848
▁solving	-4849
▁variety	-4850
▁hydrogen	-4851
▁maintain	-4852
▁sequence	-4853
▁subjects	-4854
▁economies	-4855
▁interests	-4856
▁instrument	-4857
▁kilometers	-4858
▁meaningful	-4859
▁agriculture	-4860
iel	-4861
uce	-4862
▁75	-4863
hyth	-4864
oons	-4865
▁dot	-4866
▁pun	-4867
entic	-4868
gging	-4869
▁decl	-4870
▁elev	-4871
▁ends	-4872
▁pool	-4873
▁pump	-4874
▁ring	-4875
▁sacr	-4876
▁span	-4877
▁stro	-4878
▁suit	-4879
▁films	-4880
▁kitch	-4881
▁poore	-4882
▁chocol	-4883
▁clouds	-4884
▁factor	-4885
▁movies	-4886
▁option	-4887
▁writer	-4888
▁constit	-4889
▁electro	-4890
▁encoura	-4891
▁funding	-4892
▁scratch	-4893
▁accurate	-4894
▁graduate	-4895
▁swimming	-4896
▁wondered	-4897
▁generally	-4898
▁components	-4899
▁mechanical	-4900
▁philosophy	-4901
▁fundamentally	-4902
ca	-4903
wr	-4904
alu	-4905
han	-4906
hol	-4907
ull	-4908
▁2.	-4909
whel	-4910
▁adj	-4911
iring	-4912
lying	-4913
organ	-4914
sters	-4915
▁runs	-4916
▁tons	-4917
ternal	-4918
▁atoms	-4919
▁dinos	-4920
▁judge	-4921
▁navig	-4922
▁resil	-4923
▁ridic	-4924
▁ancest	-4925
▁cortex	-4926
▁explan	-4927
▁hunger	-4928
▁oceans	-4929
▁string	-4930
▁cooking	-4931
▁defined	-4932
▁embrace	-4933
▁harvest	-4934
▁regions	-4935
▁unusual	-4936
▁disaster	-4937
▁internal	-4938
▁messages	-4939
▁overwhel	-4940
▁sunlight	-4941
▁vaccines	-4942
▁animation	-4943
▁disappear	-4944
▁increased	-4945
▁passwords	-4946
▁collaboration	-4947
▁manufacturing	-4948
▁sustainability	-4949
▁transportation	-4950
bi	-4951
hr	-4952
ov	-4953
bre	-4954
ela	-4955
ole	-4956
▁hi	-4957
▁ip	-4958
oken	-4959
▁dip	-4960
▁pac	-4961
▁rub	-4962
aters	-4963
iency	-4964
▁boat	-4965
▁fake	-4966
▁rebu	-4967
▁comed	-4968
▁paris	-4969
▁teams	-4970
▁acting	-4971
▁advice	-4972
▁compar	-4973
▁hoping	-4974
▁length	-4975
▁mirror	-4976
▁reject	-4977
▁ritual	-4978
▁sample	-4979
▁worlds	-4980
▁airport	-4981
▁britain	-4982
▁operate	-4983
▁selling	-4984
▁abstract	-4985
▁apparent	-4986
▁carrying	-4987
▁concrete	-4988
▁contrast	-4989
▁romantic	-4990
▁southern	-4991
▁operation	-4992
▁confidence	-4993
▁economists	-4994
▁percentage	-4995
▁resistance	-4996
dr	-4997
ox	-4998
que	-4999
ums	-5000
▁99	-5001
▁ii	-5002
iled	-5003
▁194	-5004
▁bes	-5005
▁voc	-5006
iture	-5007
pping	-5008
▁alex	-5009
▁bold	-5010
▁desk	-5011
▁mere	-5012
friend	-5013
source	-5014
▁3,000	-5015
▁doubt	-5016
▁infin	-5017
▁obser	-5018
▁repub	-5019
▁shake	-5020
▁smith	-5021
▁teeth	-5022
▁union	-5023
▁bottle	-5024
▁joined	-5025
▁propos	-5026
▁accompl	-5027
▁comment	-5028
▁consist	-5029
▁privile	-5030
▁reverse	-5031
▁consumer	-5032
▁centuries	-5033
▁chemicals	-5034
▁traveling	-5035
▁innovative	-5036
▁literature	-5037
▁combination	-5038
▁applications	-5039
▁circumstances	-5040
mp	-5041
igm	-5042
abet	-5043
foot	-5044
▁fis	-5045
▁jer	-5046
abled	-5047
▁golf	-5048
▁hide	-5049
▁nasa	-5050
▁spin	-5051
▁fears	-5052
▁horiz	-5053
▁input	-5054
▁memor	-5055
▁obama	-5056
▁phase	-5057
▁skill	-5058
▁steel	-5059
▁assign	-5060
▁russia	-5061
▁solved	-5062
▁borders	-5063
▁circuit	-5064
▁include	-5065
▁kitchen	-5066
▁windows	-5067
▁advanced	-5068
▁behaviors	-5069
▁computing	-5070
▁movements	-5071
▁conversations	-5072
cut	-5073
lom	-5074
nda	-5075
nel	-5076
pet	-5077
bors	-5078
icip	-5079
nday	-5080
oked	-5081
ront	-5082
▁hip	-5083
▁tea	-5084
▁2007	-5085
▁eggs	-5086
▁pian	-5087
▁soul	-5088
▁flash	-5089
▁hotel	-5090
▁ought	-5091
▁shell	-5092
▁stone	-5093
▁thick	-5094
▁iphone	-5095
▁owners	-5096
▁proced	-5097
▁stayed	-5098
▁illegal	-5099
▁library	-5100
▁richard	-5101
▁tedtalk	-5102
▁antibiot	-5103
▁confront	-5104
▁convince	-5105
▁prepared	-5106
▁mechanism	-5107
▁controlled	-5108
▁productive	-5109
▁challenging	-5110
lyn	-5111
▁23	-5112
mers	-5113
what	-5114
▁ack	-5115
▁gal	-5116
▁gut	-5117
▁haw	-5118
▁hol	-5119
▁wal	-5120
child	-5121
opher	-5122
▁acts	-5123
▁busy	-5124
▁flex	-5125
▁loud	-5126
▁mall	-5127
▁wash	-5128
imeter	-5129
iminal	-5130
▁cents	-5131
▁males	-5132
▁stere	-5133
▁clever	-5134
▁divide	-5135
▁driven	-5136
▁facial	-5137
▁heroes	-5138
▁laptop	-5139
▁martin	-5140
▁muslim	-5141
ographer	-5142
▁cameras	-5143
▁centers	-5144
▁equally	-5145
▁factors	-5146
▁metabol	-5147
▁samples	-5148
▁unknown	-5149
abilities	-5150
▁hypothes	-5151
▁republic	-5152
▁chocolate	-5153
▁identical	-5154
▁pollution	-5155
▁radiation	-5156
▁discussion	-5157
▁earthquake	-5158
▁represents	-5159
▁situations	-5160
▁inspiration	-5161
▁conventional	-5162
▁sophisticated	-5163
my	-5164
▁0	-5165
▁q	-5166
box	-5167
den	-5168
adic	-5169
▁asp	-5170
▁eve	-5171
▁gab	-5172
▁ped	-5173
akers	-5174
eding	-5175
▁dict	-5176
▁hill	-5177
▁hits	-5178
▁prem	-5179
▁rush	-5180
▁stan	-5181
arrass	-5182
▁boxes	-5183
▁globe	-5184
▁liver	-5185
▁polar	-5186
▁signs	-5187
▁wikip	-5188
▁desper	-5189
▁pulled	-5190
▁storyt	-5191
▁burning	-5192
▁defense	-5193
▁islamic	-5194
▁overall	-5195
▁constrain	-5196
▁embarrass	-5197
▁francisco	-5198
▁satellite	-5199
▁healthcare	-5200
▁journalist	-5201
▁physically	-5202
▁processing	-5203
▁properties	-5204
▁potentially	-5205
▁transformed	-5206
itz	-5207
▁22	-5208
▁ze	-5209
▁atl	-5210
alled	-5211
esity	-5212
▁1990	-5213
▁ages	-5214
▁cure	-5215
▁exec	-5216
▁flag	-5217
▁foss	-5218
▁furn	-5219
▁grab	-5220
▁kick	-5221
▁knee	-5222
▁suic	-5223
▁blank	-5224
▁dedic	-5225
▁paral	-5226
▁arrest	-5227
▁contem	-5228
▁fabric	-5229
▁immune	-5230
▁offers	-5231
▁puzzle	-5232
▁stands	-5233
▁surely	-5234
▁dancing	-5235
▁largely	-5236
▁mystery	-5237
▁options	-5238
▁parking	-5239
▁records	-5240
▁regener	-5241
▁therapy	-5242
▁viruses	-5243
connected	-5244
▁collapse	-5245
▁district	-5246
▁instinct	-5247
▁instruct	-5248
▁somewhat	-5249
▁collected	-5250
▁continent	-5251
▁determine	-5252
▁existence	-5253
▁footprint	-5254
▁neighbors	-5255
▁technique	-5256
▁wikipedia	-5257
▁dictionary	-5258
▁greenhouse	-5259
▁transplant	-5260
▁destruction	-5261
ita	-5262
now	-5263
hour	-5264
keep	-5265
ubes	-5266
▁mim	-5267
lines	-5268
▁1970	-5269
▁beet	-5270
▁bicy	-5271
▁chap	-5272
▁fert	-5273
▁joke	-5274
▁loop	-5275
▁manh	-5276
▁obst	-5277
▁pill	-5278
▁tape	-5279
▁thin	-5280
anging	-5281
profit	-5282
▁broke	-5283
▁dense	-5284
▁keeps	-5285
▁lying	-5286
▁tests	-5287
▁waves	-5288
▁devast	-5289
▁mainly	-5290
▁closely	-5291
▁flowers	-5292
▁islands	-5293
▁january	-5294
▁mistake	-5295
▁obesity	-5296
▁painful	-5297
▁suppose	-5298
▁tonight	-5299
▁horrible	-5300
▁symptoms	-5301
▁vehicles	-5302
▁lifestyle	-5303
▁measuring	-5304
▁collecting	-5305
▁advertising	-5306
▁appropriate	-5307
▁astonishing	-5308
▁educational	-5309
▁interactive	-5310
▁implications	-5311
▁mathematical	-5312
▁vulnerability	-5313
ba	-5314
gin	-5315
nic	-5316
toc	-5317
oned	-5318
xies	-5319
▁nic	-5320
▁tat	-5321
tocin	-5322
▁2009	-5323
▁brib	-5324
▁chip	-5325
▁diss	-5326
▁outc	-5327
▁sets	-5328
▁clock	-5329
▁nobel	-5330
▁pitch	-5331
▁plate	-5332
▁plays	-5333
▁roads	-5334
▁sheep	-5335
▁steve	-5336
▁walks	-5337
▁whist	-5338
▁athlet	-5339
▁border	-5340
▁conver	-5341
▁formed	-5342
▁perman	-5343
▁attacks	-5344
▁discipl	-5345
▁housing	-5346
▁neither	-5347
▁nigeria	-5348
▁welcome	-5349
▁allowing	-5350
▁distinct	-5351
▁occasion	-5352
▁oxytocin	-5353
▁ultimate	-5354
▁authentic	-5355
▁explained	-5356
▁insurance	-5357
▁religions	-5358
▁spiritual	-5359
▁uncertain	-5360
▁activities	-5361
▁entertainment	-5362
ye	-5363
mit	-5364
spe	-5365
▁mt	-5366
aret	-5367
lete	-5368
oded	-5369
viol	-5370
▁meg	-5371
attan	-5372
icing	-5373
oding	-5374
scale	-5375
▁cast	-5376
▁cous	-5377
▁lets	-5378
▁mont	-5379
▁sept	-5380
▁trig	-5381
▁wise	-5382
▁admit	-5383
▁angry	-5384
▁bombs	-5385
▁carol	-5386
▁derek	-5387
▁gates	-5388
▁refer	-5389
▁stret	-5390
▁taste	-5391
▁uncom	-5392
▁upper	-5393
▁whale	-5394
▁handle	-5395
▁pocket	-5396
▁regret	-5397
▁remove	-5398
▁suffer	-5399
▁toilet	-5400
▁whales	-5401
▁careful	-5402
▁frankly	-5403
▁section	-5404
▁younger	-5405
▁galaxies	-5406
▁pregnant	-5407
▁wherever	-5408
▁arguments	-5409
▁conflicts	-5410
▁establish	-5411
▁implement	-5412
▁manhattan	-5413
▁naturally	-5414
▁prototype	-5415
▁september	-5416
▁spreading	-5417
▁controvers	-5418
▁incentives	-5419
▁underwater	-5420
bl	-5421
ef	-5422
ald	-5423
def	-5424
hop	-5425
nes	-5426
rus	-5427
cend	-5428
▁dut	-5429
▁hal	-5430
▁jon	-5431
▁max	-5432
▁raw	-5433
▁tro	-5434
hythm	-5435
▁alph	-5436
▁gest	-5437
▁leap	-5438
▁ment	-5439
▁shar	-5440
▁actor	-5441
▁dress	-5442
▁fifth	-5443
▁honey	-5444
▁imper	-5445
▁tribe	-5446
▁acknow	-5447
▁agency	-5448
▁boring	-5449
▁latest	-5450
▁nurses	-5451
▁palest	-5452
▁phrase	-5453
▁rating	-5454
▁sphere	-5455
▁advance	-5456
▁causing	-5457
▁designs	-5458
▁dropped	-5459
▁feature	-5460
▁kingdom	-5461
▁methods	-5462
▁required	-5463
▁christmas	-5464
▁providing	-5465
▁conclusion	-5466
▁surrounded	-5467
▁photography	-5468
ae	-5469
vas	-5470
anta	-5471
iety	-5472
oint	-5473
ript	-5474
▁hat	-5475
▁ros	-5476
▁toy	-5477
arant	-5478
going	-5479
inate	-5480
iters	-5481
▁axis	-5482
▁bull	-5483
▁cord	-5484
heimer	-5485
▁champ	-5486
▁coral	-5487
▁digit	-5488
▁elder	-5489
▁hyper	-5490
▁remem	-5491
▁shock	-5492
▁songs	-5493
▁deaths	-5494
▁inject	-5495
▁papers	-5496
▁retire	-5497
▁shadow	-5498
▁classes	-5499
▁fingers	-5500
▁prosper	-5501
▁pushing	-5502
▁reached	-5503
▁rebuild	-5504
▁academic	-5505
▁criminal	-5506
▁disorder	-5507
▁illusion	-5508
▁presence	-5509
▁reaching	-5510
▁treating	-5511
▁diagnosed	-5512
▁furniture	-5513
▁fascinated	-5514
oo	-5515
tw	-5516
ua	-5517
iev	-5518
van	-5519
▁du	-5520
▁ub	-5521
tery	-5522
▁irr	-5523
▁mac	-5524
orter	-5525
think	-5526
usive	-5527
▁bias	-5528
▁gray	-5529
isters	-5530
▁colum	-5531
▁crash	-5532
▁evalu	-5533
▁latin	-5534
▁prime	-5535
▁storm	-5536
▁yield	-5537
▁assume	-5538
▁button	-5539
▁diplom	-5540
▁embedd	-5541
▁portra	-5542
▁season	-5543
▁tribes	-5544
▁classic	-5545
▁empower	-5546
▁license	-5547
▁violent	-5548
conscious	-5549
▁breaking	-5550
▁director	-5551
▁refriger	-5552
▁transfer	-5553
▁apartment	-5554
▁continued	-5555
▁ignorance	-5556
▁sensitive	-5557
▁translate	-5558
▁engagement	-5559
▁conservation	-5560
▁entrepreneur	-5561
▁interactions	-5562
▁36	-5563
▁od	-5564
▁ol	-5565
case	-5566
ione	-5567
rous	-5568
▁alz	-5569
▁amy	-5570
▁bat	-5571
▁pra	-5572
chair	-5573
enger	-5574
▁bran	-5575
▁diam	-5576
struct	-5577
▁curve	-5578
▁depth	-5579
▁faced	-5580
▁likes	-5581
▁pione	-5582
▁prost	-5583
▁recyc	-5584
▁schol	-5585
▁curios	-5586
▁drives	-5587
▁elimin	-5588
▁encoun	-5589
▁hearts	-5590
▁interf	-5591
▁signed	-5592
▁spoken	-5593
▁clothes	-5594
▁offered	-5595
▁orchest	-5596
▁outcome	-5597
▁robotic	-5598
▁visible	-5599
▁agencies	-5600
▁download	-5601
▁meetings	-5602
▁obsessed	-5603
▁outcomes	-5604
▁alzheimer	-5605
▁customers	-5606
▁functions	-5607
▁teenagers	-5608
▁efficiency	-5609
▁volunteers	-5610
▁antibiotics	-5611
▁application	-5612
▁evolutionary	-5613
▁technological	-5614
ano	-5615
bby	-5616
hal	-5617
city	-5618
ingu	-5619
over	-5620
rary	-5621
▁600	-5622
▁fan	-5623
▁joe	-5624
▁nin	-5625
▁sla	-5626
icted	-5627
lands	-5628
mates	-5629
oston	-5630
while	-5631
▁clay	-5632
▁clus	-5633
▁pink	-5634
▁pupp	-5635
▁surf	-5636
▁tort	-5637
▁tube	-5638
▁zone	-5639
arctic	-5640
arency	-5641
phones	-5642
▁cards	-5643
▁compl	-5644
▁datab	-5645
▁higgs	-5646
▁paras	-5647
▁pilot	-5648
▁recom	-5649
▁seeds	-5650
▁smoke	-5651
▁tight	-5652
▁trend	-5653
forward	-5654
▁amazon	-5655
▁compos	-5656
▁deploy	-5657
▁fossil	-5658
▁frozen	-5659
▁angeles	-5660
▁happier	-5661
▁nowhere	-5662
▁receive	-5663
▁sensors	-5664
▁embedded	-5665
▁traveled	-5666
▁component	-5667
▁elections	-5668
▁intuitive	-5669
▁precisely	-5670
▁selection	-5671
▁appreciate	-5672
▁contribute	-5673
▁distributed	-5674
▁populations	-5675
▁transparency	-5676
bed	-5677
ias	-5678
rog	-5679
avor	-5680
mble	-5681
ogue	-5682
uity	-5683
uses	-5684
▁aim	-5685
▁der	-5686
icago	-5687
opath	-5688
▁budd	-5689
▁clar	-5690
▁cock	-5691
▁vert	-5692
▁absor	-5693
▁chaos	-5694
▁chrom	-5695
▁fixed	-5696
▁initi	-5697
▁peter	-5698
▁pharm	-5699
▁score	-5700
▁spell	-5701
▁behave	-5702
▁boston	-5703
▁explos	-5704
▁invite	-5705
▁needle	-5706
▁phosph	-5707
▁relate	-5708
▁sevent	-5709
▁struck	-5710
▁volume	-5711
▁chicago	-5712
▁existed	-5713
▁granted	-5714
▁instant	-5715
▁wanting	-5716
▁achieved	-5717
▁equation	-5718
▁recorded	-5719
ologically	-5720
▁antarctic	-5721
▁celebrate	-5722
▁curiosity	-5723
▁practices	-5724
▁protected	-5725
▁standards	-5726
▁statement	-5727
▁strangers	-5728
▁historical	-5729
▁wheelchair	-5730
ek	-5731
war	-5732
yal	-5733
▁27	-5734
emen	-5735
wich	-5736
▁ash	-5737
▁ate	-5738
▁fib	-5739
inder	-5740
maker	-5741
▁2005	-5742
▁boom	-5743
▁ears	-5744
▁load	-5745
▁neut	-5746
▁pour	-5747
▁tack	-5748
americ	-5749
▁banks	-5750
▁foods	-5751
▁proto	-5752
▁rooms	-5753
▁stack	-5754
▁theme	-5755
▁toler	-5756
▁willi	-5757
▁wings	-5758
iveness	-5759
▁adoles	-5760
▁arabic	-5761
▁attrib	-5762
▁france	-5763
▁genius	-5764
▁limits	-5765
▁narrow	-5766
▁plenty	-5767
▁robust	-5768
▁silent	-5769
▁worker	-5770
aneously	-5771
▁afterno	-5772
▁anticip	-5773
▁breathe	-5774
▁charity	-5775
▁cheaper	-5776
▁collaps	-5777
▁concert	-5778
▁disturb	-5779
▁evening	-5780
▁extinct	-5781
▁feeding	-5782
▁poorest	-5783
▁proport	-5784
▁stretch	-5785
▁surgeon	-5786
▁touched	-5787
▁administ	-5788
▁captured	-5789
▁mosquito	-5790
▁occurred	-5791
▁trillion	-5792
▁destroyed	-5793
▁increases	-5794
▁apparently	-5795
▁commitment	-5796
▁rainforest	-5797
▁dramatically	-5798
▁neuroscience	-5799
▁successfully	-5800
aci	-5801
gue	-5802
new	-5803
oft	-5804
ota	-5805
▁rw	-5806
fish	-5807
iday	-5808
rors	-5809
▁aff	-5810
▁hen	-5811
▁jim	-5812
athan	-5813
itors	-5814
oster	-5815
stage	-5816
▁1960	-5817
▁ants	-5818
▁drag	-5819
▁eric	-5820
▁lake	-5821
▁zoom	-5822
herent	-5823
ivered	-5824
owered	-5825
▁aband	-5826
▁angle	-5827
▁charl	-5828
▁dozen	-5829
▁enemy	-5830
▁flies	-5831
▁split	-5832
erences	-5833
▁cheese	-5834
▁clinic	-5835
▁eradic	-5836
▁ignore	-5837
▁intent	-5838
▁myster	-5839
▁native	-5840
▁orange	-5841
▁profit	-5842
▁appears	-5843
▁chromos	-5844
▁decline	-5845
▁figures	-5846
▁guarant	-5847
▁herself	-5848
▁imaging	-5849
▁quarter	-5850
▁remains	-5851
▁removed	-5852
▁speaker	-5853
▁combined	-5854
▁concepts	-5855
▁engaging	-5856
▁stations	-5857
▁household	-5858
▁reference	-5859
▁accessible	-5860
▁connecting	-5861
▁inequality	-5862
▁optimistic	-5863
▁fortunately	-5864
ym	-5865
ban	-5866
etn	-5867
vin	-5868
lymp	-5869
orus	-5870
yard	-5871
▁250	-5872
▁cab	-5873
▁sin	-5874
▁wol	-5875
aving	-5876
eness	-5877
stand	-5878
▁biom	-5879
▁blow	-5880
▁cats	-5881
▁corn	-5882
▁gand	-5883
▁hans	-5884
▁icon	-5885
▁poly	-5886
▁tech	-5887
▁tony	-5888
yright	-5889
▁abund	-5890
▁advoc	-5891
▁bible	-5892
▁guard	-5893
▁laser	-5894
▁olymp	-5895
▁piano	-5896
▁proof	-5897
▁respo	-5898
▁silic	-5899
▁tries	-5900
▁vietn	-5901
▁weigh	-5902
inction	-5903
▁assist	-5904
▁crying	-5905
▁excell	-5906
▁extent	-5907
▁farmer	-5908
▁hungry	-5909
▁injury	-5910
▁oldest	-5911
▁rising	-5912
▁rocket	-5913
▁scenar	-5914
▁spinal	-5915
▁anthrop	-5916
▁bicycle	-5917
▁consume	-5918
▁privacy	-5919
▁raising	-5920
▁descript	-5921
▁elephant	-5922
▁imagined	-5923
▁morality	-5924
▁sandwich	-5925
▁secondly	-5926
▁anonymous	-5927
▁copyright	-5928
▁instruments	-5929
aks	-5930
ahar	-5931
aurs	-5932
hips	-5933
lims	-5934
ogen	-5935
▁10-	-5936
▁bay	-5937
▁bol	-5938
▁gro	-5939
▁jes	-5940
▁spr	-5941
acing	-5942
licit	-5943
opard	-5944
▁1980	-5945
▁beer	-5946
▁carr	-5947
▁clip	-5948
▁frag	-5949
▁marg	-5950
ounced	-5951
▁coach	-5952
▁hemis	-5953
▁minor	-5954
▁sheet	-5955
▁tower	-5956
▁evolve	-5957
▁finger	-5958
▁linked	-5959
▁lovely	-5960
▁monkey	-5961
▁obstac	-5962
▁paraly	-5963
▁talent	-5964
▁tested	-5965
▁divided	-5966
▁females	-5967
▁hackers	-5968
▁impress	-5969
▁protest	-5970
▁savings	-5971
▁suicide	-5972
▁cartoons	-5973
▁external	-5974
▁properly	-5975
▁provided	-5976
▁speakers	-5977
▁villages	-5978
▁afternoon	-5979
▁classical	-5980
▁consumers	-5981
▁delivered	-5982
▁describes	-5983
▁exploring	-5984
▁musicians	-5985
▁paintings	-5986
▁recording	-5987
▁demonstrate	-5988
▁exploration	-5989
▁expectations	-5990
▁participants	-5991
▁surprisingly	-5992
err	-5993
ras	-5994
▁26	-5995
▁ow	-5996
cred	-5997
gers	-5998
osen	-5999
▁cas	-6000
▁sed	-6001
class	-6002
worth	-6003
▁cens	-6004
▁coin	-6005
▁pace	-6006
▁rail	-6007
▁rely	-6008
▁rose	-6009
▁till	-6010
▁bones	-6011
▁chest	-6012
▁congo	-6013
▁delic	-6014
▁falls	-6015
▁flour	-6016
▁fluid	-6017
▁suspe	-6018
▁title	-6019
▁utter	-6020
▁veter	-6021
▁adjust	-6022
▁agenda	-6023
▁agreed	-6024
▁chosen	-6025
▁colony	-6026
▁extrem	-6027
▁intrig	-6028
▁missed	-6029
▁amongst	-6030
▁comprom	-6031
▁conclud	-6032
▁efforts	-6033
▁failing	-6034
▁fathers	-6035
▁origami	-6036
▁appeared	-6037
▁astronom	-6038
▁recovery	-6039
▁unlikely	-6040
▁breathing	-6041
▁corporate	-6042
▁depending	-6043
▁inspiring	-6044
▁microscope	-6045
▁researcher	-6046
▁cooperation	-6047
▁ingredients	-6048
aze	-6049
ecd	-6050
ida	-6051
oll	-6052
▁95	-6053
airs	-6054
ille	-6055
lets	-6056
ulse	-6057
▁mri	-6058
▁tes	-6059
alian	-6060
ckets	-6061
cohol	-6062
ounce	-6063
▁cake	-6064
▁fool	-6065
▁lens	-6066
▁mile	-6067
▁nets	-6068
▁seek	-6069
▁stri	-6070
▁accum	-6071
▁adopt	-6072
▁arist	-6073
▁aside	-6074
▁drill	-6075
▁gabby	-6076
▁grace	-6077
▁guide	-6078
▁hello	-6079
▁logic	-6080
▁miser	-6081
▁orbit	-6082
▁plast	-6083
iminals	-6084
▁arctic	-6085
▁combat	-6086
▁comedy	-6087
▁county	-6088
▁halluc	-6089
▁placed	-6090
▁senior	-6091
▁alcohol	-6092
▁aspects	-6093
▁essence	-6094
▁federal	-6095
▁prepare	-6096
▁sensory	-6097
▁unclear	-6098
▁contains	-6099
▁floating	-6100
▁measured	-6101
▁administr	-6102
▁dinosaurs	-6103
▁economist	-6104
▁instantly	-6105
▁presented	-6106
▁sculpture	-6107
▁architects	-6108
▁boundaries	-6109
▁functional	-6110
▁performing	-6111
▁underground	-6112
▁presentation	-6113
ds	-6114
des	-6115
hen	-6116
iox	-6117
org	-6118
ache	-6119
bits	-6120
ding	-6121
oran	-6122
ulum	-6123
▁dur	-6124
▁ink	-6125
▁sar	-6126
cence	-6127
power	-6128
▁1950	-6129
▁club	-6130
▁dung	-6131
▁dust	-6132
▁frog	-6133
▁glad	-6134
▁limb	-6135
▁quad	-6136
▁tent	-6137
called	-6138
usions	-6139
▁anger	-6140
▁bears	-6141
▁chief	-6142
▁decre	-6143
▁finds	-6144
▁scary	-6145
▁tatto	-6146
▁toxic	-6147
▁traum	-6148
▁units	-6149
▁vital	-6150
▁wired	-6151
angible	-6152
through	-6153
▁50,000	-6154
▁sticks	-6155
▁thrown	-6156
▁trends	-6157
▁anxiety	-6158
▁balloon	-6159
▁beliefs	-6160
▁delight	-6161
▁imagery	-6162
▁restore	-6163
▁silicon	-6164
▁features	-6165
▁football	-6166
▁musician	-6167
▁paradigm	-6168
▁algorithm	-6169
▁generated	-6170
▁separated	-6171
▁affordable	-6172
▁motivation	-6173
▁protecting	-6174
▁ridiculous	-6175
▁explanation	-6176
▁interacting	-6177
▁represented	-6178
hm	-6179
iac	-6180
omp	-6181
illy	-6182
umin	-6183
▁aes	-6184
▁bos	-6185
▁fet	-6186
▁lou	-6187
▁rio	-6188
▁wip	-6189
eared	-6190
right	-6191
sahar	-6192
under	-6193
using	-6194
uting	-6195
▁bubb	-6196
▁dign	-6197
▁firm	-6198
▁flew	-6199
▁flip	-6200
▁flor	-6201
▁glob	-6202
▁jazz	-6203
▁mice	-6204
▁seal	-6205
icious	-6206
ptions	-6207
▁chimp	-6208
▁coord	-6209
▁craft	-6210
▁crops	-6211
▁drone	-6212
▁grows	-6213
▁plain	-6214
▁sales	-6215
▁tasks	-6216
▁unbel	-6217
▁wound	-6218
▁yours	-6219
saharan	-6220
▁corres	-6221
▁locked	-6222
▁rescue	-6223
▁satisf	-6224
▁silver	-6225
▁slides	-6226
▁spider	-6227
▁stable	-6228
▁carried	-6229
▁distant	-6230
▁muslims	-6231
▁vessels	-6232
▁baseball	-6233
▁creature	-6234
▁lighting	-6235
▁returned	-6236
▁stereoty	-6237
▁emergency	-6238
▁permanent	-6239
▁protocell	-6240
▁searching	-6241
▁mathematic	-6242
▁resilience	-6243
▁struggling	-6244
▁agricultural	-6245
▁interestingly	-6246
▁neighborhoods	-6247
▁characteristics	-6248
gu	-6249
amb	-6250
ica	-6251
uel	-6252
vey	-6253
▁65	-6254
▁tu	-6255
conf	-6256
ooth	-6257
rect	-6258
rian	-6259
well	-6260
▁jam	-6261
▁jaw	-6262
▁lux	-6263
▁ray	-6264
▁tri	-6265
agger	-6266
iform	-6267
itory	-6268
lings	-6269
▁2004	-6270
▁beij	-6271
▁boss	-6272
▁cash	-6273
▁chop	-6274
▁dump	-6275
▁june	-6276
▁lamp	-6277
▁mail	-6278
▁pizz	-6279
▁plot	-6280
▁soup	-6281
▁tied	-6282
licity	-6283
tended	-6284
▁abuse	-6285
▁cryst	-6286
▁dynam	-6287
▁glaci	-6288
▁opens	-6289
▁schiz	-6290
▁trash	-6291
▁ultra	-6292
▁usual	-6293
▁diabet	-6294
▁drones	-6295
▁ensure	-6296
▁escape	-6297
▁richer	-6298
▁stages	-6299
▁stroke	-6300
▁virgin	-6301
▁density	-6302
▁disrupt	-6303
▁fishing	-6304
▁impacts	-6305
▁liberal	-6306
▁muscles	-6307
▁paralle	-6308
▁synthes	-6309
▁activist	-6310
▁improved	-6311
▁involves	-6312
▁organize	-6313
▁overcome	-6314
▁policies	-6315
▁produces	-6316
▁shocking	-6317
▁sleeping	-6318
▁textbook	-6319
▁calculate	-6320
▁committed	-6321
▁nutrition	-6322
▁physicist	-6323
▁uncomfort	-6324
▁afterwards	-6325
▁directions	-6326
▁electronic	-6327
▁expectancy	-6328
▁phosphorus	-6329
▁recognized	-6330
▁strategies	-6331
▁electronics	-6332
▁personality	-6333
▁recognition	-6334
▁uncertainty	-6335
▁productivity	-6336
▁automatically	-6337
500	-6338
bru	-6339
era	-6340
ket	-6341
yan	-6342
atar	-6343
quar	-6344
▁bug	-6345
▁cig	-6346
▁cub	-6347
▁gon	-6348
adays	-6349
cript	-6350
ifice	-6351
inson	-6352
state	-6353
▁2003	-6354
▁2006	-6355
▁anes	-6356
▁debt	-6357
▁dive	-6358
▁kiss	-6359
▁palm	-6360
▁trop	-6361
▁ugly	-6362
bridge	-6363
ioxide	-6364
▁award	-6365
▁explo	-6366
▁holds	-6367
▁mixed	-6368
▁parli	-6369
▁rehab	-6370
▁renew	-6371
▁reson	-6372
▁style	-6373
▁youth	-6374
century	-6375
eration	-6376
▁adding	-6377
▁barely	-6378
▁capita	-6379
▁curric	-6380
▁enable	-6381
▁entrop	-6382
▁fusion	-6383
▁neural	-6384
▁prices	-6385
▁rarely	-6386
▁rwanda	-6387
▁secure	-6388
▁sensor	-6389
▁yorker	-6390
▁aggress	-6391
▁autonom	-6392
▁crucial	-6393
▁diverse	-6394
▁lawyers	-6395
▁lecture	-6396
▁letting	-6397
▁quantum	-6398
▁staying	-6399
▁attached	-6400
▁controls	-6401
▁diabetes	-6402
▁dolphins	-6403
▁dominant	-6404
▁equality	-6405
▁estimate	-6406
▁homeless	-6407
▁nowadays	-6408
▁openness	-6409
▁psychiat	-6410
▁schizoph	-6411
▁shopping	-6412
▁unbeliev	-6413
▁continues	-6414
▁depressed	-6415
▁synthetic	-6416
▁explaining	-6417
▁controlling	-6418
▁philosopher	-6419
▁uncomfortable	-6420
-1	-6421
ris	-6422
rix	-6423
▁ts	-6424
kind	-6425
▁obl	-6426
▁sco	-6427
▁unh	-6428
capes	-6429
ended	-6430
flies	-6431
isons	-6432
phere	-6433
▁arth	-6434
▁atom	-6435
▁lock	-6436
▁trag	-6437
▁wing	-6438
parent	-6439
semble	-6440
sembly	-6441
▁5,000	-6442
▁burst	-6443
▁helic	-6444
▁henry	-6445
▁legis	-6446
▁mayor	-6447
▁spark	-6448
▁stops	-6449
▁filter	-6450
▁hardly	-6451
▁howard	-6452
▁mining	-6453
▁output	-6454
▁promot	-6455
▁repeat	-6456
▁replic	-6457
▁served	-6458
▁traged	-6459
▁dioxide	-6460
▁paradox	-6461
▁provides	-6462
▁repeated	-6463
▁reported	-6464
▁stanford	-6465
▁wireless	-6466
▁accidents	-6467
▁colleague	-6468
▁supermark	-6469
▁virtually	-6470
▁hemisphere	-6471
▁vegetables	-6472
▁assumptions	-6473
▁improvement	-6474
▁predictions	-6475
▁photographer	-6476
▁psychological	-6477
pa	-6478
wa	-6479
bar	-6480
sey	-6481
aint	-6482
bles	-6483
ette	-6484
gend	-6485
yram	-6486
▁dow	-6487
▁fox	-6488
▁jih	-6489
▁sel	-6490
archy	-6491
bered	-6492
itous	-6493
night	-6494
orous	-6495
▁fung	-6496
▁hier	-6497
▁labs	-6498
▁laid	-6499
▁perm	-6500
▁sket	-6501
▁tank	-6502
▁tedx	-6503
▁brian	-6504
▁korea	-6505
▁lifes	-6506
▁pizza	-6507
▁purch	-6508
▁pyram	-6509
▁queen	-6510
▁scott	-6511
▁tempt	-6512
▁thumb	-6513
▁tired	-6514
▁wheat	-6515
▁yemen	-6516
anthrop	-6517
section	-6518
▁20,000	-6519
▁chairs	-6520
▁ending	-6521
▁powers	-6522
▁stores	-6523
▁subtle	-6524
▁tasman	-6525
▁tricks	-6526
▁victim	-6527
▁citizen	-6528
▁drivers	-6529
▁elderly	-6530
▁entered	-6531
▁fortune	-6532
▁helicop	-6533
▁pacific	-6534
▁painted	-6535
▁recover	-6536
▁reduced	-6537
▁statist	-6538
▁texting	-6539
▁crossing	-6540
▁globally	-6541
▁plastics	-6542
▁shoulder	-6543
▁adventure	-6544
▁encounter	-6545
▁highlight	-6546
▁antarctica	-6547
▁geographic	-6548
▁identified	-6549
▁inevitable	-6550
▁operations	-6551
▁parliament	-6552
▁simplicity	-6553
▁suggesting	-6554
▁disappeared	-6555
▁manufacture	-6556
▁instructions	-6557
▁collaborative	-6558
▁demonstration	-6559
emp	-6560
ixt	-6561
reh	-6562
tes	-6563
uum	-6564
▁28	-6565
bage	-6566
fast	-6567
iban	-6568
imag	-6569
onia	-6570
pher	-6571
▁120	-6572
▁195	-6573
▁awk	-6574
▁mes	-6575
▁ram	-6576
agram	-6577
oning	-6578
osure	-6579
▁deli	-6580
▁duck	-6581
▁fulf	-6582
▁gang	-6583
▁matt	-6584
▁meal	-6585
▁neat	-6586
▁nick	-6587
▁pref	-6588
▁rats	-6589
▁subs	-6590
bruary	-6591
▁begun	-6592
▁doors	-6593
▁drawn	-6594
▁immun	-6595
▁jihad	-6596
▁links	-6597
▁nurse	-6598
▁outer	-6599
▁persu	-6600
▁sauce	-6601
▁tears	-6602
▁therm	-6603
unction	-6604
▁assets	-6605
▁defend	-6606
▁ethnic	-6607
▁marath	-6608
▁pushed	-6609
▁scores	-6610
children	-6611
▁affects	-6612
▁awkward	-6613
▁entropy	-6614
▁exposed	-6615
▁graphic	-6616
▁initial	-6617
▁monitor	-6618
▁nonviol	-6619
▁parties	-6620
▁printed	-6621
▁visited	-6622
▁category	-6623
▁detailed	-6624
▁drinking	-6625
▁facility	-6626
▁february	-6627
▁laughing	-6628
▁optimism	-6629
▁parallel	-6630
▁sciences	-6631
▁strongly	-6632
▁cambridge	-6633
▁dedicated	-6634
▁dependent	-6635
▁healthier	-6636
▁reduction	-6637
▁telephone	-6638
▁disappoint	-6639
▁governance	-6640
▁neuroscient	-6641
▁probability	-6642
▁schizophren	-6643
▁translation	-6644
mm	-6645
pal	-6646
ups	-6647
▁rh	-6648
ague	-6649
itud	-6650
kins	-6651
lies	-6652
ocks	-6653
▁bin	-6654
aming	-6655
clock	-6656
iated	-6657
▁2011	-6658
▁batt	-6659
▁bron	-6660
▁cute	-6661
▁dism	-6662
▁drum	-6663
▁grat	-6664
▁jose	-6665
▁odds	-6666
▁peer	-6667
▁reef	-6668
▁sits	-6669
▁toys	-6670
▁crack	-6671
▁dirty	-6672
▁drove	-6673
▁joint	-6674
▁knock	-6675
▁redef	-6676
▁relax	-6677
▁schem	-6678
▁ubiqu	-6679
▁views	-6680
▁arrive	-6681
▁borrow	-6682
▁fertil	-6683
▁funded	-6684
▁makers	-6685
▁marine	-6686
▁settle	-6687
▁smooth	-6688
▁sunday	-6689
▁viewer	-6690
▁ceiling	-6691
▁consult	-6692
▁dignity	-6693
▁fastest	-6694
▁footage	-6695
▁hitting	-6696
▁leather	-6697
▁magical	-6698
▁onstage	-6699
▁persist	-6700
▁picking	-6701
▁revenue	-6702
▁session	-6703
▁spectac	-6704
▁colonies	-6705
▁distract	-6706
▁inherent	-6707
▁refugees	-6708
▁robotics	-6709
▁christian	-6710
▁elsewhere	-6711
▁gathering	-6712
▁improving	-6713
▁passenger	-6714
▁suggested	-6715
▁compelling	-6716
▁curriculum	-6717
▁determined	-6718
▁psychopath	-6719
▁underlying	-6720
▁genetically	-6721
▁philanthrop	-6722
▁photographed	-6723
▁globalization	-6724
iro	-6725
ora	-6726
sec	-6727
see	-6728
ses	-6729
▁0.	-6730
▁32	-6731
▁ib	-6732
appy	-6733
ares	-6734
arre	-6735
cond	-6736
illa	-6737
llar	-6738
onge	-6739
pass	-6740
▁lun	-6741
▁tan	-6742
angle	-6743
copes	-6744
front	-6745
iders	-6746
level	-6747
rency	-6748
▁anat	-6749
▁emph	-6750
▁gear	-6751
▁irre	-6752
▁nurt	-6753
▁sink	-6754
▁stun	-6755
▁wedd	-6756
employ	-6757
engine	-6758
makers	-6759
▁ghana	-6760
▁legit	-6761
▁lions	-6762
▁recru	-6763
▁route	-6764
▁silly	-6765
▁skull	-6766
▁steal	-6767
▁wider	-6768
parents	-6769
raction	-6770
▁conven	-6771
▁layers	-6772
▁legacy	-6773
▁matrix	-6774
▁recept	-6775
▁recess	-6776
▁scream	-6777
▁shaped	-6778
▁trucks	-6779
▁chances	-6780
▁cigaret	-6781
▁clients	-6782
▁closing	-6783
▁formula	-6784
▁habitat	-6785
▁luckily	-6786
▁request	-6787
▁russian	-6788
▁scanner	-6789
▁secrets	-6790
▁targets	-6791
▁chimpanz	-6792
▁delivery	-6793
▁domestic	-6794
▁focusing	-6795
▁incident	-6796
▁includes	-6797
▁innocent	-6798
▁insights	-6799
▁microbes	-6800
▁reducing	-6801
▁shooting	-6802
▁backwards	-6803
▁microsoft	-6804
▁supported	-6805
▁suspended	-6806
▁categories	-6807
▁frustrated	-6808
▁hypothesis	-6809
▁influenced	-6810
▁originally	-6811
▁prosthetic	-6812
▁translated	-6813
▁programming	-6814
▁breakthrough	-6815
▁experimental	-6816
cel	-6817
dig	-6818
ndr	-6819
two	-6820
▁nu	-6821
ault	-6822
elly	-6823
erge	-6824
fall	-6825
greg	-6826
ship	-6827
thal	-6828
thet	-6829
▁ain	-6830
▁bio	-6831
▁doz	-6832
▁kar	-6833
emics	-6834
▁abra	-6835
▁barr	-6836
▁bars	-6837
▁brut	-6838
▁dear	-6839
▁dies	-6840
▁ford	-6841
▁josh	-6842
▁lean	-6843
▁pand	-6844
▁stab	-6845
▁susp	-6846
asters	-6847
inated	-6848
minute	-6849
▁dough	-6850
▁fires	-6851
▁fuels	-6852
▁items	-6853
▁maxim	-6854
▁pause	-6855
▁skept	-6856
▁spots	-6857
astroph	-6858
▁burden	-6859
▁commod	-6860
▁garage	-6861
▁insane	-6862
▁lawyer	-6863
▁muscle	-6864
▁oxford	-6865
▁poster	-6866
▁aristot	-6867
▁beijing	-6868
▁concern	-6869
▁enables	-6870
▁ethical	-6871
▁founded	-6872
▁hunting	-6873
▁implant	-6874
▁millenn	-6875
▁penguin	-6876
▁pretend	-6877
▁pulling	-6878
▁serving	-6879
▁smiling	-6880
▁soldier	-6881
▁suspect	-6882
▁taliban	-6883
▁answered	-6884
▁attitude	-6885
▁choosing	-6886
▁december	-6887
▁dialogue	-6888
▁infinite	-6889
▁judgment	-6890
▁mobility	-6891
▁organism	-6892
▁precious	-6893
▁reminded	-6894
▁unemploy	-6895
▁ancestors	-6896
▁disorders	-6897
▁documents	-6898
▁forgotten	-6899
▁frequency	-6900
▁headlines	-6901
▁immediate	-6902
▁infection	-6903
▁miserable	-6904
▁objective	-6905
▁ownership	-6906
▁physician	-6907
▁privilege	-6908
▁sacrifice	-6909
▁attractive	-6910
▁catastroph	-6911
▁industries	-6912
▁integrated	-6913
▁retirement	-6914
▁expressions	-6915
▁restaurants	-6916
▁transparent	-6917
▁conservative	-6918
▁independence	-6919
▁universities	-6920
▁professionals	-6921
ev	-6922
gl	-6923
200	-6924
asm	-6925
asy	-6926
bod	-6927
▁fg	-6928
keys	-6929
list	-6930
part	-6931
viet	-6932
xual	-6933
▁biz	-6934
▁ceo	-6935
▁dys	-6936
▁enh	-6937
▁nit	-6938
▁upd	-6939
igned	-6940
▁2001	-6941
▁buff	-6942
▁cree	-6943
▁damn	-6944
▁eleg	-6945
▁hire	-6946
▁indo	-6947
▁lone	-6948
▁mood	-6949
▁nord	-6950
▁pige	-6951
▁publ	-6952
▁rice	-6953
▁subt	-6954
▁summ	-6955
itudes	-6956
mingly	-6957
▁4,000	-6958
▁armed	-6959
▁devil	-6960
▁disag	-6961
▁exped	-6962
▁holly	-6963
▁jesus	-6964
▁loves	-6965
▁roots	-6966
▁unpre	-6967
▁weeke	-6968
keepers	-6969
related	-6970
▁assess	-6971
▁harbor	-6972
▁insist	-6973
▁killer	-6974
▁merely	-6975
▁neuron	-6976
▁poison	-6977
▁tongue	-6978
▁trains	-6979
▁traits	-6980
▁tunnel	-6981
▁turkey	-6982
▁artwork	-6983
▁bedroom	-6984
▁bizarre	-6985
▁convert	-6986
▁florida	-6987
▁offices	-6988
▁ongoing	-6989
▁passing	-6990
▁promote	-6991
▁routine	-6992
▁sisters	-6993
▁smarter	-6994
▁spanish	-6995
▁tissues	-6996
▁warning	-6997
▁writers	-6998
▁accepted	-6999
▁articles	-7000
▁darkness	-7001
▁educated	-7002
▁keyboard	-7003
▁managers	-7004
▁perceive	-7005
▁proposed	-7006
▁remained	-7007
▁suffered	-7008
▁extension	-7009
▁intention	-7010
▁investors	-7011
▁paralyzed	-7012
▁procedure	-7013
▁sentences	-7014
▁additional	-7015
▁autonomous	-7016
▁difficulty	-7017
▁facilities	-7018
▁specialized	-7019
▁occasionally	-7020
oe	-7021
eda	-7022
ini	-7023
ocr	-7024
▁33	-7025
▁ak	-7026
aped	-7027
ardo	-7028
free	-7029
hear	-7030
ilit	-7031
long	-7032
okes	-7033
olic	-7034
rich	-7035
▁hut	-7036
▁kir	-7037
▁ner	-7038
▁ooh	-7039
▁tex	-7040
▁tip	-7041
▁vit	-7042
▁wet	-7043
▁wid	-7044
aland	-7045
allow	-7046
riers	-7047
▁anno	-7048
▁earn	-7049
▁ours	-7050
▁prev	-7051
▁salt	-7052
▁woke	-7053
ometer	-7054
soever	-7055
▁array	-7056
▁audio	-7057
▁chips	-7058
▁choir	-7059
▁chron	-7060
▁eaten	-7061
▁edges	-7062
▁fruit	-7063
▁funds	-7064
▁herit	-7065
▁incor	-7066
▁index	-7067
▁koran	-7068
▁monit	-7069
▁naked	-7070
▁nerve	-7071
▁nodes	-7072
▁satur	-7073
▁tubes	-7074
ughters	-7075
▁actors	-7076
▁august	-7077
▁daniel	-7078
▁emerge	-7079
▁expans	-7080
▁fought	-7081
▁regime	-7082
▁retina	-7083
▁strain	-7084
▁weapon	-7085
cedented	-7086
▁bubbles	-7087
▁enterpr	-7088
▁harness	-7089
▁healing	-7090
▁helpful	-7091
▁involve	-7092
▁israeli	-7093
▁neander	-7094
▁opposed	-7095
▁winning	-7096
▁circuits	-7097
▁confused	-7098
▁democrat	-7099
▁drawings	-7100
▁homework	-7101
▁magnetic	-7102
▁pointing	-7103
▁preserve	-7104
▁broadcast	-7105
▁completed	-7106
▁excellent	-7107
▁gradually	-7108
▁orchestra	-7109
▁accomplish	-7110
▁proportion	-7111
▁prosperity	-7112
▁terrifying	-7113
▁whatsoever	-7114
▁observation	-7115
▁unprecedented	-7116
▁representation	-7117
▁straightforward	-7118
ja	-7119
isy	-7120
vis	-7121
▁dv	-7122
▁os	-7123
abul	-7124
agen	-7125
ober	-7126
ugal	-7127
walk	-7128
▁aer	-7129
▁dil	-7130
▁inh	-7131
▁spo	-7132
field	-7133
iance	-7134
otted	-7135
stone	-7136
▁butt	-7137
▁caps	-7138
▁crew	-7139
▁gate	-7140
▁gras	-7141
▁jeff	-7142
▁leaf	-7143
▁mate	-7144
▁micr	-7145
▁plug	-7146
▁quit	-7147
▁silk	-7148
▁stew	-7149
▁tear	-7150
dollar	-7151
iences	-7152
orious	-7153
utical	-7154
▁agent	-7155
▁blame	-7156
▁brook	-7157
▁downt	-7158
▁gonna	-7159
▁opera	-7160
▁sharp	-7161
▁texas	-7162
▁tweet	-7163
▁valid	-7164
▁accent	-7165
▁attend	-7166
▁caring	-7167
▁dozens	-7168
▁freely	-7169
▁friday	-7170
▁hiding	-7171
▁landed	-7172
▁panels	-7173
▁soviet	-7174
▁uganda	-7175
▁upload	-7176
▁voting	-7177
▁waters	-7178
▁widely	-7179
▁analyze	-7180
▁arguing	-7181
▁automob	-7182
▁besides	-7183
▁briefly	-7184
▁mammals	-7185
▁manager	-7186
▁miracle	-7187
▁october	-7188
▁printer	-7189
▁pursuit	-7190
▁rethink	-7191
▁rolling	-7192
▁tragedy	-7193
▁calories	-7194
▁conclude	-7195
▁fabulous	-7196
▁genetics	-7197
▁honestly	-7198
▁isolated	-7199
▁scholars	-7200
▁shifting	-7201
▁shipping	-7202
▁breakfast	-7203
▁confident	-7204
▁interrupt	-7205
▁medicines	-7206
▁primarily	-7207
▁stability	-7208
▁substance	-7209
▁mechanisms	-7210
▁newspapers	-7211
▁ubiquitous	-7212
▁description	-7213
▁personalized	-7214
▁psychologist	-7215
▁grandchildren	-7216
ga	-7217
uk	-7218
mod	-7219
pre	-7220
▁85	-7221
etti	-7222
half	-7223
tail	-7224
wind	-7225
▁191	-7226
▁ads	-7227
▁cyl	-7228
▁fer	-7229
▁gig	-7230
▁pad	-7231
creat	-7232
etown	-7233
iment	-7234
tical	-7235
▁acid	-7236
▁chim	-7237
▁coch	-7238
▁coke	-7239
▁dawn	-7240
▁demo	-7241
▁germ	-7242
▁hind	-7243
▁outs	-7244
▁pile	-7245
▁prec	-7246
▁ambig	-7247
▁arrow	-7248
▁biote	-7249
▁brave	-7250
▁cabin	-7251
▁crows	-7252
▁cyrus	-7253
▁delay	-7254
▁donor	-7255
▁favel	-7256
▁insul	-7257
▁intim	-7258
▁meals	-7259
▁panel	-7260
▁punch	-7261
▁shine	-7262
▁syndr	-7263
▁threw	-7264
▁upset	-7265
ascular	-7266
▁basket	-7267
▁claims	-7268
▁fisher	-7269
▁habits	-7270
▁heaven	-7271
▁norway	-7272
▁punish	-7273
▁recall	-7274
▁sacred	-7275
controll	-7276
▁academy	-7277
▁bottles	-7278
▁charlie	-7279
▁clinics	-7280
▁dressed	-7281
▁emerged	-7282
▁engines	-7283
▁garbage	-7284
▁glasses	-7285
▁hormone	-7286
▁inspire	-7287
▁iranian	-7288
▁mindset	-7289
▁observe	-7290
▁officer	-7291
▁puzzles	-7292
▁refugee	-7293
▁reminds	-7294
▁stewart	-7295
▁wealthy	-7296
aceutical	-7297
▁accounts	-7298
▁athletes	-7299
▁charming	-7300
▁currency	-7301
▁figuring	-7302
▁generous	-7303
▁palestin	-7304
▁peaceful	-7305
▁scenario	-7306
▁vertical	-7307
▁announced	-7308
▁candidate	-7309
▁diagnosis	-7310
▁expanding	-7311
▁factories	-7312
▁intuition	-7313
▁nonprofit	-7314
▁performed	-7315
▁preparing	-7316
▁realizing	-7317
▁remaining	-7318
▁responses	-7319
▁terrorism	-7320
▁biologists	-7321
▁capitalism	-7322
▁previously	-7323
▁profoundly	-7324
▁remembered	-7325
▁association	-7326
▁spectacular	-7327
▁unconscious	-7328
▁grandparents	-7329
▁intervention	-7330
▁communications	-7331
▁pharmaceutical	-7332
bye	-7333
ctu	-7334
hus	-7335
net	-7336
ods	-7337
ola	-7338
omb	-7339
ria	-7340
▁oy	-7341
eday	-7342
icks	-7343
ilty	-7344
mill	-7345
mony	-7346
opia	-7347
umes	-7348
ylac	-7349
▁alb	-7350
▁lee	-7351
▁nom	-7352
▁sav	-7353
▁spa	-7354
▁tag	-7355
amine	-7356
aware	-7357
erved	-7358
icial	-7359
icked	-7360
leton	-7361
third	-7362
uther	-7363
▁brid	-7364
▁bure	-7365
▁cham	-7366
▁dose	-7367
▁flaw	-7368
▁guns	-7369
▁junk	-7370
▁lego	-7371
▁mini	-7372
▁whis	-7373
encing	-7374
ounder	-7375
▁alien	-7376
▁bored	-7377
▁careg	-7378
▁conce	-7379
▁divor	-7380
▁drown	-7381
▁elite	-7382
▁excit	-7383
▁intro	-7384
▁proph	-7385
▁ratio	-7386
▁shelf	-7387
▁slums	-7388
▁strip	-7389
▁tooth	-7390
athered	-7391
inarily	-7392
ounding	-7393
percent	-7394
▁butter	-7395
▁column	-7396
▁crimes	-7397
▁denial	-7398
▁emphas	-7399
▁excuse	-7400
▁extend	-7401
▁firing	-7402
▁immigr	-7403
▁inches	-7404
▁jewish	-7405
▁kidney	-7406
▁partly	-7407
▁shakes	-7408
▁simult	-7409
▁theore	-7410
▁thylac	-7411
▁ticket	-7412
▁twenty	-7413
▁unable	-7414
idential	-7415
▁beating	-7416
▁beneath	-7417
▁captain	-7418
▁council	-7419
▁deliber	-7420
▁fragile	-7421
▁ignored	-7422
▁indones	-7423
▁mandela	-7424
▁shelter	-7425
▁someday	-7426
▁uniform	-7427
▁vietnam	-7428
▁aircraft	-7429
▁bathroom	-7430
▁believes	-7431
▁contrary	-7432
▁database	-7433
▁heritage	-7434
▁historic	-7435
▁marathon	-7436
▁daughters	-7437
▁hollywood	-7438
▁mosquitos	-7439
▁predicted	-7440
▁prisoners	-7441
▁temporary	-7442
▁variation	-7443
▁comparison	-7444
▁ecosystems	-7445
▁illustrate	-7446
▁smartphone	-7447
▁contemporary	-7448
▁dictionaries	-7449
▁experiencing	-7450
▁storytelling	-7451
▁interconnected	-7452
py	-7453
bra	-7454
dis	-7455
gos	-7456
har	-7457
idi	-7458
ila	-7459
irm	-7460
rid	-7461
▁29	-7462
▁bj	-7463
agon	-7464
ania	-7465
fold	-7466
four	-7467
grad	-7468
leep	-7469
made	-7470
olit	-7471
▁bam	-7472
▁gee	-7473
▁gif	-7474
▁han	-7475
▁jet	-7476
▁via	-7477
ashed	-7478
ilize	-7479
izers	-7480
phony	-7481
rence	-7482
three	-7483
▁2050	-7484
▁bags	-7485
▁bite	-7486
▁dent	-7487
▁forb	-7488
▁hors	-7489
▁hybr	-7490
▁mike	-7491
▁murd	-7492
▁sett	-7493
▁sexy	-7494
comput	-7495
▁alpha	-7496
▁amate	-7497
▁brush	-7498
▁candy	-7499
▁gorge	-7500
▁grave	-7501
▁italy	-7502
▁laure	-7503
▁leban	-7504
▁maker	-7505
▁membr	-7506
▁safer	-7507
▁spont	-7508
▁spray	-7509
▁swiss	-7510
▁tends	-7511
essions	-7512
igation	-7513
▁burned	-7514
▁cousin	-7515
▁covers	-7516
▁degrad	-7517
▁empire	-7518
▁geomet	-7519
▁marker	-7520
▁nearby	-7521
▁orient	-7522
▁potato	-7523
▁selves	-7524
▁speaks	-7525
▁stimul	-7526
▁stored	-7527
▁subway	-7528
▁tackle	-7529
american	-7530
andering	-7531
▁arrange	-7532
▁authors	-7533
▁barrier	-7534
▁elected	-7535
▁flowing	-7536
▁hanging	-7537
▁iceland	-7538
▁insulin	-7539
▁located	-7540
▁mapping	-7541
▁percept	-7542
▁prisons	-7543
▁reveals	-7544
▁rituals	-7545
▁threats	-7546
▁wedding	-7547
imination	-7548
▁activate	-7549
▁backyard	-7550
▁climbing	-7551
▁comments	-7552
▁division	-7553
▁hardware	-7554
▁improvis	-7555
▁navigate	-7556
▁socially	-7557
▁surfaces	-7558
▁surgeons	-7559
▁syndrome	-7560
▁transmit	-7561
▁aristotle	-7562
▁exception	-7563
▁initially	-7564
▁meanwhile	-7565
▁mushrooms	-7566
▁perceived	-7567
▁positions	-7568
▁qualities	-7569
▁radically	-7570
▁continuing	-7571
▁excitement	-7572
▁exhibition	-7573
▁supporting	-7574
▁treatments	-7575
▁consequence	-7576
▁democracies	-7577
▁devastating	-7578
▁surrounding	-7579
▁corporations	-7580
▁architectural	-7581
▁significantly	-7582
che	-7583
fly	-7584
law	-7585
neg	-7586
oli	-7587
oma	-7588
ona	-7589
▁31	-7590
aust	-7591
edge	-7592
ghai	-7593
ully	-7594
▁30-	-7595
▁cro	-7596
▁jar	-7597
▁lit	-7598
▁pir	-7599
▁shy	-7600
ansas	-7601
apore	-7602
ching	-7603
ogram	-7604
produ	-7605
ville	-7606
▁dood	-7607
▁excl	-7608
▁genu	-7609
▁guid	-7610
▁heal	-7611
▁neck	-7612
▁nest	-7613
▁ngos	-7614
▁rope	-7615
▁shan	-7616
▁triv	-7617
▁warr	-7618
▁wrap	-7619
▁brows	-7620
▁civic	-7621
▁discr	-7622
▁embod	-7623
▁gases	-7624
▁genoc	-7625
▁ingen	-7626
▁johns	-7627
▁kills	-7628
▁manif	-7629
▁meter	-7630
▁physi	-7631
▁sadly	-7632
▁trace	-7633
▁andrew	-7634
▁approx	-7635
▁arthur	-7636
▁contag	-7637
▁endang	-7638
▁motors	-7639
▁negoti	-7640
▁norden	-7641
▁packed	-7642
▁recipe	-7643
▁thirty	-7644
▁tragic	-7645
▁wheels	-7646
▁chapter	-7647
▁compete	-7648
▁condoms	-7649
▁demands	-7650
▁despair	-7651
▁enlight	-7652
▁happily	-7653
▁lottery	-7654
▁monkeys	-7655
▁readers	-7656
▁william	-7657
▁artistic	-7658
▁disabled	-7659
▁failures	-7660
▁flexible	-7661
▁gorgeous	-7662
▁ministry	-7663
▁presents	-7664
▁prostate	-7665
▁tendency	-7666
▁wildlife	-7667
▁agreement	-7668
▁collapsed	-7669
▁dimension	-7670
▁expertise	-7671
▁fortunate	-7672
▁graduated	-7673
▁indonesia	-7674
▁nutrients	-7675
▁singapore	-7676
▁approaches	-7677
▁commission	-7678
▁compromise	-7679
▁mainstream	-7680
▁mysterious	-7681
▁structural	-7682
▁threatened	-7683
▁yourselves	-7684
▁reconstruct	-7685
▁supermarket	-7686
▁unbelievable	-7687
▁psychologists	-7688
▁schizophrenia	-7689
sp	-7690
ari	-7691
ata	-7692
boo	-7693
etr	-7694
hah	-7695
nis	-7696
top	-7697
uff	-7698
vit	-7699
▁kh	-7700
anny	-7701
apor	-7702
cycl	-7703
hist	-7704
ifer	-7705
onic	-7706
oust	-7707
quis	-7708
road	-7709
utan	-7710
▁20-	-7711
▁700	-7712
▁800	-7713
▁dun	-7714
▁inn	-7715
▁tox	-7716
▁une	-7717
ading	-7718
burgh	-7719
digit	-7720
eters	-7721
irect	-7722
peare	-7723
pring	-7724
▁bump	-7725
▁cert	-7726
▁cher	-7727
▁clot	-7728
▁clue	-7729
▁gods	-7730
▁gore	-7731
▁holy	-7732
▁melt	-7733
▁pigs	-7734
▁radi	-7735
▁rape	-7736
▁scal	-7737
▁scot	-7738
▁soap	-7739
▁suck	-7740
▁sulf	-7741
▁temp	-7742
▁tone	-7743
▁tune	-7744
▁verb	-7745
aneous	-7746
ashing	-7747
gments	-7748
▁aspir	-7749
▁chile	-7750
▁coinc	-7751
▁deals	-7752
▁demos	-7753
▁jelly	-7754
▁lanes	-7755
▁miner	-7756
▁owned	-7757
▁owner	-7758
▁pairs	-7759
▁pride	-7760
▁rocks	-7761
▁shred	-7762
▁spons	-7763
▁sweat	-7764
▁sweep	-7765
▁trail	-7766
▁twist	-7767
working	-7768
▁asleep	-7769
▁astero	-7770
▁buried	-7771
▁domain	-7772
▁formal	-7773
▁gained	-7774
▁golden	-7775
▁manual	-7776
▁perpet	-7777
▁racing	-7778
▁shrimp	-7779
▁static	-7780
▁tomato	-7781
▁truths	-7782
▁ultras	-7783
chnology	-7784
ventions	-7785
▁banking	-7786
▁circles	-7787
▁compreh	-7788
▁diagram	-7789
▁folding	-7790
▁forming	-7791
▁glacier	-7792
▁highway	-7793
▁immense	-7794
▁package	-7795
▁pockets	-7796
▁pointed	-7797
▁profile	-7798
▁reports	-7799
▁resolve	-7800
▁seventh	-7801
▁smoking	-7802
▁spreads	-7803
▁stephen	-7804
▁traject	-7805
▁zealand	-7806
▁anesthes	-7807
▁applying	-7808
▁arrested	-7809
▁barriers	-7810
▁carolina	-7811
▁ceremony	-7812
▁clusters	-7813
▁customer	-7814
▁hometown	-7815
▁included	-7816
▁lifespan	-7817
▁measures	-7818
▁offering	-7819
▁particle	-7820
▁portrait	-7821
▁reinvent	-7822
▁restrict	-7823
▁shanghai	-7824
▁survived	-7825
▁tedtalks	-7826
▁throwing	-7827
▁affecting	-7828
▁audiences	-7829
▁bacterial	-7830
▁biologist	-7831
▁biosphere	-7832
▁estimates	-7833
▁guarantee	-7834
▁intensive	-7835
▁obstacles	-7836
▁reactions	-7837
▁recommend	-7838
▁similarly	-7839
▁strategic	-7840
▁volunteer	-7841
▁ecological	-7842
▁elementary	-7843
▁interviews	-7844
▁regardless	-7845
▁satellites	-7846
▁traditions	-7847
▁constraints	-7848
▁demographic	-7849
▁foundations	-7850
▁innovations	-7851
▁shakespeare	-7852
▁calculations	-7853
▁institutional	-7854
▁interventions	-7855
hh	-7856
aid	-7857
enh	-7858
tra	-7859
wis	-7860
▁2,	-7861
▁37	-7862
aken	-7863
celi	-7864
lson	-7865
mbur	-7866
racy	-7867
real	-7868
ucks	-7869
west	-7870
▁bot	-7871
▁bru	-7872
▁dop	-7873
▁ell	-7874
▁nap	-7875
▁obt	-7876
▁sib	-7877
▁tam	-7878
atson	-7879
enses	-7880
impse	-7881
itzer	-7882
osity	-7883
▁1930	-7884
▁bind	-7885
▁bust	-7886
▁file	-7887
▁hipp	-7888
▁keys	-7889
▁nove	-7890
▁pear	-7891
▁thus	-7892
▁ward	-7893
celium	-7894
▁defic	-7895
▁detro	-7896
▁dutch	-7897
▁exerc	-7898
▁fiber	-7899
▁guerr	-7900
▁pants	-7901
▁santa	-7902
▁scaff	-7903
▁spill	-7904
▁stamp	-7905
▁tiger	-7906
▁wires	-7907
▁breaks	-7908
▁cambod	-7909
▁cultiv	-7910
▁enthus	-7911
▁errors	-7912
▁grocer	-7913
▁hambur	-7914
▁infant	-7915
▁magnet	-7916
▁marvel	-7917
▁nelson	-7918
▁posted	-7919
▁rivers	-7920
▁thresh	-7921
▁topics	-7922
▁typing	-7923
▁watson	-7924
▁abraham	-7925
▁analogy	-7926
▁courses	-7927
▁cybercr	-7928
▁deserve	-7929
▁destiny	-7930
▁drought	-7931
▁educate	-7932
▁genuine	-7933
▁glimpse	-7934
▁inmates	-7935
▁pyramid	-7936
▁rosling	-7937
▁shepher	-7938
▁symbols	-7939
▁trigger	-7940
▁autistic	-7941
▁autonomy	-7942
▁connects	-7943
▁covering	-7944
▁hormones	-7945
▁listened	-7946
▁magnific	-7947
▁mycelium	-7948
▁november	-7949
▁purposes	-7950
▁simplest	-7951
▁teenager	-7952
▁cooperate	-7953
▁explosion	-7954
▁investing	-7955
▁locations	-7956
▁recession	-7957
▁statistic	-7958
▁classrooms	-7959
▁endangered	-7960
▁telescopes	-7961
▁achievement	-7962
▁desperately	-7963
▁capabilities	-7964
▁collectively	-7965
▁embarrassing	-7966
▁transmission	-7967
▁representative	-7968
sa	-7969
cla	-7970
cre	-7971
dam	-7972
glo	-7973
lon	-7974
udd	-7975
via	-7976
aded	-7977
asty	-7978
ched	-7979
crib	-7980
irts	-7981
izer	-7982
laim	-7983
oral	-7984
sell	-7985
▁bob	-7986
▁dub	-7987
▁sew	-7988
▁tut	-7989
berry	-7990
bling	-7991
cover	-7992
gence	-7993
▁1900	-7994
▁2002	-7995
▁bond	-7996
▁fits	-7997
▁hong	-7998
▁infl	-7999
▁leon	-8000
▁mary	-8001
▁mode	-8002
▁neoc	-8003
▁rome	-8004
▁sake	-8005
▁sale	-8006
▁slic	-8007
▁stor	-8008
▁tact	-8009
▁tale	-8010
▁turk	-8011
▁unst	-8012
cyclop	-8013
▁asian	-8014
▁bucks	-8015
▁camps	-8016
▁cliff	-8017
▁gotta	-8018
▁gramm	-8019
▁gross	-8020
▁hopes	-8021
▁inhab	-8022
▁inher	-8023
▁juice	-8024
▁lungs	-8025
▁marry	-8026
▁redes	-8027
▁worms	-8028
▁bullet	-8029
▁convey	-8030
▁deadly	-8031
▁editor	-8032
▁fallen	-8033
▁headed	-8034
▁joseph	-8035
▁joshua	-8036
▁linear	-8037
▁nights	-8038
▁propag	-8039
▁proven	-8040
▁reader	-8041
▁render	-8042
▁riding	-8043
▁script	-8044
▁sheets	-8045
▁smells	-8046
▁strict	-8047
▁surviv	-8048
▁temple	-8049
▁victor	-8050
interest	-8051
▁augment	-8052
▁gesture	-8053
▁goodbye	-8054
▁portion	-8055
▁profits	-8056
▁shocked	-8057
▁stepped	-8058
▁teenage	-8059
▁telecom	-8060
▁terrain	-8061
▁whistle	-8062
▁catholic	-8063
▁complain	-8064
▁dopamine	-8065
▁downtown	-8066
▁encyclop	-8067
▁explicit	-8068
▁friendly	-8069
▁gathered	-8070
▁genocide	-8071
▁graphics	-8072
▁interven	-8073
▁invested	-8074
▁stranger	-8075
▁websites	-8076
▁abandoned	-8077
▁acknowled	-8078
▁airplanes	-8079
▁believing	-8080
▁blindness	-8081
▁expansion	-8082
▁installed	-8083
▁mechanics	-8084
▁officials	-8085
▁parenting	-8086
▁primitive	-8087
▁signature	-8088
forestation	-8089
▁adolescent	-8090
▁aggressive	-8091
▁candidates	-8092
▁challenged	-8093
▁determines	-8094
▁discipline	-8095
▁electrodes	-8096
▁intriguing	-8097
▁physicians	-8098
▁responding	-8099
▁simulation	-8100
▁ultrasound	-8101
▁beautifully	-8102
▁discovering	-8103
▁constitution	-8104
▁historically	-8105
▁transforming	-8106
▁concentration	-8107
▁hallucinations	-8108
fi	-8109
mo	-8110
va	-8111
za	-8112
auc	-8113
ema	-8114
ira	-8115
nut	-8116
rah	-8117
rof	-8118
▁3.	-8119
▁55	-8120
▁kr	-8121
▁ku	-8122
▁ky	-8123
▁om	-8124
aeda	-8125
away	-8126
cher	-8127
lers	-8128
neys	-8129
outs	-8130
plus	-8131
seen	-8132
▁aur	-8133
▁gel	-8134
▁ibm	-8135
▁lak	-8136
▁ron	-8137
▁tie	-8138
eller	-8139
ested	-8140
orted	-8141
owers	-8142
ribly	-8143
▁aunt	-8144
▁bern	-8145
▁cass	-8146
▁cott	-8147
▁drew	-8148
▁dumb	-8149
▁epis	-8150
▁fate	-8151
▁jane	-8152
▁july	-8153
▁jung	-8154
▁lion	-8155
▁mild	-8156
▁nuts	-8157
▁rick	-8158
▁stom	-8159
▁tide	-8160
▁volc	-8161
rhythm	-8162
tering	-8163
weight	-8164
▁ambit	-8165
▁bills	-8166
▁boost	-8167
▁bronx	-8168
▁cheat	-8169
▁chess	-8170
▁clues	-8171
▁conqu	-8172
▁cruel	-8173
▁kevin	-8174
▁mimic	-8175
▁mines	-8176
▁obese	-8177
▁overl	-8178
▁realm	-8179
▁reass	-8180
▁revol	-8181
▁sixth	-8182
▁squee	-8183
▁stake	-8184
▁treas	-8185
illance	-8186
looking	-8187
otherap	-8188
▁appeal	-8189
▁brands	-8190
▁builds	-8191
▁criter	-8192
▁cycles	-8193
▁flavor	-8194
▁guilty	-8195
▁luxury	-8196
▁murder	-8197
▁pigeon	-8198
▁raises	-8199
▁tumors	-8200
changing	-8201
fficient	-8202
quarters	-8203
▁beetles	-8204
▁colored	-8205
▁congest	-8206
▁corrupt	-8207
▁damaged	-8208
▁exhibit	-8209
▁gallery	-8210
▁intrins	-8211
▁mastery	-8212
▁passage	-8213
▁patents	-8214
▁rewards	-8215
▁simpler	-8216
▁storage	-8217
▁talents	-8218
▁atlantic	-8219
▁breeding	-8220
▁channels	-8221
▁cylinder	-8222
▁horizont	-8223
▁leverage	-8224
▁proposal	-8225
▁recycled	-8226
▁stopping	-8227
▁theories	-8228
▁veterans	-8229
▁abilities	-8230
▁aesthetic	-8231
▁competing	-8232
▁filmmaker	-8233
▁gentleman	-8234
▁tasmanian	-8235
▁transcend	-8236
▁appearance	-8237
▁disability	-8238
▁engineered	-8239
▁helicopter	-8240
▁impression	-8241
▁landscapes	-8242
▁manipulate	-8243
▁medication	-8244
▁prevention	-8245
▁remarkably	-8246
▁encouraging	-8247
▁investments	-8248
▁legislation	-8249
▁limitations	-8250
▁contribution	-8251
▁civilizations	-8252
▁participation	-8253
▁simultaneously	-8254
bu	-8255
tr	-8256
ado	-8257
cha	-8258
cin	-8259
cor	-8260
pos	-8261
rol	-8262
▁ig	-8263
▁ss	-8264
agos	-8265
cost	-8266
gent	-8267
igur	-8268
▁awe	-8269
▁eco	-8270
▁jay	-8271
▁tib	-8272
▁tid	-8273
▁wil	-8274
anged	-8275
quate	-8276
sized	-8277
ulses	-8278
umber	-8279
ushed	-8280
▁adap	-8281
▁barb	-8282
▁beef	-8283
▁belo	-8284
▁bend	-8285
▁cage	-8286
▁chat	-8287
▁deaf	-8288
▁dirt	-8289
▁enzy	-8290
▁gaps	-8291
▁hook	-8292
▁lawn	-8293
▁lord	-8294
▁oven	-8295
▁penn	-8296
▁seas	-8297
▁shit	-8298
▁sons	-8299
▁subm	-8300
▁tanz	-8301
▁ties	-8302
driven	-8303
ilized	-8304
▁bless	-8305
▁fancy	-8306
▁flows	-8307
▁grant	-8308
▁grasp	-8309
▁hated	-8310
▁knife	-8311
▁messy	-8312
▁minus	-8313
▁pills	-8314
▁prose	-8315
▁scoop	-8316
▁stead	-8317
▁usage	-8318
▁winds	-8319
▁30,000	-8320
▁absorb	-8321
▁decent	-8322
▁grains	-8323
▁hybrid	-8324
▁immers	-8325
▁jumped	-8326
▁legend	-8327
▁loving	-8328
▁namely	-8329
▁nerves	-8330
▁newton	-8331
▁passes	-8332
▁remitt	-8333
▁saturn	-8334
▁syring	-8335
▁tempor	-8336
▁troops	-8337
▁upside	-8338
▁vacuum	-8339
▁winner	-8340
▁wooden	-8341
▁bridges	-8342
▁carries	-8343
▁counsel	-8344
▁deepest	-8345
▁labeled	-8346
▁methane	-8347
▁montana	-8348
▁neutral	-8349
▁reclaim	-8350
▁rehabil	-8351
▁seeking	-8352
▁staring	-8353
▁venture	-8354
▁wrapped	-8355
▁cellular	-8356
▁criteria	-8357
▁defining	-8358
▁dynamics	-8359
▁extended	-8360
▁fraction	-8361
▁fragment	-8362
▁freezing	-8363
▁injuries	-8364
▁lectures	-8365
▁momentum	-8366
▁pandemic	-8367
▁reliable	-8368
▁replaced	-8369
▁stunning	-8370
▁visually	-8371
▁worrying	-8372
▁ambitious	-8373
▁answering	-8374
▁astronaut	-8375
▁batteries	-8376
▁bombsight	-8377
▁conducted	-8378
▁disasters	-8379
▁fireflies	-8380
▁regularly	-8381
▁replicate	-8382
▁sexuality	-8383
▁terrified	-8384
▁threshold	-8385
▁workforce	-8386
▁continuous	-8387
▁courageous	-8388
▁disturbing	-8389
▁expedition	-8390
▁physicists	-8391
▁sculptures	-8392
▁suggestion	-8393
▁trajectory	-8394
▁authorities	-8395
▁competitive	-8396
▁consciously	-8397
▁frightening	-8398
▁interviewed	-8399
▁magnificent	-8400
▁partnership	-8401
▁projections	-8402
▁proposition	-8403
▁technically	-8404
▁humanitarian	-8405
▁surveillance	-8406
▁controversial	-8407
▁rehabilitation	-8408
▁systematically	-8409
vy	-8410
▁+	-8411
ati	-8412
bot	-8413
ena	-8414
gal	-8415
mun	-8416
yer	-8417
▁jh	-8418
ails	-8419
bris	-8420
burg	-8421
chel	-8422
fire	-8423
oric	-8424
page	-8425
seas	-8426
star	-8427
▁ark	-8428
▁cad	-8429
▁haz	-8430
▁lem	-8431
▁rod	-8432
▁sne	-8433
ccoli	-8434
emies	-8435
otion	-8436
world	-8437
▁bowl	-8438
▁calc	-8439
▁cube	-8440
▁cuts	-8441
▁inex	-8442
▁jord	-8443
▁mast	-8444
▁offs	-8445
▁wins	-8446
▁zimb	-8447
ancing	-8448
global	-8449
mental	-8450
uction	-8451
▁acids	-8452
▁artic	-8453
▁badly	-8454
▁bribe	-8455
▁clint	-8456
▁farms	-8457
▁hawai	-8458
▁hired	-8459
▁laden	-8460
▁longe	-8461
▁loose	-8462
▁raped	-8463
▁royal	-8464
▁shout	-8465
▁stair	-8466
▁straw	-8467
▁toast	-8468
▁viral	-8469
▁voted	-8470
▁yards	-8471
tending	-8472
theless	-8473
▁agents	-8474
▁annual	-8475
▁apples	-8476
▁beetle	-8477
▁condom	-8478
▁execut	-8479
▁fundra	-8480
▁gandhi	-8481
▁iconic	-8482
▁immort	-8483
▁inevit	-8484
▁marrow	-8485
▁modest	-8486
▁purple	-8487
▁pursue	-8488
▁rhythm	-8489
▁scales	-8490
▁scenes	-8491
▁strike	-8492
▁summar	-8493
▁tattoo	-8494
▁tracks	-8495
▁tribal	-8496
▁viscer	-8497
computer	-8498
otherapy	-8499
▁assumed	-8500
▁dolphin	-8501
▁genomes	-8502
▁hardest	-8503
▁horizon	-8504
▁injured	-8505
▁minimum	-8506
▁outrage	-8507
▁periods	-8508
▁planned	-8509
▁planted	-8510
▁propose	-8511
▁selfish	-8512
▁unhappy	-8513
▁accompan	-8514
▁africans	-8515
▁broccoli	-8516
▁cheating	-8517
▁clothing	-8518
▁concerns	-8519
▁detector	-8520
▁earliest	-8521
▁findings	-8522
▁opinions	-8523
▁randomly	-8524
▁relation	-8525
▁shepherd	-8526
▁substant	-8527
▁supplies	-8528
▁versions	-8529
▁abundance	-8530
▁detection	-8531
▁expecting	-8532
▁inflation	-8533
▁judgments	-8534
▁longevity	-8535
▁seemingly	-8536
▁tolerance	-8537
▁assumption	-8538
▁capability	-8539
▁meditation	-8540
▁microphone	-8541
▁prediction	-8542
▁reasonable	-8543
▁reflection	-8544
▁systematic	-8545
▁astronomers	-8546
▁chimpanzees	-8547
▁computation	-8548
▁understands	-8549
▁nevertheless	-8550
▁overwhelming	-8551
▁temperatures	-8552
▁authoritarian	-8553
▁computational	-8554
▁improvisation	-8555
▁philosophical	-8556
▁extraordinarily	-8557
aza	-8558
eds	-8559
isa	-8560
mat	-8561
ubs	-8562
▁38	-8563
▁44	-8564
▁ga	-8565
▁wk	-8566
▁yo	-8567
door	-8568
iece	-8569
pril	-8570
usal	-8571
▁rip	-8572
▁sty	-8573
adian	-8574
asses	-8575
ierra	-8576
umble	-8577
▁1999	-8578
▁2012	-8579
▁biod	-8580
▁calm	-8581
▁cows	-8582
▁craw	-8583
▁disg	-8584
▁hint	-8585
▁inch	-8586
▁incl	-8587
▁nano	-8588
▁nich	-8589
▁sail	-8590
active	-8591
elines	-8592
ghetti	-8593
ifting	-8594
lihood	-8595
person	-8596
▁ambul	-8597
▁april	-8598
▁bench	-8599
▁cable	-8600
▁cares	-8601
▁caves	-8602
▁chord	-8603
▁delhi	-8604
▁depos	-8605
▁fatal	-8606
▁fried	-8607
▁grabb	-8608
▁lever	-8609
▁lewis	-8610
▁orang	-8611
▁parks	-8612
▁recre	-8613
▁revel	-8614
▁screw	-8615
▁ships	-8616
▁sperm	-8617
▁twins	-8618
▁yeast	-8619
▁zones	-8620
abulary	-8621
faction	-8622
version	-8623
▁40,000	-8624
▁apolog	-8625
▁client	-8626
▁disney	-8627
▁greece	-8628
▁horses	-8629
▁nathan	-8630
▁puppet	-8631
▁reserv	-8632
▁safely	-8633
▁shower	-8634
▁wright	-8635
▁cooling	-8636
▁detroit	-8637
▁easiest	-8638
▁enemies	-8639
▁enjoyed	-8640
▁hacking	-8641
▁heading	-8642
▁jeopard	-8643
▁laptops	-8644
▁logical	-8645
▁mexican	-8646
▁origins	-8647
▁powered	-8648
▁secular	-8649
▁stomach	-8650
▁toilets	-8651
▁useless	-8652
▁actively	-8653
▁brooklyn	-8654
▁counting	-8655
▁feminist	-8656
▁ideology	-8657
▁informed	-8658
▁minority	-8659
▁rejected	-8660
▁scanning	-8661
▁switched	-8662
▁symphony	-8663
▁tangible	-8664
▁vacation	-8665
▁virginia	-8666
ographical	-8667
▁associate	-8668
▁criminals	-8669
▁delicious	-8670
▁favorites	-8671
▁hierarchy	-8672
▁incentive	-8673
▁offspring	-8674
▁realistic	-8675
▁receiving	-8676
▁spaghetti	-8677
▁succeeded	-8678
▁universes	-8679
▁calculated	-8680
▁encouraged	-8681
▁girlfriend	-8682
▁impressive	-8683
▁ingredient	-8684
▁monitoring	-8685
▁permission	-8686
▁acknowledge	-8687
▁approaching	-8688
▁documentary	-8689
▁instruction	-8690
▁overwhelmed	-8691
▁authenticity	-8692
▁refrigerator	-8693
▁significance	-8694
▁administration	-8695
cip	-8696
nia	-8697
nik	-8698
opa	-8699
▁bh	-8700
▁dj	-8701
▁gg	-8702
▁ja	-8703
▁ov	-8704
atts	-8705
aves	-8706
fram	-8707
igma	-8708
olen	-8709
opus	-8710
reen	-8711
umbs	-8712
▁12-	-8713
▁15-	-8714
▁edi	-8715
▁lol	-8716
▁pic	-8717
▁rib	-8718
aches	-8719
aired	-8720
copic	-8721
ernic	-8722
storm	-8723
▁1984	-8724
▁2030	-8725
▁alle	-8726
▁ampl	-8727
▁dian	-8728
▁ethi	-8729
▁mesh	-8730
▁node	-8731
▁odor	-8732
▁thor	-8733
▁turb	-8734
▁vary	-8735
income	-8736
ograms	-8737
▁arbit	-8738
▁blogs	-8739
▁embry	-8740
▁fifty	-8741
▁greek	-8742
▁inhib	-8743
▁lexic	-8744
▁moore	-8745
▁penis	-8746
▁pulse	-8747
▁sands	-8748
▁sarah	-8749
▁simon	-8750
▁spain	-8751
▁supre	-8752
▁tunis	-8753
▁vivid	-8754
▁vocal	-8755
▁amazed	-8756
▁argent	-8757
▁bother	-8758
▁campus	-8759
▁correl	-8760
▁empath	-8761
▁format	-8762
▁frames	-8763
▁julian	-8764
▁pedest	-8765
▁prepar	-8766
▁shifts	-8767
▁stolen	-8768
▁tables	-8769
standing	-8770
▁basking	-8771
▁belongs	-8772
▁crossed	-8773
▁dancers	-8774
▁doubled	-8775
▁elegant	-8776
▁fantasy	-8777
▁follows	-8778
▁founder	-8779
▁italian	-8780
▁jumping	-8781
▁octopus	-8782
▁passive	-8783
▁shaking	-8784
▁shortly	-8785
▁strings	-8786
▁switzer	-8787
▁transit	-8788
▁trapped	-8789
▁wolfram	-8790
▁accuracy	-8791
▁attacked	-8792
▁compound	-8793
▁coverage	-8794
▁diagnost	-8795
▁exposure	-8796
▁incorpor	-8797
▁manifest	-8798
▁observed	-8799
▁overhead	-8800
▁overseas	-8801
▁redesign	-8802
▁saturday	-8803
▁striking	-8804
▁addiction	-8805
▁alexander	-8806
▁amazingly	-8807
▁attitudes	-8808
▁comparing	-8809
▁correctly	-8810
▁diplomacy	-8811
▁eliminate	-8812
▁embracing	-8813
▁empowered	-8814
▁equations	-8815
▁involving	-8816
▁occurring	-8817
▁phenomena	-8818
▁reproduce	-8819
▁resistant	-8820
▁secretary	-8821
▁therapies	-8822
▁assignment	-8823
▁automobile	-8824
▁confronted	-8825
▁congestion	-8826
▁frequently	-8827
▁friendship	-8828
▁generosity	-8829
▁infections	-8830
▁likelihood	-8831
▁narratives	-8832
▁nonviolent	-8833
▁politician	-8834
▁professors	-8835
▁sanitation	-8836
▁vocabulary	-8837
▁constructed	-8838
▁discoveries	-8839
▁established	-8840
▁journalists	-8841
▁palestinian	-8842
▁predictable	-8843
▁programmers	-8844
▁realization	-8845
▁replacement	-8846
▁stereotypes	-8847
▁switzerland	-8848
▁installation	-8849
▁neuroscientist	-8850
eg	-8851
tz	-8852
ogy	-8853
opo	-8854
oto	-8855
weg	-8856
▁48	-8857
▁gy	-8858
▁uh	-8859
etal	-8860
ilem	-8861
inda	-8862
mate	-8863
pper	-8864
qual	-8865
step	-8866
tent	-8867
▁dvd	-8868
▁muh	-8869
▁pap	-8870
▁pla	-8871
▁syl	-8872
▁yog	-8873
conds	-8874
ensus	-8875
grade	-8876
herom	-8877
inter	-8878
liath	-8879
thals	-8880
▁anth	-8881
▁biol	-8882
▁blur	-8883
▁carl	-8884
▁coca	-8885
▁dens	-8886
▁ende	-8887
▁homo	-8888
▁logo	-8889
▁obsc	-8890
▁obso	-8891
▁oecd	-8892
▁ross	-8893
▁solo	-8894
▁symp	-8895
▁worm	-8896
estone	-8897
icient	-8898
ilated	-8899
umines	-8900
▁dilem	-8901
▁entry	-8902
▁jewel	-8903
▁jones	-8904
▁lifel	-8905
▁lists	-8906
▁patch	-8907
▁paths	-8908
▁qatar	-8909
▁regul	-8910
▁roles	-8911
▁sheer	-8912
▁shore	-8913
▁shots	-8914
▁syria	-8915
▁woods	-8916
creatic	-8917
fulness	-8918
ilation	-8919
itative	-8920
ulative	-8921
▁cathed	-8922
▁columb	-8923
▁donors	-8924
▁excess	-8925
▁helmet	-8926
▁intact	-8927
▁johnny	-8928
▁manner	-8929
▁mapped	-8930
▁nightm	-8931
▁norweg	-8932
▁pherom	-8933
▁plates	-8934
▁retail	-8935
▁thrive	-8936
▁unfair	-8937
▁wasted	-8938
▁200,000	-8939
▁altered	-8940
▁archive	-8941
▁beloved	-8942
▁cancers	-8943
▁chamber	-8944
▁enabled	-8945
▁forgive	-8946
▁goliath	-8947
▁lebanon	-8948
▁sensing	-8949
▁squares	-8950
▁supreme	-8951
▁symptom	-8952
▁tempest	-8953
▁texture	-8954
▁trivial	-8955
▁advances	-8956
▁approved	-8957
▁blocking	-8958
▁egyptian	-8959
▁elevator	-8960
▁famously	-8961
▁pipeline	-8962
▁reporter	-8963
▁sexually	-8964
▁siblings	-8965
▁smallest	-8966
▁tanzania	-8967
▁touching	-8968
▁underest	-8969
▁attracted	-8970
▁consensus	-8971
▁convicted	-8972
▁dominated	-8973
▁electrons	-8974
▁elephants	-8975
▁estimated	-8976
▁integrate	-8977
▁isolation	-8978
▁massively	-8979
▁obsession	-8980
▁parkinson	-8981
▁platforms	-8982
▁recycling	-8983
▁reflected	-8984
▁responded	-8985
▁tedglobal	-8986
▁workplace	-8987
▁accounting	-8988
▁apartments	-8989
▁chromosome	-8990
▁destroying	-8991
▁metabolism	-8992
▁pancreatic	-8993
▁procedures	-8994
▁regenerate	-8995
▁calculation	-8996
▁destination	-8997
▁preparation	-8998
▁regulations	-8999
▁researching	-9000
▁stimulation	-9001
▁accomplished	-9002
▁biodiversity	-9003
▁encyclopedia	-9004
▁neanderthals	-9005
▁observations	-9006
▁discrimination	-9007
ni	-9008
alt	-9009
ani	-9010
ima	-9011
iza	-9012
kin	-9013
mes	-9014
oen	-9015
raw	-9016
sex	-9017
▁96	-9018
▁cd	-9019
▁dy	-9020
▁eb	-9021
▁yr	-9022
amas	-9023
anic	-9024
born	-9025
cola	-9026
eman	-9027
izab	-9028
olar	-9029
oted	-9030
oton	-9031
pack	-9032
pled	-9033
rade	-9034
roid	-9035
rypt	-9036
ulty	-9037
zler	-9038
▁192	-9039
▁350	-9040
▁hir	-9041
▁kim	-9042
▁kit	-9043
▁moz	-9044
▁mud	-9045
▁pav	-9046
▁pou	-9047
▁tin	-9048
▁usa	-9049
▁voy	-9050
actic	-9051
adium	-9052
alend	-9053
ammad	-9054
arest	-9055
chron	-9056
ester	-9057
ffect	-9058
gradu	-9059
ifact	-9060
ighth	-9061
inery	-9062
itate	-9063
oenix	-9064
press	-9065
▁apps	-9066
▁athe	-9067
▁bats	-9068
▁bert	-9069
▁cope	-9070
▁dare	-9071
▁jenn	-9072
▁jill	-9073
▁mold	-9074
▁pays	-9075
▁rent	-9076
▁unle	-9077
▁urge	-9078
▁vice	-9079
▁welf	-9080
arians	-9081
orient	-9082
uously	-9083
vasive	-9084
▁altru	-9085
▁anten	-9086
▁awake	-9087
▁boats	-9088
▁chase	-9089
▁comic	-9090
▁consp	-9091
▁ethic	-9092
▁femin	-9093
▁fract	-9094
▁lingu	-9095
▁loyal	-9096
▁nanop	-9097
▁norms	-9098
▁panic	-9099
▁paste	-9100
▁reput	-9101
▁scans	-9102
▁sched	-9103
▁shirt	-9104
▁sizes	-9105
▁spare	-9106
▁towel	-9107
▁ushah	-9108
▁votes	-9109
▁wrest	-9110
attered	-9111
enhagen	-9112
inguish	-9113
izabeth	-9114
osexual	-9115
thetics	-9116
▁calend	-9117
▁canvas	-9118
▁casual	-9119
▁chains	-9120
▁cosmic	-9121
▁cotton	-9122
▁dating	-9123
▁estate	-9124
▁exotic	-9125
▁graphs	-9126
▁lowest	-9127
▁masses	-9128
▁occupy	-9129
▁occurs	-9130
▁parach	-9131
▁planes	-9132
▁regist	-9133
▁scarce	-9134
▁sierra	-9135
▁sylvia	-9136
▁treaty	-9137
▁underm	-9138
▁virtue	-9139
▁voters	-9140
lessness	-9141
▁adopted	-9142
▁anxious	-9143
▁charged	-9144
▁clinton	-9145
▁corners	-9146
▁cousins	-9147
▁creator	-9148
▁disgust	-9149
▁ecology	-9150
▁farming	-9151
▁grocery	-9152
▁laughed	-9153
▁monster	-9154
▁museums	-9155
▁optical	-9156
▁phoenix	-9157
▁priorit	-9158
▁proceed	-9159
▁regrets	-9160
▁romance	-9161
▁streams	-9162
▁teaches	-9163
▁tension	-9164
▁teszler	-9165
▁torture	-9166
▁trusted	-9167
▁visions	-9168
▁wonders	-9169
▁altitude	-9170
▁artifact	-9171
▁assuming	-9172
▁boundary	-9173
▁branches	-9174
▁correspo	-9175
▁embodied	-9176
▁enjoying	-9177
▁entering	-9178
▁explores	-9179
▁glorious	-9180
▁jeopardy	-9181
▁leonardo	-9182
▁literacy	-9183
▁magician	-9184
▁managing	-9185
▁membrane	-9186
▁mentally	-9187
▁miracles	-9188
▁muhammad	-9189
▁obsolete	-9190
▁passions	-9191
▁pathways	-9192
▁scaffold	-9193
▁terribly	-9194
▁variable	-9195
▁visceral	-9196
▁ambulance	-9197
▁celebrity	-9198
▁demograph	-9199
▁elizabeth	-9200
▁jellyfish	-9201
▁metabolic	-9202
▁motivated	-9203
▁mutations	-9204
▁vegetable	-9205
▁accurately	-9206
▁anesthesia	-9207
▁consistent	-9208
▁copenhagen	-9209
▁initiative	-9210
▁irrational	-9211
▁practicing	-9212
▁preventing	-9213
▁publishing	-9214
▁quantities	-9215
▁resolution	-9216
▁chromosomes	-9217
▁collaborate	-9218
▁emotionally	-9219
▁introduction	-9220
▁measurements	-9221
▁perspectives	-9222
▁compassionate	-9223
▁deforestation	-9224
▁interpretation	-9225
rr	-9226
atr	-9227
bul	-9228
lor	-9229
udi	-9230
ura	-9231
urd	-9232
▁42	-9233
▁46	-9234
▁ot	-9235
abwe	-9236
anut	-9237
eros	-9238
rend	-9239
teen	-9240
▁1.2	-9241
▁130	-9242
▁ade	-9243
▁ali	-9244
▁cin	-9245
▁ire	-9246
▁kin	-9247
▁luc	-9248
▁mun	-9249
▁naz	-9250
▁por	-9251
▁ski	-9252
▁sms	-9253
▁zip	-9254
berty	-9255
erior	-9256
gency	-9257
illas	-9258
inger	-9259
inity	-9260
▁benj	-9261
▁blah	-9262
▁buzz	-9263
▁carp	-9264
▁coat	-9265
▁curt	-9266
▁fest	-9267
▁jews	-9268
▁lump	-9269
▁mask	-9270
▁mead	-9271
▁offe	-9272
▁orph	-9273
▁porn	-9274
▁seaf	-9275
▁sole	-9276
▁toes	-9277
▁toll	-9278
▁unve	-9279
ocracy	-9280
ologic	-9281
orship	-9282
velope	-9283
▁arter	-9284
▁balls	-9285
▁banjo	-9286
▁cared	-9287
▁couch	-9288
▁drops	-9289
▁drunk	-9290
▁expon	-9291
▁fence	-9292
▁fungi	-9293
▁heter	-9294
▁incom	-9295
▁laund	-9296
▁loses	-9297
▁moder	-9298
▁piles	-9299
▁resur	-9300
▁risky	-9301
▁rolls	-9302
▁shops	-9303
▁slept	-9304
▁taxes	-9305
▁tibet	-9306
atories	-9307
perform	-9308
powered	-9309
▁beaten	-9310
▁binary	-9311
▁bloody	-9312
▁cracks	-9313
▁dishes	-9314
▁erotic	-9315
▁exquis	-9316
▁folded	-9317
▁fruits	-9318
▁hugely	-9319
▁hunter	-9320
▁lester	-9321
▁lonely	-9322
▁mentor	-9323
▁mixing	-9324
▁orgasm	-9325
▁peanut	-9326
▁relief	-9327
▁rolled	-9328
▁server	-9329
▁shrink	-9330
▁singer	-9331
▁sovere	-9332
▁traces	-9333
▁wilder	-9334
▁worthy	-9335
function	-9336
▁absence	-9337
▁closest	-9338
▁counted	-9339
▁default	-9340
▁exagger	-9341
▁exhaust	-9342
▁harmony	-9343
▁honesty	-9344
▁ireland	-9345
▁landing	-9346
▁longest	-9347
▁masters	-9348
▁melting	-9349
▁novelty	-9350
▁olympic	-9351
▁peoples	-9352
▁primate	-9353
▁puberty	-9354
▁relates	-9355
▁richest	-9356
▁shifted	-9357
▁stadium	-9358
▁swallow	-9359
▁welfare	-9360
▁assemble	-9361
▁blogging	-9362
▁cambodia	-9363
▁cleaning	-9364
▁envelope	-9365
▁hopeless	-9366
▁intended	-9367
▁interior	-9368
▁inventor	-9369
▁kindness	-9370
▁memorial	-9371
▁mustache	-9372
▁parasite	-9373
▁pleasant	-9374
▁reflects	-9375
▁releases	-9376
▁remotely	-9377
▁sidewalk	-9378
▁talented	-9379
▁targeted	-9380
▁treasure	-9381
▁ushahidi	-9382
▁zimbabwe	-9383
controlled	-9384
ifications	-9385
▁activists	-9386
▁cigarette	-9387
▁container	-9388
▁dictators	-9389
▁observing	-9390
▁processed	-9391
▁producers	-9392
▁shoulders	-9393
▁staircase	-9394
▁textbooks	-9395
▁visualize	-9396
engineering	-9397
▁adaptation	-9398
▁christians	-9399
▁documented	-9400
▁enterprise	-9401
▁extinction	-9402
▁frightened	-9403
▁inevitably	-9404
▁infectious	-9405
▁millimeter	-9406
▁privileged	-9407
▁terrorists	-9408
▁contributed	-9409
▁concentrated	-9410
▁philanthropy	-9411
▁approximately	-9412
▁communicating	-9413
▁visualization	-9414
12	-9415
ded	-9416
don	-9417
iov	-9418
kyo	-9419
nat	-9420
ugg	-9421
▁86	-9422
▁uk	-9423
acre	-9424
adel	-9425
anas	-9426
bees	-9427
bird	-9428
char	-9429
erer	-9430
lear	-9431
mass	-9432
mind	-9433
orph	-9434
pers	-9435
rays	-9436
ules	-9437
uman	-9438
vest	-9439
▁140	-9440
▁bip	-9441
▁bor	-9442
▁caf	-9443
▁cav	-9444
▁dod	-9445
▁ego	-9446
▁huh	-9447
▁pit	-9448
▁rac	-9449
▁ren	-9450
▁sha	-9451
▁sie	-9452
▁soc	-9453
▁sud	-9454
▁vag	-9455
▁von	-9456
arten	-9457
ifies	-9458
inent	-9459
keley	-9460
lades	-9461
ouses	-9462
verts	-9463
▁beam	-9464
▁bore	-9465
▁bugs	-9466
▁dome	-9467
▁eats	-9468
▁entr	-9469
▁fans	-9470
▁fred	-9471
▁herd	-9472
▁loan	-9473
▁merg	-9474
▁prol	-9475
▁pron	-9476
▁quar	-9477
▁rode	-9478
▁rust	-9479
▁shoe	-9480
▁spat	-9481
▁tsun	-9482
▁whoa	-9483
asking	-9484
coming	-9485
erving	-9486
inable	-9487
levant	-9488
olitan	-9489
orters	-9490
ortion	-9491
rained	-9492
redict	-9493
resist	-9494
thirds	-9495
usalem	-9496
▁6,000	-9497
▁align	-9498
▁anecd	-9499
▁arise	-9500
▁belly	-9501
▁blink	-9502
▁clips	-9503
▁fails	-9504
▁feeds	-9505
▁haunt	-9506
▁hills	-9507
▁knees	-9508
▁marco	-9509
▁meets	-9510
▁naive	-9511
▁peers	-9512
▁poems	-9513
▁rises	-9514
▁rives	-9515
▁seats	-9516
▁stays	-9517
▁tiles	-9518
itating	-9519
ruption	-9520
▁12,000	-9521
▁acoust	-9522
▁bypass	-9523
▁coding	-9524
▁curves	-9525
▁defeat	-9526
▁diving	-9527
▁grades	-9528
▁intric	-9529
▁lifted	-9530
▁metals	-9531
▁monday	-9532
▁multin	-9533
▁mutual	-9534
▁nether	-9535
▁pencil	-9536
▁pestic	-9537
▁presum	-9538
▁refuse	-9539
▁submit	-9540
▁unseen	-9541
▁babylon	-9542
▁browser	-9543
▁budgets	-9544
▁bureauc	-9545
▁chemist	-9546
▁decides	-9547
▁diamond	-9548
▁dismiss	-9549
▁earning	-9550
▁everest	-9551
▁favelas	-9552
▁francis	-9553
▁inhabit	-9554
▁leopard	-9555
▁mankind	-9556
▁pouring	-9557
▁recruit	-9558
▁reforms	-9559
▁screens	-9560
▁shining	-9561
▁somalia	-9562
▁squared	-9563
▁weekend	-9564
▁winners	-9565
▁acquired	-9566
▁analyzed	-9567
▁berkeley	-9568
▁configur	-9569
▁consumed	-9570
▁contempl	-9571
▁copernic	-9572
▁deployed	-9573
▁deserves	-9574
▁detected	-9575
▁dropping	-9576
▁explored	-9577
▁geometry	-9578
▁headline	-9579
▁intimacy	-9580
▁minerals	-9581
▁paradise	-9582
▁promised	-9583
▁regional	-9584
▁selected	-9585
▁synchron	-9586
▁tedsters	-9587
▁thinkers	-9588
▁tropical	-9589
▁weakness	-9590
▁alongside	-9591
▁banglades	-9592
▁countless	-9593
▁imagining	-9594
▁intensity	-9595
▁jerusalem	-9596
▁negotiate	-9597
▁portraits	-9598
▁reasoning	-9599
▁relatives	-9600
▁surgeries	-9601
▁unpredict	-9602
▁antibodies	-9603
▁biolumines	-9604
▁discussing	-9605
▁exceptions	-9606
▁opposition	-9607
▁projection	-9608
▁spacecraft	-9609
▁sufficient	-9610
▁calculating	-9611
▁controversy	-9612
▁integration	-9613
▁netherlands	-9614
▁theoretical	-9615
▁appreciation	-9616
▁connectivity	-9617
▁demonstrated	-9618
▁laboratories	-9619
▁philosophers	-9620
▁presidential	-9621
▁satisfaction	-9622
▁experimenting	-9623
▁multinational	-9624
ux	-9625
gon	-9626
iva	-9627
lar	-9628
▁72	-9629
▁ao	-9630
▁gw	-9631
cale	-9632
coln	-9633
east	-9634
five	-9635
igen	-9636
ingo	-9637
itar	-9638
nedy	-9639
offs	-9640
oman	-9641
play	-9642
pond	-9643
rane	-9644
rics	-9645
▁185	-9646
▁193	-9647
▁2.0	-9648
▁bib	-9649
▁cum	-9650
▁gor	-9651
▁mah	-9652
▁mum	-9653
▁nud	-9654
▁oak	-9655
▁pix	-9656
▁thy	-9657
bucks	-9658
idesp	-9659
month	-9660
▁bulb	-9661
▁cany	-9662
▁clim	-9663
▁cups	-9664
▁edin	-9665
▁edit	-9666
▁kong	-9667
▁lama	-9668
▁mixt	-9669
▁mund	-9670
▁pale	-9671
▁perf	-9672
▁rabb	-9673
▁robb	-9674
▁seaw	-9675
▁slip	-9676
▁sput	-9677
▁yves	-9678
ailand	-9679
azeera	-9680
iances	-9681
iverse	-9682
minded	-9683
shaped	-9684
verted	-9685
▁album	-9686
▁alert	-9687
▁apoll	-9688
▁breed	-9689
▁flick	-9690
▁freak	-9691
▁frees	-9692
▁halls	-9693
▁hoped	-9694
▁incar	-9695
▁julia	-9696
▁kilos	-9697
▁leone	-9698
▁picks	-9699
▁postc	-9700
▁remix	-9701
▁roger	-9702
▁slope	-9703
▁tokyo	-9704
▁trait	-9705
conomic	-9706
inating	-9707
ocative	-9708
ressing	-9709
umbling	-9710
▁argued	-9711
▁bamboo	-9712
▁behalf	-9713
▁beside	-9714
▁brutal	-9715
▁chimps	-9716
▁circul	-9717
▁colomb	-9718
▁copper	-9719
▁counts	-9720
▁famine	-9721
▁filmed	-9722
▁fluctu	-9723
▁hacker	-9724
▁hypoth	-9725
▁ironic	-9726
▁lethal	-9727
▁luther	-9728
▁mature	-9729
▁oyster	-9730
▁salary	-9731
▁scheme	-9732
▁serves	-9733
▁slower	-9734
▁sticky	-9735
▁stigma	-9736
▁storms	-9737
▁thread	-9738
▁timing	-9739
▁widesp	-9740
assembly	-9741
breaking	-9742
▁anatomy	-9743
▁blowing	-9744
▁cameron	-9745
▁charges	-9746
▁chronic	-9747
▁clarity	-9748
▁compute	-9749
▁divorce	-9750
▁dreamed	-9751
▁exploit	-9752
▁filling	-9753
▁generic	-9754
▁grammar	-9755
▁heating	-9756
▁iceberg	-9757
▁kennedy	-9758
▁kidding	-9759
▁lincoln	-9760
▁matched	-9761
▁mustard	-9762
▁neglect	-9763
▁pleased	-9764
▁posters	-9765
▁shaping	-9766
▁syringe	-9767
▁utterly	-9768
▁volcano	-9769
▁warrior	-9770
▁whoever	-9771
ationally	-9772
izational	-9773
wandering	-9774
▁abundant	-9775
▁assembly	-9776
▁contamin	-9777
▁decrease	-9778
▁disagree	-9779
▁displays	-9780
▁envision	-9781
▁ethiopia	-9782
▁fairness	-9783
▁innovate	-9784
▁intimate	-9785
▁jonathan	-9786
▁notebook	-9787
▁operated	-9788
▁primates	-9789
▁priority	-9790
▁protocol	-9791
▁register	-9792
▁revealed	-9793
▁sacrific	-9794
▁sections	-9795
▁sometime	-9796
▁spinning	-9797
▁thailand	-9798
▁thorough	-9799
▁transist	-9800
▁compounds	-9801
▁distances	-9802
▁edinburgh	-9803
▁educating	-9804
▁exercises	-9805
▁expressed	-9806
▁formation	-9807
▁generates	-9808
▁geography	-9809
▁illusions	-9810
▁integrity	-9811
▁machinery	-9812
▁neocortex	-9813
▁overnight	-9814
▁palestine	-9815
▁parachute	-9816
▁residents	-9817
▁sensation	-9818
▁starbucks	-9819
▁stressful	-9820
▁thylacine	-9821
▁witnessed	-9822
▁accelerate	-9823
▁anticipate	-9824
▁approached	-9825
▁celebrated	-9826
▁conscience	-9827
▁convention	-9828
▁correspond	-9829
▁developers	-9830
▁disruptive	-9831
▁generating	-9832
▁networking	-9833
▁powerpoint	-9834
▁priorities	-9835
▁subjective	-9836
▁widespread	-9837
▁discussions	-9838
▁distinction	-9839
▁expectation	-9840
▁illustrates	-9841
▁mammography	-9842
▁remittances	-9843
▁revolutions	-9844
▁statistical	-9845
▁collaborator	-9846
▁improvements	-9847
▁participating	-9848
▁revolutionary	-9849
▁accountability	-9850
▁entrepreneurial	-9851
eu	-9852
nn	-9853
zu	-9854
ali	-9855
ava	-9856
fin	-9857
jud	-9858
ker	-9859
lli	-9860
obi	-9861
rey	-9862
rie	-9863
▁41	-9864
▁64	-9865
▁wi	-9866
aire	-9867
alai	-9868
held	-9869
igan	-9870
ipts	-9871
mann	-9872
mart	-9873
nake	-9874
omed	-9875
omic	-9876
phia	-9877
uced	-9878
uten	-9879
verb	-9880
▁1.3	-9881
▁1.5	-9882
▁187	-9883
▁arc	-9884
▁jun	-9885
▁jur	-9886
▁kam	-9887
▁len	-9888
▁mcc	-9889
▁til	-9890
▁viv	-9891
arrhe	-9892
brush	-9893
chool	-9894
ctive	-9895
elled	-9896
negie	-9897
omagn	-9898
piece	-9899
vable	-9900
▁1998	-9901
▁alas	-9902
▁conj	-9903
▁deck	-9904
▁ease	-9905
▁gosh	-9906
▁grim	-9907
▁ipad	-9908
▁khan	-9909
▁lips	-9910
▁nike	-9911
▁pops	-9912
▁reck	-9913
▁reun	-9914
▁seam	-9915
▁shir	-9916
▁skys	-9917
▁ster	-9918
▁tink	-9919
▁vene	-9920
atical	-9921
bercul	-9922
boards	-9923
irling	-9924
ourced	-9925
urning	-9926
weeney	-9927
▁alarm	-9928
▁alike	-9929
▁boots	-9930
▁carib	-9931
▁cloth	-9932
▁dalai	-9933
▁decor	-9934
▁drama	-9935
▁fetus	-9936
▁handy	-9937
▁loads	-9938
▁marks	-9939
▁mater	-9940
▁matth	-9941
▁merit	-9942
▁mitch	-9943
▁rigid	-9944
▁ruins	-9945
▁sends	-9946
▁siber	-9947
▁valve	-9948
inators	-9949
massive	-9950
▁25,000	-9951
▁albert	-9952
▁alumin	-9953
▁atomic	-9954
▁banned	-9955
▁behold	-9956
▁boards	-9957
▁branch	-9958
▁cattle	-9959
▁cockro	-9960
▁copies	-9961
▁crowds	-9962
▁elabor	-9963
▁emails	-9964
▁equals	-9965
▁equity	-9966
▁ethics	-9967
▁evapor	-9968
▁export	-9969
▁fibers	-9970
▁foster	-9971
▁guards	-9972
▁korean	-9973
▁labels	-9974
▁ladder	-9975
▁mating	-9976
▁penetr	-9977
▁phthal	-9978
▁preach	-9979
▁proved	-9980
▁rubber	-9981
▁stones	-9982
▁subsid	-9983
▁trauma	-9984
▁venice	-9985
▁warren	-9986
adelphia	-9987
conflict	-9988
▁antenna	-9989
▁ashamed	-9990
▁atlanta	-9991
▁buttons	-9992
▁cardiac	-9993
▁consent	-9994
▁contest	-9995
▁diarrhe	-9996
▁digging	-9997
▁farther	-9998
▁greatly	-9999
▁heavens	-10000
▁impulse	-10001
▁jazeera	-10002
▁johnson	-10003
▁nucleus	-10004
▁posture	-10005
▁premise	-10006
▁refused	-10007
▁rescued	-10008
▁returns	-10009
▁shelves	-10010
▁sputnik	-10011
▁strikes	-10012
▁surveys	-10013
▁swedish	-10014
▁thermal	-10015
▁tickets	-10016
▁vitamin	-10017
▁adaptive	-10018
▁advocate	-10019
▁announce	-10020
▁annoying	-10021
▁benjamin	-10022
▁buddhist	-10023
▁canadian	-10024
▁carnegie	-10025
▁checking	-10026
▁expanded	-10027
▁goodness	-10028
▁informal	-10029
▁misunder	-10030
▁motivate	-10031
▁multiply	-10032
▁patience	-10033
▁prisoner	-10034
▁publicly	-10035
▁revenues	-10036
▁seawater	-10037
▁stealing	-10038
▁stressed	-10039
▁tubercul	-10040
▁visiting	-10041
▁youngest	-10042
▁accepting	-10043
▁analyzing	-10044
▁cathedral	-10045
▁champions	-10046
▁charities	-10047
▁deception	-10048
▁discussed	-10049
▁emergence	-10050
▁epidemics	-10051
▁greenland	-10052
▁nanopatch	-10053
▁processor	-10054
▁psychiatr	-10055
▁renewable	-10056
▁reporting	-10057
▁screaming	-10058
▁secondary	-10059
▁strengths	-10060
▁territory	-10061
▁acceptance	-10062
▁attributes	-10063
▁basketball	-10064
▁contagious	-10065
▁continents	-10066
▁critically	-10067
▁describing	-10068
▁employment	-10069
▁horizontal	-10070
▁irrelevant	-10071
▁propaganda	-10072
▁reflective	-10073
▁suspicious	-10074
▁undergradu	-10075
▁adolescence	-10076
▁cooperative	-10077
▁corporation	-10078
▁correlation	-10079
▁electromagn	-10080
▁functioning	-10081
▁fundraising	-10082
▁implemented	-10083
▁transported	-10084
▁catastrophic	-10085
▁continuously	-10086
▁demographics	-10087
▁neurological	-10088
▁philadelphia	-10089
▁requirements	-10090
▁tuberculosis	-10091
▁investigation	-10092
▁statistically	-10093
▁cybercriminals	-10094
▁scientifically	-10095
-2	-10096
boy	-10097
cho	-10098
eem	-10099
erk	-10100
log	-10101
low	-10102
pay	-10103
ulu	-10104
wan	-10105
▁97	-10106
▁98	-10107
▁cs	-10108
▁oz	-10109
▁py	-10110
▁sr	-10111
airo	-10112
arin	-10113
coal	-10114
fits	-10115
inea	-10116
intu	-10117
lesh	-10118
neum	-10119
norm	-10120
olas	-10121
pend	-10122
size	-10123
▁aph	-10124
▁cod	-10125
▁orb	-10126
▁unw	-10127
▁woo	-10128
asive	-10129
break	-10130
elect	-10131
eling	-10132
gener	-10133
graph	-10134
ochem	-10135
omics	-10136
ourse	-10137
speed	-10138
▁airl	-10139
▁alan	-10140
▁aort	-10141
▁bunk	-10142
▁chad	-10143
▁dean	-10144
▁folk	-10145
▁glue	-10146
▁goat	-10147
▁ivan	-10148
▁nail	-10149
▁nons	-10150
▁numb	-10151
▁pier	-10152
▁pose	-10153
▁semi	-10154
▁shed	-10155
▁stir	-10156
▁surg	-10157
▁trek	-10158
apagos	-10159
culiar	-10160
riages	-10161
urable	-10162
vation	-10163
▁algae	-10164
▁alice	-10165
▁arous	-10166
▁blend	-10167
▁bonds	-10168
▁crank	-10169
▁divid	-10170
▁draws	-10171
▁dread	-10172
▁escal	-10173
▁escap	-10174
▁flesh	-10175
▁folds	-10176
▁incon	-10177
▁incub	-10178
▁kelly	-10179
▁lobby	-10180
▁locom	-10181
▁maneu	-10182
▁myths	-10183
▁noisy	-10184
▁numer	-10185
▁occas	-10186
▁patri	-10187
▁pneum	-10188
▁pound	-10189
▁probe	-10190
▁pulls	-10191
▁recur	-10192
▁saudi	-10193
▁slice	-10194
▁snake	-10195
▁swing	-10196
▁trips	-10197
▁wiped	-10198
▁wives	-10199
▁abroad	-10200
▁addict	-10201
▁admire	-10202
▁analyt	-10203
▁angles	-10204
▁assemb	-10205
▁bhutan	-10206
▁bosnia	-10207
▁cerebr	-10208
▁clitor	-10209
▁consol	-10210
▁corrid	-10211
▁courts	-10212
▁eighth	-10213
▁gravit	-10214
▁guinea	-10215
▁hawaii	-10216
▁helium	-10217
▁horror	-10218
▁hurric	-10219
▁insert	-10220
▁jordan	-10221
▁jungle	-10222
▁kansas	-10223
▁losses	-10224
▁metrop	-10225
▁pilots	-10226
▁powder	-10227
▁prince	-10228
▁psycho	-10229
▁rachel	-10230
▁retain	-10231
▁steady	-10232
▁steven	-10233
▁tastes	-10234
▁toxins	-10235
▁triang	-10236
▁unfold	-10237
▁unimag	-10238
▁weighs	-10239
ergarten	-10240
ountered	-10241
▁chasing	-10242
▁columns	-10243
▁committ	-10244
▁compens	-10245
▁deficit	-10246
▁endless	-10247
▁enthusi	-10248
▁episode	-10249
▁gardens	-10250
▁harmful	-10251
▁heavily	-10252
▁indians	-10253
▁locally	-10254
▁matches	-10255
▁mirrors	-10256
▁optimal	-10257
▁ratings	-10258
▁rockets	-10259
▁seattle	-10260
▁singers	-10261
▁sweeney	-10262
▁travels	-10263
▁tsunami	-10264
▁victory	-10265
forcement	-10266
▁annivers	-10267
▁asteroid	-10268
▁athletic	-10269
▁catching	-10270
▁champion	-10271
▁charcoal	-10272
▁colombia	-10273
▁columbia	-10274
▁evolving	-10275
▁incarcer	-10276
▁indirect	-10277
▁liberals	-10278
▁mutation	-10279
▁operates	-10280
▁peculiar	-10281
▁prospect	-10282
▁responds	-10283
▁scotland	-10284
▁skeleton	-10285
▁superior	-10286
▁thrilled	-10287
▁achieving	-10288
▁activated	-10289
▁apologize	-10290
▁desperate	-10291
▁galapagos	-10292
▁gratitude	-10293
▁hamburger	-10294
▁historian	-10295
▁implanted	-10296
▁intervene	-10297
▁inventors	-10298
▁nightmare	-10299
▁norwegian	-10300
▁precision	-10301
▁replacing	-10302
▁screening	-10303
▁sustained	-10304
▁therapist	-10305
▁worldview	-10306
▁addressing	-10307
▁beneficial	-10308
▁censorship	-10309
▁convincing	-10310
▁globalized	-10311
▁inherently	-10312
▁intangible	-10313
▁intentions	-10314
▁playground	-10315
▁punishment	-10316
▁wilderness	-10317
▁considering	-10318
▁encountered	-10319
▁existential	-10320
▁measurement	-10321
▁perceptions	-10322
▁problematic	-10323
▁recognizing	-10324
▁alternatives	-10325
▁demonstrates	-10326
▁headquarters	-10327
▁interconnect	-10328
▁determination	-10329
▁traditionally	-10330
▁characteristic	-10331
▁representatives	-10332
.5	-10333
.9	-10334
iy	-10335
ju	-10336
bow	-10337
cet	-10338
een	-10339
igg	-10340
isc	-10341
lan	-10342
loc	-10343
sum	-10344
urf	-10345
zes	-10346
▁43	-10347
▁52	-10348
▁dp	-10349
▁ft	-10350
▁iv	-10351
▁rs	-10352
ador	-10353
alay	-10354
auth	-10355
bean	-10356
bled	-10357
ctar	-10358
cult	-10359
iful	-10360
itty	-10361
nutr	-10362
rust	-10363
ymph	-10364
▁190	-10365
▁aqu	-10366
▁coh	-10367
▁cyn	-10368
▁dim	-10369
▁gym	-10370
▁hay	-10371
▁hub	-10372
▁lyr	-10373
▁ngo	-10374
▁osc	-10375
▁roy	-10376
▁seb	-10377
▁tay	-10378
▁vig	-10379
appro	-10380
human	-10381
iolet	-10382
izona	-10383
ogens	-10384
women	-10385
▁1995	-10386
▁aven	-10387
▁blew	-10388
▁bund	-10389
▁cafe	-10390
▁cort	-10391
▁crap	-10392
▁doug	-10393
▁fame	-10394
▁glow	-10395
▁jean	-10396
▁kidn	-10397
▁leak	-10398
▁mumb	-10399
▁oops	-10400
▁orth	-10401
▁rays	-10402
▁sang	-10403
▁slog	-10404
▁thro	-10405
▁trap	-10406
▁ware	-10407
iately	-10408
ignant	-10409
integr	-10410
itated	-10411
verbal	-10412
▁1,500	-10413
▁8,000	-10414
▁acute	-10415
▁appet	-10416
▁arena	-10417
▁asset	-10418
▁baker	-10419
▁blown	-10420
▁discl	-10421
▁fired	-10422
▁gains	-10423
▁greed	-10424
▁greet	-10425
▁hurts	-10426
▁illum	-10427
▁landf	-10428
▁larry	-10429
▁lemon	-10430
▁nasty	-10431
▁neutr	-10432
▁ninth	-10433
▁offsh	-10434
▁plato	-10435
▁rains	-10436
▁seals	-10437
▁serge	-10438
▁squid	-10439
▁stare	-10440
▁steam	-10441
▁sudan	-10442
▁susan	-10443
▁tesla	-10444
imeters	-10445
▁advers	-10446
▁allies	-10447
▁argues	-10448
▁avatar	-10449
▁berlin	-10450
▁biased	-10451
▁bitter	-10452
▁cinema	-10453
▁debris	-10454
▁dispar	-10455
▁elders	-10456
▁expose	-10457
▁frugal	-10458
▁graham	-10459
▁handed	-10460
▁heroic	-10461
▁injust	-10462
▁judges	-10463
▁lakota	-10464
▁lately	-10465
▁misery	-10466
▁mouths	-10467
▁nectar	-10468
▁overlo	-10469
▁precip	-10470
▁preval	-10471
▁reimag	-10472
▁respir	-10473
▁revers	-10474
▁samuel	-10475
▁scroll	-10476
▁sketch	-10477
▁soccer	-10478
▁sooner	-10479
▁strang	-10480
▁symmet	-10481
▁thumbs	-10482
▁viable	-10483
▁viewed	-10484
▁violin	-10485
▁wolves	-10486
ffective	-10487
osterone	-10488
▁arizona	-10489
▁biochem	-10490
▁cardiov	-10491
▁climbed	-10492
▁coastal	-10493
▁copying	-10494
▁couples	-10495
▁crushed	-10496
▁dispers	-10497
▁enhance	-10498
▁examine	-10499
▁expense	-10500
▁facilit	-10501
▁handful	-10502
▁himalay	-10503
▁jackson	-10504
▁legitim	-10505
▁lesters	-10506
▁magnets	-10507
▁mundane	-10508
▁phrases	-10509
▁prostit	-10510
▁recycle	-10511
▁retreat	-10512
▁sadness	-10513
▁sectors	-10514
▁settled	-10515
▁shadows	-10516
▁slowing	-10517
▁tattoos	-10518
▁tightly	-10519
▁trading	-10520
▁accommod	-10521
▁alphabet	-10522
▁aluminum	-10523
▁barefoot	-10524
▁cerebral	-10525
▁clitoris	-10526
▁colorful	-10527
▁confined	-10528
▁deciding	-10529
▁dinosaur	-10530
▁drilling	-10531
▁gestures	-10532
▁happiest	-10533
▁humility	-10534
▁impaired	-10535
▁jennifer	-10536
▁michigan	-10537
▁movember	-10538
▁obtained	-10539
▁olympics	-10540
▁predator	-10541
▁sanitary	-10542
▁societal	-10543
▁stepping	-10544
▁williams	-10545
▁appealing	-10546
▁arbitrary	-10547
▁argentina	-10548
▁automatic	-10549
▁campaigns	-10550
▁cardboard	-10551
▁contained	-10552
▁converted	-10553
▁improvise	-10554
▁ingenuity	-10555
▁instincts	-10556
▁magazines	-10557
▁magnitude	-10558
▁migration	-10559
▁parasites	-10560
▁pregnancy	-10561
▁promising	-10562
▁rendering	-10563
▁returning	-10564
▁sequences	-10565
▁struggled	-10566
▁variables	-10567
▁accumulate	-10568
▁assessment	-10569
▁conception	-10570
▁conceptual	-10571
▁convenient	-10572
▁empowering	-10573
▁enormously	-10574
▁identities	-10575
▁imperative	-10576
▁interfaces	-10577
▁journalism	-10578
▁legitimate	-10579
▁millennium	-10580
▁multiverse	-10581
▁organizing	-10582
▁pedestrian	-10583
▁prototypes	-10584
▁regulation	-10585
▁repeatedly	-10586
▁reputation	-10587
▁separation	-10588
▁standpoint	-10589
▁supportive	-10590
▁thoughtful	-10591
▁anniversary	-10592
▁biomaterial	-10593
▁coincidence	-10594
▁concentrate	-10595
▁distinguish	-10596
▁investigate	-10597
▁politically	-10598
▁questioning	-10599
▁unfortunate	-10600
▁accelerating	-10601
▁disappointed	-10602
▁kindergarten	-10603
▁representing	-10604
▁reproduction	-10605
▁testosterone	-10606
▁unemployment	-10607
▁contributions	-10608
▁unpredictable	-10609
▁cardiovascular	-10610
▁mathematicians	-10611
ki	-10612
300	-10613
can	-10614
hou	-10615
ili	-10616
opy	-10617
pox	-10618
tim	-10619
urt	-10620
vol	-10621
▁34	-10622
▁47	-10623
▁mm	-10624
▁mp	-10625
acks	-10626
acqu	-10627
aine	-10628
bian	-10629
inch	-10630
irst	-10631
mail	-10632
oven	-10633
▁180	-10634
▁geo	-10635
▁gil	-10636
▁ion	-10637
▁jup	-10638
▁kle	-10639
▁lap	-10640
▁lyn	-10641
▁owe	-10642
▁owl	-10643
▁sob	-10644
▁soy	-10645
ceton	-10646
ffiti	-10647
fight	-10648
group	-10649
ibati	-10650
ician	-10651
ipher	-10652
opoly	-10653
plete	-10654
raine	-10655
sight	-10656
story	-10657
uctor	-10658
▁alar	-10659
▁axes	-10660
▁bass	-10661
▁beep	-10662
▁bent	-10663
▁chef	-10664
▁coma	-10665
▁dave	-10666
▁depr	-10667
▁duty	-10668
▁eman	-10669
▁epic	-10670
▁hers	-10671
▁impr	-10672
▁joel	-10673
▁kite	-10674
▁lobe	-10675
▁mant	-10676
▁mell	-10677
▁moms	-10678
▁nerd	-10679
▁pent	-10680
▁piss	-10681
▁pity	-10682
▁rang	-10683
▁rect	-10684
▁rend	-10685
▁rhet	-10686
▁ryan	-10687
▁sabb	-10688
▁slum	-10689
▁stef	-10690
▁sums	-10691
▁tuna	-10692
▁twin	-10693
▁util	-10694
▁velo	-10695
agraph	-10696
airobi	-10697
atible	-10698
donald	-10699
inator	-10700
ogenic	-10701
saving	-10702
social	-10703
stairs	-10704
ulsion	-10705
umbled	-10706
violet	-10707
▁bikes	-10708
▁bloom	-10709
▁burns	-10710
▁craig	-10711
▁cream	-10712
▁crick	-10713
▁cried	-10714
▁dates	-10715
▁delta	-10716
▁emily	-10717
▁gifts	-10718
▁hobby	-10719
▁insec	-10720
▁irony	-10721
▁jokes	-10722
▁juven	-10723
▁loans	-10724
▁lymph	-10725
▁milky	-10726
▁newly	-10727
▁olive	-10728
▁pearl	-10729
▁perse	-10730
▁remed	-10731
▁reper	-10732
▁scand	-10733
▁steak	-10734
▁steep	-10735
▁strat	-10736
▁sucks	-10737
▁tales	-10738
▁tanks	-10739
▁texts	-10740
▁tread	-10741
▁troll	-10742
▁wrink	-10743
cussion	-10744
develop	-10745
ogether	-10746
ologies	-10747
ourcing	-10748
▁apollo	-10749
▁bucket	-10750
▁carrot	-10751
▁cataly	-10752
▁decomp	-10753
▁denied	-10754
▁differ	-10755
▁edward	-10756
▁hammer	-10757
▁ideals	-10758
▁impose	-10759
▁indoor	-10760
▁league	-10761
▁mumbai	-10762
▁panthe	-10763
▁poorly	-10764
▁preced	-10765
▁purely	-10766
▁regain	-10767
▁retrof	-10768
▁speeds	-10769
▁statue	-10770
▁suburb	-10771
▁tricky	-10772
▁urgent	-10773
▁waited	-10774
friendly	-10775
positive	-10776
▁applies	-10777
▁athlete	-10778
▁battles	-10779
▁commons	-10780
▁denmark	-10781
▁dilemma	-10782
▁emerges	-10783
▁explode	-10784
▁filters	-10785
▁flights	-10786
▁forcing	-10787
▁gaining	-10788
▁halfway	-10789
▁hopeful	-10790
▁hostile	-10791
▁jupiter	-10792
▁laundry	-10793
▁liberty	-10794
▁literal	-10795
▁maximum	-10796
▁nairobi	-10797
▁nurture	-10798
▁ordered	-10799
▁pathway	-10800
▁pioneer	-10801
▁playful	-10802
▁portray	-10803
▁shuttle	-10804
▁skilled	-10805
▁sounded	-10806
▁spatial	-10807
▁vending	-10808
resistant	-10809
▁approval	-10810
▁arteries	-10811
▁attempts	-10812
▁avoiding	-10813
▁balanced	-10814
▁calculus	-10815
▁clicking	-10816
▁constitu	-10817
▁diameter	-10818
▁dictator	-10819
▁endeavor	-10820
▁entrance	-10821
▁explorer	-10822
▁fighters	-10823
▁flourish	-10824
▁frontier	-10825
▁graffiti	-10826
▁helpless	-10827
▁hypothet	-10828
▁kiribati	-10829
▁mitchell	-10830
▁modeling	-10831
▁modified	-10832
▁payments	-10833
▁peripher	-10834
▁petition	-10835
▁planting	-10836
▁protests	-10837
▁redefine	-10838
▁regulate	-10839
▁reminder	-10840
▁scarcity	-10841
▁sticking	-10842
▁surgical	-10843
▁sweeping	-10844
▁tortured	-10845
▁transact	-10846
ustainable	-10847
▁attempted	-10848
▁checklist	-10849
▁confusing	-10850
▁declining	-10851
▁displaced	-10852
▁educators	-10853
▁elaborate	-10854
▁enlighten	-10855
▁illnesses	-10856
▁jefferson	-10857
▁mysteries	-10858
▁packaging	-10859
▁paragraph	-10860
▁princeton	-10861
▁respected	-10862
▁strangely	-10863
▁vibrating	-10864
▁bangladesh	-10865
▁beekeepers	-10866
▁cartoonist	-10867
▁diagnostic	-10868
▁evaluation	-10869
▁households	-10870
▁innovators	-10871
▁invitation	-10872
▁phenomenal	-10873
▁profitable	-10874
▁protocells	-10875
▁sequencing	-10876
▁translator	-10877
▁unemployed	-10878
▁variations	-10879
▁accompanied	-10880
▁adolescents	-10881
▁christopher	-10882
▁constrained	-10883
▁documenting	-10884
▁eradication	-10885
▁flexibility	-10886
▁introducing	-10887
▁practically	-10888
▁progressive	-10889
▁ultraviolet	-10890
▁willingness	-10891
▁chemotherapy	-10892
▁commandments	-10893
▁developments	-10894
▁biotechnology	-10895
▁collaborators	-10896
80	-10897
aa	-10898
bc	-10899
di	-10900
gy	-10901
ko	-10902
rh	-10903
su	-10904
yo	-10905
600	-10906
bus	-10907
nie	-10908
sea	-10909
vir	-10910
zer	-10911
▁58	-10912
▁74	-10913
▁ko	-10914
▁ms	-10915
abad	-10916
bone	-10917
cium	-10918
iner	-10919
iots	-10920
isan	-10921
ithm	-10922
ller	-10923
mile	-10924
nett	-10925
rium	-10926
spec	-10927
take	-10928
▁160	-10929
▁aar	-10930
▁alf	-10931
▁cul	-10932
▁esp	-10933
▁fgm	-10934
▁gru	-10935
▁hmm	-10936
▁jen	-10937
▁pul	-10938
▁sno	-10939
ammed	-10940
asant	-10941
cycle	-10942
eland	-10943
great	-10944
heads	-10945
iumph	-10946
munic	-10947
oline	-10948
proof	-10949
▁1800	-10950
▁1975	-10951
▁1994	-10952
▁bach	-10953
▁brew	-10954
▁cann	-10955
▁cues	-10956
▁dash	-10957
▁deer	-10958
▁deny	-10959
▁dude	-10960
▁greg	-10961
▁heck	-10962
▁horn	-10963
▁owns	-10964
▁pine	-10965
▁plut	-10966
▁romo	-10967
▁sher	-10968
▁swam	-10969
▁toss	-10970
funded	-10971
▁7,000	-10972
▁acres	-10973
▁amino	-10974
▁beats	-10975
▁beeth	-10976
▁bonus	-10977
▁cairo	-10978
▁canal	-10979
▁clubs	-10980
▁codes	-10981
▁diana	-10982
▁doses	-10983
▁float	-10984
▁flood	-10985
▁frogs	-10986
▁furth	-10987
▁geeks	-10988
▁insur	-10989
▁kyoto	-10990
▁nepal	-10991
▁posed	-10992
▁qaeda	-10993
▁relie	-10994
▁resid	-10995
▁roofs	-10996
▁sanct	-10997
▁titus	-10998
▁towns	-10999
▁unite	-11000
frontal	-11001
holders	-11002
natural	-11003
ructive	-11004
▁80,000	-11005
▁absurd	-11006
▁acquis	-11007
▁aggreg	-11008
▁arabia	-11009
▁ballot	-11010
▁benign	-11011
▁candle	-11012
▁carcin	-11013
▁carpet	-11014
▁cement	-11015
▁charts	-11016
▁crafts	-11017
▁dragon	-11018
▁earned	-11019
▁europa	-11020
▁fights	-11021
▁hollow	-11022
▁hotter	-11023
▁insult	-11024
▁jersey	-11025
▁murray	-11026
▁nicely	-11027
▁noises	-11028
▁noneth	-11029
▁novels	-11030
▁oliver	-11031
▁philip	-11032
▁pollut	-11033
▁prejud	-11034
▁pulses	-11035
▁rushed	-11036
▁towers	-11037
▁tweets	-11038
▁walker	-11039
aggering	-11040
oriented	-11041
specific	-11042
▁150,000	-11043
▁acquire	-11044
▁broader	-11045
▁calcium	-11046
▁confirm	-11047
▁conspir	-11048
▁desires	-11049
▁discard	-11050
▁donated	-11051
▁editors	-11052
▁eternal	-11053
▁frontal	-11054
▁funeral	-11055
▁grabbed	-11056
▁hawking	-11057
▁joining	-11058
▁lesbian	-11059
▁migrate	-11060
▁millise	-11061
▁minimal	-11062
▁mixture	-11063
▁morally	-11064
▁nearest	-11065
▁quietly	-11066
▁reaches	-11067
▁reserve	-11068
▁scholar	-11069
▁seafood	-11070
▁seroton	-11071
▁squeeze	-11072
▁substit	-11073
▁surplus	-11074
▁triumph	-11075
▁viewing	-11076
ciplinary	-11077
intuitive	-11078
nutrition	-11079
▁admitted	-11080
▁adoption	-11081
▁amateurs	-11082
▁anderson	-11083
▁basement	-11084
▁bleeding	-11085
▁cocktail	-11086
▁diarrhea	-11087
▁doodling	-11088
▁employee	-11089
▁evaluate	-11090
▁gasoline	-11091
▁guidance	-11092
▁indicate	-11093
▁iranians	-11094
▁lawrence	-11095
▁matching	-11096
▁meanings	-11097
▁nigerian	-11098
▁nonsense	-11099
▁obstacle	-11100
▁periodic	-11101
▁receptor	-11102
▁settings	-11103
▁smallpox	-11104
▁symbolic	-11105
▁terrific	-11106
▁unstable	-11107
▁velocity	-11108
▁visitors	-11109
▁afterward	-11110
▁ambiguity	-11111
▁astronomy	-11112
▁augmented	-11113
▁beethoven	-11114
▁brazilian	-11115
▁certainty	-11116
▁databases	-11117
▁diffusion	-11118
▁directors	-11119
▁finishing	-11120
▁imperfect	-11121
▁injustice	-11122
▁limestone	-11123
▁marriages	-11124
▁planetary	-11125
▁predators	-11126
▁principal	-11127
▁qualified	-11128
▁realities	-11129
▁resilient	-11130
▁resonance	-11131
▁schooling	-11132
▁slaughter	-11133
▁stimulate	-11134
▁summarize	-11135
▁surviving	-11136
▁survivors	-11137
▁adventures	-11138
▁animations	-11139
▁astronauts	-11140
▁brainstorm	-11141
▁caregivers	-11142
▁disappears	-11143
▁disconnect	-11144
▁hypotheses	-11145
▁incomplete	-11146
▁introduces	-11147
▁ironically	-11148
▁lesterland	-11149
▁prefrontal	-11150
▁protective	-11151
▁recognizes	-11152
▁satisfying	-11153
▁temptation	-11154
▁circulation	-11155
▁commodities	-11156
▁composition	-11157
▁embarrassed	-11158
▁empowerment	-11159
▁frequencies	-11160
▁marketplace	-11161
▁nonetheless	-11162
▁remembering	-11163
▁scholarship	-11164
▁specialists	-11165
▁storyteller	-11166
▁threatening	-11167
▁translating	-11168
▁biologically	-11169
▁combinations	-11170
▁consistently	-11171
▁intersection	-11172
▁partnerships	-11173
▁supermassive	-11174
▁appropriately	-11175
▁comprehensive	-11176
▁configuration	-11177
▁personalities	-11178
▁spontaneously	-11179
▁supercomputer	-11180
▁transformative	-11181
▁transformations	-11182
.7	-11183
100	-11184
bet	-11185
dad	-11186
dog	-11187
hot	-11188
kel	-11189
nde	-11190
pit	-11191
pot	-11192
▁53	-11193
▁54	-11194
▁93	-11195
▁fm	-11196
▁jr	-11197
▁xl	-11198
▁ya	-11199
,500	-11200
aman	-11201
arer	-11202
assy	-11203
aste	-11204
asts	-11205
brow	-11206
core	-11207
gery	-11208
ials	-11209
itis	-11210
mond	-11211
odyn	-11212
onto	-11213
ords	-11214
rine	-11215
rise	-11216
stop	-11217
uled	-11218
wall	-11219
▁125	-11220
▁18-	-11221
▁2.5	-11222
▁24-	-11223
▁abu	-11224
▁bil	-11225
▁bun	-11226
▁fda	-11227
▁gad	-11228
▁mrs	-11229
▁orn	-11230
▁ove	-11231
▁pel	-11232
▁piv	-11233
▁rna	-11234
▁tob	-11235
▁tou	-11236
▁vin	-11237
▁wre	-11238
alone	-11239
enter	-11240
erers	-11241
geria	-11242
grand	-11243
isive	-11244
matic	-11245
otent	-11246
regon	-11247
roots	-11248
style	-11249
thood	-11250
ucose	-11251
▁1945	-11252
▁1996	-11253
▁argu	-11254
▁bart	-11255
▁ceos	-11256
▁deng	-11257
▁epip	-11258
▁grip	-11259
▁hood	-11260
▁hump	-11261
▁jama	-11262
▁jury	-11263
▁lays	-11264
▁odys	-11265
▁peru	-11266
▁pets	-11267
▁pies	-11268
▁prag	-11269
▁saul	-11270
▁scru	-11271
▁sixt	-11272
▁tips	-11273
▁torn	-11274
▁veil	-11275
▁watt	-11276
▁wipe	-11277
alling	-11278
depend	-11279
ements	-11280
esters	-11281
iatric	-11282
normal	-11283
school	-11284
timore	-11285
uctive	-11286
▁aaron	-11287
▁alter	-11288
▁backs	-11289
▁booth	-11290
▁buses	-11291
▁chore	-11292
▁chunk	-11293
▁clich	-11294
▁diego	-11295
▁drain	-11296
▁dubai	-11297
▁empir	-11298
▁erect	-11299
▁fever	-11300
▁fleet	-11301
▁fraud	-11302
▁ghost	-11303
▁glory	-11304
▁guilt	-11305
▁inade	-11306
▁indul	-11307
▁inexp	-11308
▁jerry	-11309
▁jonas	-11310
▁julie	-11311
▁keith	-11312
▁kings	-11313
▁lakes	-11314
▁louis	-11315
▁macro	-11316
▁marsh	-11317
▁medal	-11318
▁monet	-11319
▁morph	-11320
▁noble	-11321
▁oiled	-11322
▁param	-11323
▁plank	-11324
▁poets	-11325
▁reads	-11326
▁relat	-11327
▁relev	-11328
▁repet	-11329
▁rings	-11330
▁shack	-11331
▁skype	-11332
▁slate	-11333
▁templ	-11334
▁tuned	-11335
▁unint	-11336
▁venus	-11337
igenous	-11338
sharing	-11339
▁ambass	-11340
▁angels	-11341
▁assure	-11342
▁ballet	-11343
▁basics	-11344
▁bertie	-11345
▁buddha	-11346
▁canyon	-11347
▁comics	-11348
▁confir	-11349
▁creepy	-11350
▁dancer	-11351
▁danish	-11352
▁dement	-11353
▁dining	-11354
▁fiscal	-11355
▁greeks	-11356
▁guitar	-11357
▁hooked	-11358
▁kenyan	-11359
▁laying	-11360
▁melody	-11361
▁metric	-11362
▁oregon	-11363
▁parked	-11364
▁petals	-11365
▁poland	-11366
▁potent	-11367
▁potter	-11368
▁primal	-11369
▁radius	-11370
▁resemb	-11371
▁sebast	-11372
▁skyscr	-11373
▁stairs	-11374
▁starch	-11375
▁taller	-11376
▁taylor	-11377
▁update	-11378
▁valued	-11379
▁wallet	-11380
▁washed	-11381
▁abalone	-11382
▁abandon	-11383
▁adapted	-11384
▁amateur	-11385
▁analyst	-11386
▁anytime	-11387
▁breasts	-11388
▁careers	-11389
▁chaotic	-11390
▁cleaner	-11391
▁contrad	-11392
▁equator	-11393
▁exhilar	-11394
▁faculty	-11395
▁filming	-11396
▁glucose	-11397
▁grandma	-11398
▁indoors	-11399
▁jewelry	-11400
▁justify	-11401
▁knocked	-11402
▁outdoor	-11403
▁pension	-11404
▁praying	-11405
▁railway	-11406
▁recipes	-11407
▁retired	-11408
▁shallow	-11409
▁shorter	-11410
▁siberia	-11411
▁strains	-11412
▁subsequ	-11413
▁summary	-11414
▁tactics	-11415
▁thirdly	-11416
▁thunder	-11417
▁toaster	-11418
▁toronto	-11419
▁trailer	-11420
▁uncover	-11421
▁viewers	-11422
▁virtues	-11423
▁worship	-11424
▁ambition	-11425
▁applause	-11426
▁calendar	-11427
▁cochlear	-11428
▁communal	-11429
▁contents	-11430
▁deceased	-11431
▁donation	-11432
▁dreaming	-11433
▁duration	-11434
▁elevated	-11435
▁employed	-11436
▁equipped	-11437
▁franklin	-11438
▁interrog	-11439
▁mcdonald	-11440
▁noticing	-11441
▁pantheon	-11442
▁passport	-11443
▁performs	-11444
▁policing	-11445
▁potatoes	-11446
▁pressing	-11447
▁promises	-11448
▁purchase	-11449
▁reconcil	-11450
▁referred	-11451
▁reserves	-11452
▁rewarded	-11453
▁scottish	-11454
▁sessions	-11455
▁sketches	-11456
▁suitcase	-11457
▁temporal	-11458
▁triangle	-11459
▁uniquely	-11460
▁artifacts	-11461
▁assembled	-11462
▁attribute	-11463
▁breakdown	-11464
▁committee	-11465
▁communist	-11466
▁consuming	-11467
▁energetic	-11468
▁executive	-11469
▁exquisite	-11470
▁hurricane	-11471
▁imaginary	-11472
▁impressed	-11473
▁injection	-11474
▁kilograms	-11475
▁libraries	-11476
▁mammogram	-11477
▁prejudice	-11478
▁prescript	-11479
▁recovered	-11480
▁rejection	-11481
▁remembers	-11482
▁serotonin	-11483
▁skeptical	-11484
▁startling	-11485
▁surprises	-11486
▁swallowed	-11487
▁traumatic	-11488
▁varieties	-11489
▁acceptable	-11490
▁altogether	-11491
▁attachment	-11492
▁cigarettes	-11493
▁culturally	-11494
▁delivering	-11495
▁dependence	-11496
▁distracted	-11497
▁expressive	-11498
▁fulfilling	-11499
▁guerrillas	-11500
▁indigenous	-11501
▁influences	-11502
▁phthalates	-11503
▁preference	-11504
▁presenting	-11505
▁rebuilding	-11506
▁specialist	-11507
▁staggering	-11508
▁backgrounds	-11509
▁disciplines	-11510
▁dysfunction	-11511
▁enforcement	-11512
▁frustration	-11513
▁identifying	-11514
▁microscopic	-11515
▁negotiating	-11516
▁preferences	-11517
▁progression	-11518
▁provocative	-11519
▁rainforests	-11520
▁republicans	-11521
▁requirement	-11522
▁wonderfully	-11523
▁contributing	-11524
▁entertaining	-11525
▁explanations	-11526
▁grandmothers	-11527
▁hypothetical	-11528
▁malnutrition	-11529
▁regenerative	-11530
▁urbanization	-11531
▁conservatives	-11532
▁organizational	-11533
▁environmentally	-11534
▁experimentation	-11535
99	-11536
cs	-11537
201	-11538
800	-11539
aby	-11540
bag	-11541
bro	-11542
dle	-11543
gel	-11544
gro	-11545
hma	-11546
iju	-11547
oir	-11548
run	-11549
zzy	-11550
▁77	-11551
▁82	-11552
▁cc	-11553
▁gi	-11554
▁mg	-11555
▁rg	-11556
▁sb	-11557
anth	-11558
axis	-11559
beat	-11560
chem	-11561
cile	-11562
eren	-11563
fare	-11564
hops	-11565
hran	-11566
inas	-11567
nels	-11568
obic	-11569
▁450	-11570
▁900	-11571
▁bah	-11572
▁cnn	-11573
▁fog	-11574
▁plu	-11575
▁quo	-11576
▁rab	-11577
▁rew	-11578
▁rou	-11579
▁rsw	-11580
▁rum	-11581
▁tyr	-11582
amese	-11583
amics	-11584
ancou	-11585
aurus	-11586
ected	-11587
eries	-11588
liers	-11589
lined	-11590
lived	-11591
naiss	-11592
ratic	-11593
▁1992	-11594
▁2020	-11595
▁anom	-11596
▁apoc	-11597
▁cape	-11598
▁doct	-11599
▁doha	-11600
▁dorm	-11601
▁echo	-11602
▁enab	-11603
▁envy	-11604
▁exit	-11605
▁extr	-11606
▁feas	-11607
▁fier	-11608
▁foxo	-11609
▁gaza	-11610
▁gran	-11611
▁gwen	-11612
▁ipod	-11613
▁lane	-11614
▁mash	-11615
▁mega	-11616
▁menu	-11617
▁pipe	-11618
▁rank	-11619
▁rory	-11620
▁tags	-11621
▁tues	-11622
▁unne	-11623
acious	-11624
atrina	-11625
engers	-11626
ijuana	-11627
iments	-11628
inging	-11629
irable	-11630
ivable	-11631
screen	-11632
second	-11633
worthy	-11634
writer	-11635
▁advis	-11636
▁alloc	-11637
▁catal	-11638
▁cello	-11639
▁daddy	-11640
▁demol	-11641
▁deple	-11642
▁fault	-11643
▁grape	-11644
▁hilar	-11645
▁hunch	-11646
▁irres	-11647
▁loser	-11648
▁midst	-11649
▁mortg	-11650
▁obliv	-11651
▁oxide	-11652
▁polls	-11653
▁races	-11654
▁reefs	-11655
▁ridge	-11656
▁salad	-11657
▁scrib	-11658
▁spear	-11659
▁stain	-11660
▁theft	-11661
▁traff	-11662
▁verge	-11663
ictions	-11664
million	-11665
ocratic	-11666
organic	-11667
ulously	-11668
umental	-11669
writing	-11670
▁60,000	-11671
▁abused	-11672
▁alaska	-11673
▁avenue	-11674
▁awards	-11675
▁boreal	-11676
▁bumble	-11677
▁coined	-11678
▁cooler	-11679
▁cosmos	-11680
▁decept	-11681
▁delete	-11682
▁digest	-11683
▁dispos	-11684
▁divine	-11685
▁drinks	-11686
▁enters	-11687
▁floors	-11688
▁gloves	-11689
▁intend	-11690
▁kicked	-11691
▁learns	-11692
▁listed	-11693
▁mammal	-11694
▁meadow	-11695
▁multim	-11696
▁ninety	-11697
▁nuclei	-11698
▁oftent	-11699
▁orders	-11700
▁poorer	-11701
▁poured	-11702
▁precon	-11703
▁quotes	-11704
▁reluct	-11705
▁sensit	-11706
▁sobule	-11707
▁spends	-11708
▁spills	-11709
▁tedmed	-11710
▁tehran	-11711
▁tender	-11712
▁themes	-11713
▁vancou	-11714
▁waking	-11715
▁wishes	-11716
▁writes	-11717
cellular	-11718
ceptible	-11719
ensively	-11720
ictional	-11721
ithmetic	-11722
▁500,000	-11723
▁bananas	-11724
▁biotech	-11725
▁blessed	-11726
▁blocked	-11727
▁caltech	-11728
▁categor	-11729
▁checked	-11730
▁compact	-11731
▁cookies	-11732
▁crowded	-11733
▁crystal	-11734
▁curator	-11735
▁dangers	-11736
▁embassy	-11737
▁evident	-11738
▁fingert	-11739
▁fluores	-11740
▁fulfill	-11741
▁genital	-11742
▁illiter	-11743
▁liberia	-11744
▁manages	-11745
▁margins	-11746
▁melinda	-11747
▁metrics	-11748
▁microrn	-11749
▁relaxed	-11750
▁reviews	-11751
▁ringing	-11752
▁scaling	-11753
▁seasons	-11754
▁thereby	-11755
▁tuesday	-11756
▁vicious	-11757
▁watches	-11758
▁worries	-11759
▁wounded	-11760
naissance	-11761
▁airports	-11762
▁certific	-11763
▁chickens	-11764
▁diagnose	-11765
▁drowning	-11766
▁festival	-11767
▁forecast	-11768
▁founding	-11769
▁habitats	-11770
▁infinity	-11771
▁interpre	-11772
▁laughter	-11773
▁likewise	-11774
▁margaret	-11775
▁minimize	-11776
▁mistaken	-11777
▁officers	-11778
▁offshore	-11779
▁pioneers	-11780
▁producer	-11781
▁requests	-11782
▁sensible	-11783
▁stirling	-11784
▁suppress	-11785
▁survives	-11786
▁sympathy	-11787
▁unnecess	-11788
▁weekends	-11789
▁addressed	-11790
▁ambiguous	-11791
▁analytics	-11792
▁assistant	-11793
▁automated	-11794
▁bacterium	-11795
▁baltimore	-11796
▁caribbean	-11797
▁circuitry	-11798
▁civilians	-11799
▁confusion	-11800
▁cultivate	-11801
▁demanding	-11802
▁democrats	-11803
▁detecting	-11804
▁detectors	-11805
▁digitally	-11806
▁districts	-11807
▁eradicate	-11808
▁inherited	-11809
▁inorganic	-11810
▁intersect	-11811
▁intricate	-11812
▁intrinsic	-11813
▁lightning	-11814
▁microblog	-11815
▁paralysis	-11816
▁pathology	-11817
▁pneumonia	-11818
▁premature	-11819
▁projected	-11820
▁reconnect	-11821
▁releasing	-11822
▁routinely	-11823
▁sequenced	-11824
▁spaceship	-11825
▁successes	-11826
▁vancouver	-11827
▁articulate	-11828
▁attraction	-11829
▁commentary	-11830
▁compressed	-11831
▁cumulative	-11832
▁disgusting	-11833
▁explicitly	-11834
▁grassroots	-11835
▁humanities	-11836
▁immigrants	-11837
▁occupation	-11838
▁oftentimes	-11839
▁overweight	-11840
▁pesticides	-11841
▁programmed	-11842
▁reasonably	-11843
▁reflecting	-11844
▁starvation	-11845
▁thankfully	-11846
▁vietnamese	-11847
▁accountable	-11848
▁battlefield	-11849
▁celebration	-11850
▁convenience	-11851
▁efficiently	-11852
▁flourishing	-11853
▁frustrating	-11854
▁medications	-11855
▁nonviolence	-11856
▁professions	-11857
▁spontaneous	-11858
▁coordination	-11859
▁disconnected	-11860
▁economically	-11861
▁manipulation	-11862
▁metropolitan	-11863
▁developmental	-11864
▁enlightenment	-11865
▁installations	-11866
▁manufacturers	-11867
▁concentrations	-11868
▁industrialized	-11869
▁electromagnetic	-11870
gi	-11871
yd	-11872
afe	-11873
bes	-11874
bey	-11875
blo	-11876
cca	-11877
eel	-11878
ggy	-11879
ibo	-11880
mal	-11881
mia	-11882
▁57	-11883
▁78	-11884
▁bm	-11885
▁eu	-11886
▁lh	-11887
acci	-11888
acle	-11889
artz	-11890
atus	-11891
cock	-11892
esty	-11893
grat	-11894
hara	-11895
idal	-11896
ilia	-11897
imee	-11898
kers	-11899
lene	-11900
noby	-11901
orig	-11902
orse	-11903
pace	-11904
plan	-11905
sens	-11906
untu	-11907
zero	-11908
▁110	-11909
▁404	-11910
▁aye	-11911
▁bog	-11912
▁coc	-11913
▁dum	-11914
▁fbi	-11915
▁fee	-11916
▁gag	-11917
▁gle	-11918
▁gur	-11919
▁ike	-11920
▁rud	-11921
▁rus	-11922
▁sue	-11923
▁tai	-11924
▁umb	-11925
▁veg	-11926
▁vel	-11927
▁zoo	-11928
acent	-11929
ached	-11930
alore	-11931
annah	-11932
awatt	-11933
built	-11934
erent	-11935
hmoud	-11936
ibera	-11937
ieval	-11938
kings	-11939
nders	-11940
owitz	-11941
peech	-11942
rated	-11943
▁1997	-11944
▁aust	-11945
▁bali	-11946
▁beau	-11947
▁beds	-11948
▁belt	-11949
▁blad	-11950
▁blob	-11951
▁bono	-11952
▁brow	-11953
▁buck	-11954
▁euro	-11955
▁fees	-11956
▁fuse	-11957
▁gary	-11958
▁gord	-11959
▁inqu	-11960
▁jaco	-11961
▁lazy	-11962
▁maid	-11963
▁moma	-11964
▁neil	-11965
▁peps	-11966
▁pest	-11967
▁pond	-11968
▁prey	-11969
▁quiz	-11970
▁skip	-11971
▁sopa	-11972
▁suey	-11973
▁whip	-11974
▁wore	-11975
▁yale	-11976
▁yard	-11977
aching	-11978
anting	-11979
atient	-11980
consum	-11981
cribed	-11982
govern	-11983
health	-11984
houses	-11985
ilding	-11986
liness	-11987
master	-11988
onacci	-11989
rendip	-11990
rogram	-11991
unting	-11992
vering	-11993
▁aimee	-11994
▁annoy	-11995
▁aorta	-11996
▁aquar	-11997
▁armor	-11998
▁attor	-11999
▁billy	-12000
▁biode	-12001
▁bliss	-12002
▁bumps	-12003
▁cease	-12004
▁crude	-12005
▁crust	-12006
▁diary	-12007
▁extro	-12008
▁faint	-12009
▁fuzzy	-12010
▁gando	-12011
▁grabs	-12012
▁harry	-12013
▁hence	-12014
▁idiot	-12015
▁inert	-12016
▁lover	-12017
▁moist	-12018
▁nanos	-12019
▁oprah	-12020
▁pavil	-12021
▁pipes	-12022
▁poses	-12023
▁pumps	-12024
▁quadr	-12025
▁radar	-12026
▁recip	-12027
▁reuse	-12028
▁roman	-12029
▁saves	-12030
▁scrap	-12031
▁smugg	-12032
▁stagn	-12033
▁stink	-12034
▁stole	-12035
▁titan	-12036
▁unity	-12037
▁wages	-12038
▁wells	-12039
acities	-12040
appropr	-12041
cending	-12042
fashion	-12043
lection	-12044
opening	-12045
ouncing	-12046
winning	-12047
▁15,000	-12048
▁achill	-12049
▁alfred	-12050
▁archie	-12051
▁artery	-12052
▁asthma	-12053
▁autobi	-12054
▁backed	-12055
▁backup	-12056
▁banana	-12057
▁barack	-12058
▁cables	-12059
▁camels	-12060
▁cookie	-12061
▁cruise	-12062
▁divers	-12063
▁donate	-12064
▁eighty	-12065
▁embody	-12066
▁exclud	-12067
▁forbid	-12068
▁fungus	-12069
▁gifted	-12070
▁granny	-12071
▁graves	-12072
▁humane	-12073
▁humble	-12074
▁jacket	-12075
▁loaded	-12076
▁marshm	-12077
▁michel	-12078
▁nitric	-12079
▁norman	-12080
▁pasted	-12081
▁pirate	-12082
▁popped	-12083
▁praise	-12084
▁prayer	-12085
▁racism	-12086
▁restor	-12087
▁rooted	-12088
▁routes	-12089
▁snakes	-12090
▁syrian	-12091
▁timber	-12092
▁ubuntu	-12093
▁vagina	-12094
▁verbal	-12095
▁wiring	-12096
▁400,000	-12097
▁apprent	-12098
▁bankers	-12099
▁cabinet	-12100
▁cheated	-12101
▁claimed	-12102
▁cluster	-12103
▁cocaine	-12104
▁cracked	-12105
▁crosses	-12106
▁editing	-12107
▁encrypt	-12108
▁enzymes	-12109
▁epiphan	-12110
▁expands	-12111
▁eyebrow	-12112
▁fellows	-12113
▁holiday	-12114
▁honored	-12115
▁inspect	-12116
▁kidneys	-12117
▁lasting	-12118
▁mahmoud	-12119
▁mocking	-12120
▁multipl	-12121
▁oakland	-12122
▁obscure	-12123
▁overlap	-12124
▁pillars	-12125
▁popping	-12126
▁puppets	-12127
▁reactor	-12128
▁recipro	-12129
▁reconst	-12130
▁redisco	-12131
▁reduces	-12132
▁refined	-12133
▁replied	-12134
▁satisfy	-12135
▁slavery	-12136
▁stanley	-12137
▁strands	-12138
▁sulfide	-12139
▁tracked	-12140
▁tunisia	-12141
▁unequal	-12142
▁vibrant	-12143
americans	-12144
istically	-12145
▁adjacent	-12146
▁advertis	-12147
▁backward	-12148
▁commonly	-12149
▁consists	-12150
▁crystall	-12151
▁crystals	-12152
▁declared	-12153
▁degraded	-12154
▁delivers	-12155
▁embraced	-12156
▁emphasis	-12157
▁entities	-12158
▁exploded	-12159
▁flooding	-12160
▁friction	-12161
▁governor	-12162
▁ignorant	-12163
▁inconven	-12164
▁landfill	-12165
▁meantime	-12166
▁monopoly	-12167
▁murdered	-12168
▁nitrogen	-12169
▁operator	-12170
▁pursuing	-12171
▁rainfall	-12172
▁realizes	-12173
▁removing	-12174
▁rhetoric	-12175
▁tedwomen	-12176
▁timeline	-12177
▁uploaded	-12178
confidence	-12179
generation	-12180
▁bangalore	-12181
▁cockroach	-12182
▁collision	-12183
▁criticism	-12184
▁delighted	-12185
▁developer	-12186
▁donations	-12187
▁explorers	-12188
▁extensive	-12189
▁fibonacci	-12190
▁firsthand	-12191
▁followers	-12192
▁generator	-12193
▁guerrilla	-12194
▁hilarious	-12195
▁intrigued	-12196
▁legendary	-12197
▁microbial	-12198
▁photoshop	-12199
▁predatory	-12200
▁providers	-12201
▁receptors	-12202
▁scenarios	-12203
▁stabilize	-12204
▁superstar	-12205
munications	-12206
▁arithmetic	-12207
▁assistance	-12208
▁comparable	-12209
▁conspiracy	-12210
▁deliberate	-12211
▁divergence	-12212
▁expressing	-12213
▁freespeech	-12214
▁harvesting	-12215
▁inadequate	-12216
▁indicators	-12217
▁inventions	-12218
▁pheromones	-12219
▁physiology	-12220
▁pollutants	-12221
▁prioritize	-12222
▁programmer	-12223
▁revelation	-12224
▁sabbatical	-12225
▁supposedly	-12226
▁vegetarian	-12227
▁worthwhile	-12228
▁commercials	-12229
▁conclusions	-12230
▁corresponds	-12231
▁eliminating	-12232
▁ideological	-12233
▁immortality	-12234
▁negotiation	-12235
▁orientation	-12236
▁pollination	-12237
▁pollinators	-12238
▁publication	-12239
▁restoration	-12240
▁transmitted	-12241
▁accidentally	-12242
▁acknowledged	-12243
▁associations	-12244
▁broadcasting	-12245
▁conditioning	-12246
▁subconscious	-12247
▁surroundings	-12248
▁unimaginable	-12249
▁gravitational	-12250
▁independently	-12251
▁mathematician	-12252
▁identification	-12253
▁reconciliation	-12254
hs	-12255
ww	-12256
zs	-12257
▁=	-12258
cam	-12259
cup	-12260
din	-12261
eor	-12262
hry	-12263
ipe	-12264
lem	-12265
oes	-12266
oko	-12267
otr	-12268
oub	-12269
oux	-12270
she	-12271
six	-12272
wid	-12273
▁cp	-12274
▁dd	-12275
▁pc	-12276
anch	-12277
asso	-12278
corn	-12279
dest	-12280
hole	-12281
holm	-12282
hrir	-12283
icer	-12284
iley	-12285
leys	-12286
otes	-12287
phal	-12288
pons	-12289
stru	-12290
umen	-12291
wear	-12292
your	-12293
▁16-	-12294
▁186	-12295
▁189	-12296
▁50-	-12297
▁aus	-12298
▁bye	-12299
▁ced	-12300
▁kay	-12301
▁kno	-12302
▁kos	-12303
▁lag	-12304
▁nam	-12305
▁nba	-12306
▁nie	-12307
▁sid	-12308
▁sri	-12309
▁vas	-12310
bands	-12311
bound	-12312
ensed	-12313
gebra	-12314
gered	-12315
isher	-12316
marks	-12317
nobyl	-12318
onies	-12319
otive	-12320
party	-12321
pound	-12322
rared	-12323
shirt	-12324
zuela	-12325
▁amen	-12326
▁anch	-12327
▁bail	-12328
▁buys	-12329
▁cane	-12330
▁clut	-12331
▁grey	-12332
▁gymn	-12333
▁hars	-12334
▁hats	-12335
▁holl	-12336
▁lent	-12337
▁lett	-12338
▁liby	-12339
▁lied	-12340
▁meme	-12341
▁monk	-12342
▁narc	-12343
▁nico	-12344
▁pipa	-12345
▁plum	-12346
▁raft	-12347
▁rows	-12348
▁sane	-12349
▁sara	-12350
▁taxi	-12351
▁unre	-12352
▁whit	-12353
advant	-12354
asting	-12355
ellers	-12356
esteem	-12357
giving	-12358
lights	-12359
matics	-12360
nessee	-12361
strong	-12362
ulates	-12363
ulsive	-12364
▁ahmed	-12365
▁alleg	-12366
▁arose	-12367
▁arrog	-12368
▁beans	-12369
▁beard	-12370
▁bites	-12371
▁bruce	-12372
▁bulbs	-12373
▁cheer	-12374
▁compr	-12375
▁draft	-12376
▁dwell	-12377
▁euros	-12378
▁fatty	-12379
▁files	-12380
▁focal	-12381
▁fragr	-12382
▁gangs	-12383
▁gehry	-12384
▁goose	-12385
▁hydro	-12386
▁jeans	-12387
▁loops	-12388
▁meyer	-12389
▁moses	-12390
▁nanot	-12391
▁nickn	-12392
▁oblig	-12393
▁oppon	-12394
▁overd	-12395
▁petro	-12396
▁posts	-12397
▁rebel	-12398
▁reply	-12399
▁saint	-12400
▁scare	-12401
▁scope	-12402
▁solly	-12403
▁spoof	-12404
▁spraw	-12405
▁steer	-12406
▁sting	-12407
▁suits	-12408
▁uncon	-12409
▁wrist	-12410
blowing	-12411
hearted	-12412
▁arrows	-12413
▁cellul	-12414
▁closet	-12415
▁crises	-12416
▁crunch	-12417
▁decode	-12418
▁dental	-12419
▁depths	-12420
▁edited	-12421
▁enzyme	-12422
▁finite	-12423
▁harlem	-12424
▁heated	-12425
▁innate	-12426
▁issued	-12427
▁justin	-12428
▁kibera	-12429
▁knight	-12430
▁lasers	-12431
▁latter	-12432
▁legisl	-12433
▁louder	-12434
▁mantra	-12435
▁mimics	-12436
▁mister	-12437
▁mosque	-12438
▁mozart	-12439
▁orphan	-12440
▁polish	-12441
▁prompt	-12442
▁refers	-12443
▁resort	-12444
▁sahara	-12445
▁senate	-12446
▁slogan	-12447
▁slowed	-12448
▁smiles	-12449
▁spores	-12450
▁stated	-12451
▁stocks	-12452
▁strand	-12453
▁submar	-12454
▁tagged	-12455
▁tahrir	-12456
▁tennis	-12457
▁testim	-12458
▁thirds	-12459
▁titles	-12460
▁wander	-12461
galactic	-12462
iologist	-12463
national	-12464
ractable	-12465
▁250,000	-12466
▁accused	-12467
▁airline	-12468
▁cafeter	-12469
▁captcha	-12470
▁charism	-12471
▁complim	-12472
▁congrat	-12473
▁defines	-12474
▁deserts	-12475
▁disagre	-12476
▁dragged	-12477
▁fifteen	-12478
▁focuses	-12479
▁formats	-12480
▁germans	-12481
▁hopkins	-12482
▁incomes	-12483
▁katrina	-12484
▁langley	-12485
▁legally	-12486
▁malware	-12487
▁monthly	-12488
▁philipp	-12489
▁reinfor	-12490
▁shatter	-12491
▁skeptic	-12492
▁sterile	-12493
▁storing	-12494
▁strokes	-12495
▁tribute	-12496
▁tropics	-12497
▁undergo	-12498
▁urgency	-12499
▁utility	-12500
▁volumes	-12501
efficient	-12502
fashioned	-12503
▁adequate	-12504
▁ancestor	-12505
▁animated	-12506
▁behaving	-12507
▁commands	-12508
▁composed	-12509
▁cymatics	-12510
▁dementia	-12511
▁digitize	-12512
▁executed	-12513
▁frequent	-12514
▁guardian	-12515
▁handling	-12516
▁horrific	-12517
▁infrared	-12518
▁insisted	-12519
▁inviting	-12520
▁israelis	-12521
▁juvenile	-12522
▁killings	-12523
▁lifelike	-12524
▁literary	-12525
▁mandarin	-12526
▁maryland	-12527
▁maximize	-12528
▁medieval	-12529
▁migrants	-12530
▁monument	-12531
▁moreover	-12532
▁packaged	-12533
▁persuade	-12534
▁pinpoint	-12535
▁plankton	-12536
▁portugal	-12537
▁provider	-12538
▁province	-12539
▁receives	-12540
▁recreate	-12541
▁richness	-12542
▁rigorous	-12543
▁searches	-12544
▁serendip	-12545
▁simulate	-12546
▁speeches	-12547
▁steering	-12548
▁stewards	-12549
▁stimulus	-12550
▁strictly	-12551
▁treaties	-12552
▁vascular	-12553
industrial	-12554
▁affection	-12555
▁balancing	-12556
▁billboard	-12557
▁commodity	-12558
▁companion	-12559
▁conductor	-12560
▁cosmology	-12561
▁disadvant	-12562
▁europeans	-12563
▁fictional	-12564
▁firefight	-12565
▁himalayas	-12566
▁humankind	-12567
▁inclusive	-12568
▁ingenious	-12569
▁instances	-12570
▁interfere	-12571
▁kilometer	-12572
▁launching	-12573
▁memorable	-12574
▁metaphors	-12575
▁millennia	-12576
▁ministers	-12577
▁nurturing	-12578
▁partially	-12579
▁postcards	-12580
▁pressures	-12581
▁promoting	-12582
▁publisher	-12583
▁reconcile	-12584
▁relevance	-12585
▁roughness	-12586
▁satisfied	-12587
▁sebastian	-12588
▁selective	-12589
▁sovereign	-12590
▁tennessee	-12591
▁terrorist	-12592
▁thrilling	-12593
▁venezuela	-12594
▁victorian	-12595
▁voluntary	-12596
▁aesthetics	-12597
▁australian	-12598
▁centimeter	-12599
▁criticized	-12600
▁devastated	-12601
▁disruption	-12602
▁distribute	-12603
▁eliminated	-12604
▁eradicated	-12605
▁fragmented	-12606
▁liberation	-12607
▁limitation	-12608
▁motorcycle	-12609
▁outrageous	-12610
▁passengers	-12611
▁persistent	-12612
▁references	-12613
▁registered	-12614
▁relativity	-12615
▁republican	-12616
▁simplistic	-12617
▁structured	-12618
▁superpower	-12619
▁vertically	-12620
▁accelerated	-12621
▁anticipated	-12622
▁arrangement	-12623
▁butterflies	-12624
▁celebrating	-12625
▁citizenship	-12626
▁conferences	-12627
▁continually	-12628
▁counterpart	-12629
▁departments	-12630
▁distinctive	-12631
▁financially	-12632
▁fingerprint	-12633
▁forgiveness	-12634
▁incremental	-12635
▁involvement	-12636
▁maintaining	-12637
▁methodology	-12638
▁mockingbird	-12639
▁psychiatric	-12640
▁reinventing	-12641
▁renaissance	-12642
▁respiratory	-12643
▁substantial	-12644
▁transferred	-12645
▁variability	-12646
▁anthropology	-12647
▁availability	-12648
▁disabilities	-12649
▁experimenter	-12650
▁illumination	-12651
▁incidentally	-12652
▁individually	-12653
▁negotiations	-12654
▁quantitative	-12655
▁reproductive	-12656
▁consideration	-12657
▁functionality	-12658
▁intergalactic	-12659
▁intrinsically	-12660
▁investigative	-12661
▁revolutionize	-12662
▁anthropologist	-12663
▁-	-12664
aws	-12665
bee	-12666
cke	-12667
cod	-12668
dro	-12669
eye	-12670
fig	-12671
hel	-12672
nec	-12673
omi	-12674
rot	-12675
sor	-12676
syl	-12677
tan	-12678
una	-12679
voc	-12680
▁39	-12681
▁67	-12682
▁68	-12683
▁84	-12684
▁94	-12685
▁hp	-12686
▁si	-12687
▁zk	-12688
ahum	-12689
anka	-12690
anus	-12691
apes	-12692
arts	-12693
asma	-12694
atis	-12695
bery	-12696
boat	-12697
ergy	-12698
gher	-12699
gill	-12700
ican	-12701
igue	-12702
ikes	-12703
ilib	-12704
irth	-12705
kill	-12706
luid	-12707
obia	-12708
oder	-12709
orth	-12710
pler	-12711
pres	-12712
tles	-12713
uate	-12714
ucky	-12715
urbs	-12716
▁360	-12717
▁40-	-12718
▁ape	-12719
▁bak	-12720
▁cel	-12721
▁cia	-12722
▁cyc	-12723
▁daf	-12724
▁doo	-12725
▁dor	-12726
▁dup	-12727
▁dye	-12728
▁kur	-12729
▁lhc	-12730
▁lip	-12731
▁mba	-12732
▁mck	-12733
▁nik	-12734
▁ott	-12735
▁pup	-12736
▁ups	-12737
▁wax	-12738
amous	-12739
aning	-12740
apeut	-12741
apses	-12742
cerpt	-12743
fting	-12744
heart	-12745
ifted	-12746
ilton	-12747
insky	-12748
isure	-12749
ivals	-12750
lical	-12751
meter	-12752
ocamp	-12753
ocial	-12754
raged	-12755
rical	-12756
rovir	-12757
stick	-12758
ulent	-12759
vania	-12760
waves	-12761
▁1989	-12762
▁aged	-12763
▁apar	-12764
▁bage	-12765
▁barn	-12766
▁bion	-12767
▁brad	-12768
▁carn	-12769
▁chew	-12770
▁chin	-12771
▁coco	-12772
▁crow	-12773
▁dick	-12774
▁evan	-12775
▁eyew	-12776
▁feat	-12777
▁ferr	-12778
▁fled	-12779
▁flee	-12780
▁geor	-12781
▁goss	-12782
▁heel	-12783
▁ikea	-12784
▁jake	-12785
▁joey	-12786
▁juxt	-12787
▁karl	-12788
▁kate	-12789
▁kiva	-12790
▁larv	-12791
▁leds	-12792
▁lith	-12793
▁mour	-12794
▁mull	-12795
▁outd	-12796
▁pads	-12797
▁pitt	-12798
▁pran	-12799
▁redd	-12800
▁ripp	-12801
▁sank	-12802
▁sued	-12803
▁tang	-12804
▁tilt	-12805
▁tora	-12806
▁unch	-12807
▁unin	-12808
▁usda	-12809
▁wets	-12810
▁wool	-12811
▁worn	-12812
agrams	-12813
aratus	-12814
carbon	-12815
diving	-12816
enberg	-12817
ending	-12818
igrade	-12819
inates	-12820
izable	-12821
mostat	-12822
uation	-12823
ursday	-12824
▁1,100	-12825
▁1,200	-12826
▁abdom	-12827
▁antid	-12828
▁arabs	-12829
▁bacon	-12830
▁bands	-12831
▁bever	-12832
▁blobs	-12833
▁blows	-12834
▁boson	-12835
▁brick	-12836
▁carbs	-12837
▁centr	-12838
▁chuck	-12839
▁clash	-12840
▁cubic	-12841
▁dealt	-12842
▁denis	-12843
▁disin	-12844
▁dolby	-12845
▁eager	-12846
▁embro	-12847
▁endow	-12848
▁essex	-12849
▁exams	-12850
▁exile	-12851
▁fairy	-12852
▁firms	-12853
▁forty	-12854
▁guate	-12855
▁hears	-12856
▁hitch	-12857
▁innoc	-12858
▁jacqu	-12859
▁joins	-12860
▁khmer	-12861
▁landm	-12862
▁lasts	-12863
▁maria	-12864
▁mario	-12865
▁mates	-12866
▁oscar	-12867
▁phant	-12868
▁rider	-12869
▁rouge	-12870
▁sandy	-12871
▁scour	-12872
▁shade	-12873
▁shook	-12874
▁sioux	-12875
▁tours	-12876
▁trump	-12877
▁trunk	-12878
▁unfin	-12879
▁weibo	-12880
▁whirl	-12881
ahumara	-12882
alities	-12883
centric	-12884
healthy	-12885
idental	-12886
sterdam	-12887
vestock	-12888
▁acumen	-12889
▁aerial	-12890
▁aurora	-12891
▁balcon	-12892
▁bounce	-12893
▁brakes	-12894
▁bricks	-12895
▁browne	-12896
▁castle	-12897
▁checks	-12898
▁cloned	-12899
▁cooked	-12900
▁copied	-12901
▁crater	-12902
▁denser	-12903
▁dumped	-12904
▁elites	-12905
▁enrich	-12906
▁favela	-12907
▁feared	-12908
▁firmly	-12909
▁fooled	-12910
▁freeze	-12911
▁gamble	-12912
▁gaming	-12913
▁hatred	-12914
▁hiring	-12915
▁hirosh	-12916
▁improb	-12917
▁intest	-12918
▁kepler	-12919
▁kindly	-12920
▁lastly	-12921
▁marked	-12922
▁miller	-12923
▁miscon	-12924
▁multit	-12925
▁naught	-12926
▁pepper	-12927
▁plaque	-12928
▁prizes	-12929
▁prosec	-12930
▁provin	-12931
▁recycl	-12932
▁ripped	-12933
▁scaled	-12934
▁schwar	-12935
▁slices	-12936
▁socioe	-12937
▁sought	-12938
▁stefan	-12939
▁stereo	-12940
▁stockp	-12941
▁superf	-12942
▁sweats	-12943
▁taiwan	-12944
▁theirs	-12945
▁traded	-12946
▁undert	-12947
▁varied	-12948
▁vastly	-12949
▁wilson	-12950
▁zoning	-12951
ervation	-12952
ilibrium	-12953
sylvania	-12954
▁algebra	-12955
▁appoint	-12956
▁auditor	-12957
▁austria	-12958
▁bipolar	-12959
▁bullets	-12960
▁catalog	-12961
▁cleaned	-12962
▁craving	-12963
▁descend	-12964
▁desktop	-12965
▁dissect	-12966
▁emailed	-12967
▁evolves	-12968
▁excerpt	-12969
▁finland	-12970
▁flipped	-12971
▁freeway	-12972
▁glowing	-12973
▁guesses	-12974
▁illumin	-12975
▁leisure	-12976
▁lighter	-12977
▁matthew	-12978
▁missile	-12979
▁outward	-12980
▁painter	-12981
▁payment	-12982
▁pharmac	-12983
▁placebo	-12984
▁possess	-12985
▁prevail	-12986
▁recomme	-12987
▁regimes	-12988
▁rightly	-12989
▁russell	-12990
▁scanned	-12991
▁sighted	-12992
▁signing	-12993
▁spiders	-12994
▁suburbs	-12995
▁toolbox	-12996
▁tougher	-12997
▁unaware	-12998
▁unified	-12999
▁unthink	-13000
▁updated	-13001
▁upgrade	-13002
▁veteran	-13003
▁voyager	-13004
astically	-13005
▁activism	-13006
▁addicted	-13007
▁arkansas	-13008
▁assigned	-13009
▁audition	-13010
▁catalyst	-13011
▁circular	-13012
▁civilian	-13013
▁clapping	-13014
▁cochrane	-13015
▁compress	-13016
▁creators	-13017
▁exposing	-13018
▁feminism	-13019
▁flipping	-13020
▁foremost	-13021
▁genomics	-13022
▁glaciers	-13023
▁humanoid	-13024
▁husbands	-13025
▁immortal	-13026
▁imperial	-13027
▁implants	-13028
▁imprison	-13029
▁invasion	-13030
▁juxtapos	-13031
▁listener	-13032
▁maneuver	-13033
▁marginal	-13034
▁mattered	-13035
▁midnight	-13036
▁missions	-13037
▁nicholas	-13038
▁occupied	-13039
▁optimize	-13040
▁outbreak	-13041
▁programm	-13042
▁receiver	-13043
▁rendered	-13044
▁resonate	-13045
▁secretly	-13046
▁shortage	-13047
▁smartest	-13048
▁stripped	-13049
▁stumbled	-13050
▁supports	-13051
▁survivor	-13052
▁terminal	-13053
▁thursday	-13054
▁trusting	-13055
▁windmill	-13056
▁workshop	-13057
▁academics	-13058
▁apparatus	-13059
▁blueprint	-13060
▁carbonate	-13061
▁cellphone	-13062
▁chernobyl	-13063
▁combining	-13064
▁commander	-13065
▁continuum	-13066
▁distorted	-13067
▁exclusive	-13068
▁extracted	-13069
▁fertility	-13070
▁hippocamp	-13071
▁histories	-13072
▁honeybees	-13073
▁inventing	-13074
▁livestock	-13075
▁performer	-13076
▁pervasive	-13077
▁practiced	-13078
▁southeast	-13079
▁surrounds	-13080
▁suspected	-13081
▁synthesis	-13082
▁treadmill	-13083
▁triangles	-13084
▁beginnings	-13085
▁calculator	-13086
▁centigrade	-13087
▁copernicus	-13088
▁downstairs	-13089
▁extraction	-13090
▁fingertips	-13091
▁footprints	-13092
▁guaranteed	-13093
▁homosexual	-13094
▁introverts	-13095
▁officially	-13096
▁overlooked	-13097
▁predicting	-13098
▁questioned	-13099
▁relational	-13100
▁restricted	-13101
▁settlement	-13102
▁statements	-13103
▁tarahumara	-13104
▁telephones	-13105
▁thermostat	-13106
▁thoroughly	-13107
▁thylacines	-13108
▁toothbrush	-13109
▁undercover	-13110
▁unfinished	-13111
▁vibrations	-13112
▁westerners	-13113
▁acquisition	-13114
▁appreciated	-13115
▁calculators	-13116
▁cognitively	-13117
▁collections	-13118
▁competitors	-13119
▁countryside	-13120
▁implication	-13121
▁incorporate	-13122
▁intentional	-13123
▁interdepend	-13124
▁intractable	-13125
▁marshmallow	-13126
▁neighboring	-13127
▁participant	-13128
▁sensitivity	-13129
▁achievements	-13130
▁anticipation	-13131
▁astronomical	-13132
▁deliberately	-13133
▁exhilarating	-13134
▁milliseconds	-13135
▁participated	-13136
▁pennsylvania	-13137
▁tremendously	-13138
▁breakthroughs	-13139
▁collaborating	-13140
▁customization	-13141
▁effectiveness	-13142
▁instinctively	-13143
▁investigating	-13144
▁socioeconomic	-13145
▁underestimate	-13146
▁unsustainable	-13147
▁neuroscientists	-13148
hu	-13149
oy	-13150
án	-13151
▁–	-13152
aro	-13153
awi	-13154
bia	-13155
cia	-13156
cow	-13157
fur	-13158
fus	-13159
hed	-13160
jan	-13161
jev	-13162
mel	-13163
mor	-13164
pin	-13165
ram	-13166
urp	-13167
vet	-13168
yll	-13169
▁00	-13170
▁76	-13171
▁83	-13172
▁bp	-13173
▁mi	-13174
▁mw	-13175
agan	-13176
alin	-13177
amil	-13178
anim	-13179
anne	-13180
anor	-13181
arks	-13182
arse	-13183
aser	-13184
ashy	-13185
atin	-13186
atma	-13187
bell	-13188
bing	-13189
brew	-13190
card	-13191
cats	-13192
dies	-13193
eryl	-13194
esis	-13195
flix	-13196
grow	-13197
home	-13198
horn	-13199
icut	-13200
imps	-13201
itha	-13202
mala	-13203
moor	-13204
nals	-13205
nity	-13206
oler	-13207
olia	-13208
olis	-13209
otal	-13210
otto	-13211
ousy	-13212
ptic	-13213
rate	-13214
shot	-13215
yles	-13216
▁14-	-13217
▁ais	-13218
▁bid	-13219
▁bou	-13220
▁dug	-13221
▁hug	-13222
▁isa	-13223
▁kal	-13224
▁lur	-13225
▁mao	-13226
▁naj	-13227
▁nih	-13228
▁nod	-13229
▁rav	-13230
▁reh	-13231
▁sap	-13232
▁tig	-13233
▁tso	-13234
▁unm	-13235
▁vic	-13236
▁vow	-13237
arity	-13238
arted	-13239
atile	-13240
atops	-13241
avors	-13242
cuses	-13243
ducer	-13244
essim	-13245
found	-13246
icill	-13247
iotic	-13248
leans	-13249
olate	-13250
olera	-13251
qaeda	-13252
stood	-13253
strip	-13254
track	-13255
watch	-13256
white	-13257
wired	-13258
▁2013	-13259
▁adds	-13260
▁adul	-13261
▁aims	-13262
▁amph	-13263
▁andy	-13264
▁asyl	-13265
▁bald	-13266
▁balk	-13267
▁bolt	-13268
▁boot	-13269
▁casc	-13270
▁cops	-13271
▁cuba	-13272
▁cush	-13273
▁cycl	-13274
▁dazz	-13275
▁dele	-13276
▁eros	-13277
▁expo	-13278
▁fade	-13279
▁flap	-13280
▁fmri	-13281
▁fond	-13282
▁geek	-13283
▁hect	-13284
▁keen	-13285
▁kent	-13286
▁lisa	-13287
▁luke	-13288
▁marc	-13289
▁nazi	-13290
▁pist	-13291
▁quir	-13292
▁ramp	-13293
▁ruin	-13294
▁shak	-13295
▁snap	-13296
▁sync	-13297
▁teap	-13298
▁todd	-13299
▁tops	-13300
▁tuck	-13301
▁ucla	-13302
▁voic	-13303
▁wang	-13304
▁wiki	-13305
▁wolf	-13306
adores	-13307
holder	-13308
icides	-13309
intend	-13310
istine	-13311
keeper	-13312
liance	-13313
manuel	-13314
ospher	-13315
ration	-13316
rocess	-13317
▁acted	-13318
▁atten	-13319
▁bayes	-13320
▁bleed	-13321
▁cybor	-13322
▁darpa	-13323
▁dimin	-13324
▁dunes	-13325
▁emplo	-13326
▁essay	-13327
▁flaws	-13328
▁flock	-13329
▁flute	-13330
▁forum	-13331
▁freud	-13332
▁gamma	-13333
▁geoff	-13334
▁goats	-13335
▁grind	-13336
▁hatch	-13337
▁helen	-13338
▁hindu	-13339
▁hints	-13340
▁humid	-13341
▁jason	-13342
▁jimmy	-13343
▁leaks	-13344
▁lined	-13345
▁linux	-13346
▁livel	-13347
▁mites	-13348
▁mommy	-13349
▁nerdy	-13350
▁outwe	-13351
▁overt	-13352
▁peaks	-13353
▁pepsi	-13354
▁ponds	-13355
▁prest	-13356
▁repos	-13357
▁ruled	-13358
▁slime	-13359
▁sling	-13360
▁snaps	-13361
▁sober	-13362
▁spike	-13363
▁spite	-13364
▁tense	-13365
▁tenth	-13366
▁tutor	-13367
▁unple	-13368
▁verbs	-13369
▁versa	-13370
▁waist	-13371
▁wreck	-13372
amiliar	-13373
atively	-13374
icillin	-13375
illions	-13376
ivation	-13377
western	-13378
▁aborig	-13379
▁ampute	-13380
▁bageye	-13381
▁barrel	-13382
▁bonnie	-13383
▁bribes	-13384
▁browse	-13385
▁canopy	-13386
▁chicks	-13387
▁clicks	-13388
▁dengue	-13389
▁dennis	-13390
▁depict	-13391
▁donald	-13392
▁forage	-13393
▁forens	-13394
▁forged	-13395
▁gossip	-13396
▁gravel	-13397
▁incomp	-13398
▁insign	-13399
▁joyful	-13400
▁junior	-13401
▁knives	-13402
▁larvae	-13403
▁lasted	-13404
▁lyrics	-13405
▁modify	-13406
▁orthop	-13407
▁paints	-13408
▁pessim	-13409
▁polite	-13410
▁queens	-13411
▁quoted	-13412
▁rezero	-13413
▁rigged	-13414
▁rubble	-13415
▁salmon	-13416
▁serial	-13417
▁slaves	-13418
▁sponge	-13419
▁spouse	-13420
▁strive	-13421
▁subtit	-13422
▁sulfur	-13423
▁taxpay	-13424
▁tigers	-13425
▁vacant	-13426
▁warmer	-13427
▁weaker	-13428
▁wounds	-13429
daughter	-13430
▁anthony	-13431
▁assumes	-13432
▁blanket	-13433
▁blended	-13434
▁blogger	-13435
▁bombers	-13436
▁cheaply	-13437
▁cholera	-13438
▁commute	-13439
▁compost	-13440
▁coupled	-13441
▁curtain	-13442
▁derived	-13443
▁excuses	-13444
▁flatten	-13445
▁freeman	-13446
▁funders	-13447
▁gallons	-13448
▁gilbert	-13449
▁heights	-13450
▁influen	-13451
▁inherit	-13452
▁intimid	-13453
▁logging	-13454
▁madness	-13455
▁mahatma	-13456
▁migrant	-13457
▁needing	-13458
▁needles	-13459
▁netflix	-13460
▁notions	-13461
▁nuanced	-13462
▁orleans	-13463
▁partial	-13464
▁planner	-13465
▁plotted	-13466
▁preview	-13467
▁prophet	-13468
▁proving	-13469
▁ranging	-13470
▁reunion	-13471
▁rushing	-13472
▁scooped	-13473
▁seminal	-13474
▁servers	-13475
▁seventy	-13476
▁shipped	-13477
▁smashed	-13478
▁tiniest	-13479
▁tipping	-13480
▁tunnels	-13481
▁ukraine	-13482
▁vibrate	-13483
▁walmart	-13484
▁wasting	-13485
▁yelling	-13486
ographing	-13487
organized	-13488
roportion	-13489
▁acoustic	-13490
▁alliance	-13491
▁antidote	-13492
▁attorney	-13493
▁auditory	-13494
▁backpack	-13495
▁balloons	-13496
▁baseline	-13497
▁bottlene	-13498
▁composer	-13499
▁develops	-13500
▁dragging	-13501
▁enabling	-13502
▁epiphany	-13503
▁gigantic	-13504
▁governed	-13505
▁grounded	-13506
▁homeland	-13507
▁immunity	-13508
▁inferior	-13509
▁needless	-13510
▁neurosur	-13511
▁outdated	-13512
▁persever	-13513
▁prevents	-13514
▁progeria	-13515
▁protects	-13516
▁quarters	-13517
▁respects	-13518
▁roommate	-13519
▁russians	-13520
▁schedule	-13521
▁shouting	-13522
▁singular	-13523
▁sinister	-13524
▁suburbia	-13525
▁superher	-13526
▁systemic	-13527
▁tasmania	-13528
▁tensions	-13529
▁underway	-13530
▁virtuous	-13531
▁amsterdam	-13532
▁asteroids	-13533
▁attacking	-13534
▁belonging	-13535
▁broadmoor	-13536
▁catadores	-13537
▁certified	-13538
▁contagion	-13539
▁corridors	-13540
▁darwinian	-13541
▁defending	-13542
▁disintegr	-13543
▁displayed	-13544
▁egyptians	-13545
▁endlessly	-13546
▁fishermen	-13547
▁graduates	-13548
▁guatemala	-13549
▁hungarian	-13550
▁mythology	-13551
▁nanoscale	-13552
▁northwest	-13553
▁oblivious	-13554
▁pediatric	-13555
▁powerless	-13556
▁prevented	-13557
▁projector	-13558
▁psychotic	-13559
▁reimagine	-13560
▁reporters	-13561
▁revealing	-13562
▁rewarding	-13563
▁stockholm	-13564
▁submitted	-13565
▁therapeut	-13566
▁tinkering	-13567
▁troubling	-13568
▁unhealthy	-13569
▁warehouse	-13570
▁whistling	-13571
appropriate	-13572
▁accidental	-13573
▁advantages	-13574
▁ambassador	-13575
▁attendance	-13576
▁auditorium	-13577
▁automotive	-13578
▁casualties	-13579
▁chimpanzee	-13580
▁concussion	-13581
▁conductive	-13582
▁containers	-13583
▁converting	-13584
▁correction	-13585
▁encounters	-13586
▁fertilizer	-13587
▁guidelines	-13588
▁improbable	-13589
▁irrigation	-13590
▁locomotion	-13591
▁mosquitoes	-13592
▁navigation	-13593
▁neurologic	-13594
▁penicillin	-13595
▁pioneering	-13596
▁predictive	-13597
▁protesters	-13598
▁randomness	-13599
▁respectful	-13600
▁responsive	-13601
▁succeeding	-13602
▁underestim	-13603
▁unfamiliar	-13604
▁unpleasant	-13605
▁campaigning	-13606
▁catastrophe	-13607
▁connecticut	-13608
▁destructive	-13609
▁determining	-13610
▁equilibrium	-13611
▁fertilizers	-13612
▁helicopters	-13613
▁hippocampus	-13614
▁integrating	-13615
▁interrupted	-13616
▁intuitively	-13617
▁manipulated	-13618
▁mathematica	-13619
▁meaningless	-13620
▁neanderthal	-13621
▁permanently	-13622
▁preventable	-13623
▁restorative	-13624
▁selectively	-13625
▁strangeness	-13626
▁suggestions	-13627
▁susceptible	-13628
▁unthinkable	-13629
▁visualizing	-13630
▁acceleration	-13631
▁biomaterials	-13632
▁considerably	-13633
▁descriptions	-13634
▁gratefulness	-13635
▁illustration	-13636
▁interviewing	-13637
▁mechanically	-13638
▁multitasking	-13639
▁passionately	-13640
▁performances	-13641
▁psychiatrist	-13642
▁standardized	-13643
▁exponentially	-13644
▁gratification	-13645
▁physiological	-13646
▁progressively	-13647
▁substantially	-13648
▁transnational	-13649
▁undergraduate	-13650
▁reconstruction	-13651
▁internationally	-13652
.2	-13653
.6	-13654
fa	-13655
ho	-13656
ml	-13657
yu	-13658
zo	-13659
afa	-13660
alo	-13661
cur	-13662
eve	-13663
iba	-13664
jah	-13665
lav	-13666
lla	-13667
lux	-13668
mur	-13669
ocy	-13670
oul	-13671
ovo	-13672
oxy	-13673
ran	-13674
sis	-13675
tic	-13676
uba	-13677
uci	-13678
xim	-13679
you	-13680
▁59	-13681
▁89	-13682
▁91	-13683
▁dm	-13684
▁ka	-13685
▁kb	-13686
▁lg	-13687
▁tb	-13688
ader	-13689
airy	-13690
alie	-13691
ayer	-13692
burn	-13693
colm	-13694
educ	-13695
eled	-13696
etts	-13697
iasm	-13698
idel	-13699
iflu	-13700
inid	-13701
itic	-13702
jevo	-13703
jour	-13704
lier	-13705
link	-13706
math	-13707
omin	-13708
onal	-13709
ople	-13710
otte	-13711
plex	-13712
rett	-13713
risk	-13714
ryst	-13715
seus	-13716
tion	-13717
type	-13718
uble	-13719
uces	-13720
unks	-13721
velt	-13722
▁1.4	-13723
▁188	-13724
▁apt	-13725
▁bax	-13726
▁bea	-13727
▁chk	-13728
▁cue	-13729
▁diy	-13730
▁eag	-13731
▁kap	-13732
▁koh	-13733
▁mau	-13734
▁mbi	-13735
▁mig	-13736
▁nag	-13737
▁neo	-13738
▁paj	-13739
▁pam	-13740
▁ply	-13741
▁sag	-13742
▁tah	-13743
▁tel	-13744
▁vod	-13745
▁wed	-13746
▁zet	-13747
0,000	-13748
achus	-13749
acles	-13750
activ	-13751
ascal	-13752
ascar	-13753
backs	-13754
barak	-13755
bbing	-13756
eight	-13757
grown	-13758
guard	-13759
idery	-13760
ihood	-13761
ilage	-13762
pable	-13763
ridge	-13764
scrib	-13765
shire	-13766
theid	-13767
trans	-13768
uated	-13769
umann	-13770
wheel	-13771
▁1957	-13772
▁1986	-13773
▁1988	-13774
▁200-	-13775
▁anne	-13776
▁apes	-13777
▁berg	-13778
▁brig	-13779
▁bulk	-13780
▁cerv	-13781
▁cray	-13782
▁crux	-13783
▁detr	-13784
▁ebay	-13785
▁epit	-13786
▁gapm	-13787
▁gaze	-13788
▁geck	-13789
▁gram	-13790
▁guts	-13791
▁hamp	-13792
▁huck	-13793
▁idol	-13794
▁jars	-13795
▁jaws	-13796
▁jess	-13797
▁juan	-13798
▁judy	-13799
▁kang	-13800
▁mard	-13801
▁meta	-13802
▁muff	-13803
▁neph	-13804
▁nope	-13805
▁outp	-13806
▁poop	-13807
▁pore	-13808
▁punk	-13809
▁pyth	-13810
▁rapp	-13811
▁rear	-13812
▁reli	-13813
▁sean	-13814
▁shah	-13815
▁sine	-13816
▁sopr	-13817
▁spam	-13818
▁subd	-13819
▁swap	-13820
▁traw	-13821
▁troy	-13822
▁unac	-13823
▁womb	-13824
aments	-13825
ateral	-13826
atized	-13827
attern	-13828
gender	-13829
iology	-13830
itives	-13831
orable	-13832
ordial	-13833
terior	-13834
usible	-13835
wright	-13836
▁admir	-13837
▁agnes	-13838
▁batch	-13839
▁camel	-13840
▁casey	-13841
▁cater	-13842
▁coins	-13843
▁crawl	-13844
▁dairy	-13845
▁decon	-13846
▁dials	-13847
▁diets	-13848
▁elvis	-13849
▁entit	-13850
▁fills	-13851
▁flags	-13852
▁grief	-13853
▁guest	-13854
▁hairs	-13855
▁hangs	-13856
▁harsh	-13857
▁hirsh	-13858
▁hives	-13859
▁homem	-13860
▁humil	-13861
▁incra	-13862
▁indef	-13863
▁inequ	-13864
▁infer	-13865
▁iraqi	-13866
▁ivory	-13867
▁jamie	-13868
▁juris	-13869
▁karen	-13870
▁leapf	-13871
▁legos	-13872
▁libya	-13873
▁mason	-13874
▁merch	-13875
▁moons	-13876
▁naomi	-13877
▁nests	-13878
▁neuro	-13879
▁oddly	-13880
▁palms	-13881
▁papua	-13882
▁perme	-13883
▁poles	-13884
▁roose	-13885
▁scarf	-13886
▁sciss	-13887
▁secre	-13888
▁seize	-13889
▁sells	-13890
▁semen	-13891
▁simul	-13892
▁sixty	-13893
▁slave	-13894
▁sneak	-13895
▁sniff	-13896
▁spine	-13897
▁typed	-13898
▁vague	-13899
▁veins	-13900
▁venom	-13901
▁watts	-13902
▁widow	-13903
▁zeros	-13904
balance	-13905
cutting	-13906
ipotent	-13907
lishing	-13908
pattern	-13909
product	-13910
profits	-13911
reating	-13912
versely	-13913
zschild	-13914
▁agrees	-13915
▁anatom	-13916
▁archae	-13917
▁asylum	-13918
▁baxter	-13919
▁bombed	-13920
▁bonnet	-13921
▁calibr	-13922
▁carter	-13923
▁cereal	-13924
▁collar	-13925
▁condem	-13926
▁costly	-13927
▁declar	-13928
▁deterg	-13929
▁discou	-13930
▁diseng	-13931
▁disson	-13932
▁drople	-13933
▁engulf	-13934
▁entity	-13935
▁evelyn	-13936
▁exceed	-13937
▁fierce	-13938
▁fixing	-13939
▁floods	-13940
▁fridge	-13941
▁gamers	-13942
▁gordon	-13943
▁hadron	-13944
▁hamlet	-13945
▁hitler	-13946
▁jargon	-13947
▁leaked	-13948
▁lesser	-13949
▁liking	-13950
▁lovers	-13951
▁mangro	-13952
▁mellon	-13953
▁moscow	-13954
▁multid	-13955
▁mutant	-13956
▁openly	-13957
▁pascal	-13958
▁payoff	-13959
▁pissed	-13960
▁pixels	-13961
▁proves	-13962
▁racial	-13963
▁refine	-13964
▁reflex	-13965
▁relies	-13966
▁scramb	-13967
▁sealed	-13968
▁sewage	-13969
▁shells	-13970
▁skelet	-13971
▁sliced	-13972
▁smiley	-13973
▁solves	-13974
▁spikes	-13975
▁spiral	-13976
▁sprint	-13977
▁stakes	-13978
▁strips	-13979
▁summit	-13980
▁surrog	-13981
▁tablet	-13982
▁teapot	-13983
▁throws	-13984
▁tricer	-13985
▁triple	-13986
▁unsafe	-13987
▁valves	-13988
▁waving	-13989
▁yields	-13990
▁zipcar	-13991
chemical	-13992
designed	-13993
dropping	-13994
invasive	-13995
irection	-13996
oseconds	-13997
ospheric	-13998
shifting	-13999
▁arrives	-14000
▁assault	-14001
▁bahamas	-14002
▁ballast	-14003
▁betting	-14004
▁beverly	-14005
▁boiling	-14006
▁bombard	-14007
▁bombing	-14008
▁broadly	-14009
▁casting	-14010
▁cleared	-14011
▁conform	-14012
▁confuse	-14013
▁crashes	-14014
▁demoral	-14015
▁devised	-14016
▁drowned	-14017
▁encoded	-14018
▁erosion	-14019
▁firefly	-14020
▁fitting	-14021
▁grounds	-14022
▁heather	-14023
▁indiana	-14024
▁induced	-14025
▁invaded	-14026
▁kissing	-14027
▁lawsuit	-14028
▁loyalty	-14029
▁malcolm	-14030
▁mubarak	-14031
▁municip	-14032
▁oysters	-14033
▁pasting	-14034
▁payload	-14035
▁peanuts	-14036
▁popcorn	-14037
▁rehears	-14038
▁scripts	-14039
▁spotted	-14040
▁stuffed	-14041
▁tamiflu	-14042
▁tearing	-14043
▁tedster	-14044
▁textile	-14045
▁thinker	-14046
▁touches	-14047
▁turkish	-14048
▁unleash	-14049
▁visuals	-14050
▁vividly	-14051
▁warfare	-14052
▁whatnot	-14053
▁whereby	-14054
achusetts	-14055
amination	-14056
condition	-14057
▁abnormal	-14058
▁adapting	-14059
▁adopting	-14060
▁alarming	-14061
▁altruism	-14062
▁anecdote	-14063
▁archives	-14064
▁arranged	-14065
▁attended	-14066
▁aviation	-14067
▁chapters	-14068
▁chemists	-14069
▁cleaners	-14070
▁collects	-14071
▁collider	-14072
▁concerts	-14073
▁consumes	-14074
▁contacts	-14075
▁damaging	-14076
▁daunting	-14077
▁decisive	-14078
▁delicate	-14079
▁demanded	-14080
▁destined	-14081
▁deterior	-14082
▁discrete	-14083
▁droughts	-14084
▁enduring	-14085
▁estrogen	-14086
▁extremes	-14087
▁foraging	-14088
▁gridlock	-14089
▁headache	-14090
▁holistic	-14091
▁implicit	-14092
▁imposing	-14093
▁impulses	-14094
▁islamist	-14095
▁journals	-14096
▁lifelong	-14097
▁moderate	-14098
▁numerous	-14099
▁nutrient	-14100
▁odysseus	-14101
▁orbiting	-14102
▁outweigh	-14103
▁pavilion	-14104
▁portable	-14105
▁predicts	-14106
▁pyramids	-14107
▁resolved	-14108
▁restored	-14109
▁resulted	-14110
▁reviewed	-14111
▁sarajevo	-14112
▁scalable	-14113
▁searched	-14114
▁semester	-14115
▁severely	-14116
▁shortcut	-14117
▁shredded	-14118
▁simplify	-14119
▁speeding	-14120
▁suburban	-14121
▁synapses	-14122
▁tackling	-14123
▁tolerate	-14124
▁toughest	-14125
▁triggers	-14126
▁wondrous	-14127
▁wrinkles	-14128
▁accenture	-14129
▁analogies	-14130
▁anonymity	-14131
▁appearing	-14132
▁butterfly	-14133
▁byproduct	-14134
▁caregiver	-14135
▁carpenter	-14136
▁cartilage	-14137
▁charlotte	-14138
▁collector	-14139
▁contracts	-14140
▁creations	-14141
▁decreased	-14142
▁digitized	-14143
▁dominance	-14144
▁electrode	-14145
▁embryonic	-14146
▁encrypted	-14147
▁enjoyment	-14148
▁examining	-14149
▁exhausted	-14150
▁frontiers	-14151
▁gapminder	-14152
▁genuinely	-14153
▁governors	-14154
▁inability	-14155
▁incorrect	-14156
▁miniature	-14157
▁motivates	-14158
▁nanotubes	-14159
▁offensive	-14160
▁orangutan	-14161
▁periphery	-14162
▁pollinate	-14163
▁pragmatic	-14164
▁promotion	-14165
▁proposing	-14166
▁reluctant	-14167
▁restoring	-14168
▁resurrect	-14169
▁roosevelt	-14170
▁sanctuary	-14171
▁shattered	-14172
▁slightest	-14173
▁streaming	-14174
▁stretched	-14175
▁undermine	-14176
▁violation	-14177
▁visionary	-14178
▁waterfall	-14179
▁whirlwind	-14180
▁workshops	-14181
▁astounding	-14182
▁attempting	-14183
▁charitable	-14184
▁clinically	-14185
▁complained	-14186
▁conviction	-14187
▁correlated	-14188
▁creatively	-14189
▁depressing	-14190
▁embroidery	-14191
▁encourages	-14192
▁enthusiasm	-14193
▁executives	-14194
▁explosions	-14195
▁filmmakers	-14196
▁illiterate	-14197
▁insignific	-14198
▁legitimacy	-14199
▁livelihood	-14200
▁measurable	-14201
▁orthopedic	-14202
▁positively	-14203
▁preserving	-14204
▁presumably	-14205
▁primordial	-14206
▁propulsion	-14207
▁renewables	-14208
▁synthesize	-14209
▁transcript	-14210
▁transforms	-14211
▁transistor	-14212
▁translates	-14213
▁vaccinated	-14214
▁vegetation	-14215
▁accommodate	-14216
▁atmospheric	-14217
▁cartoonists	-14218
▁certificate	-14219
▁definitions	-14220
▁exceptional	-14221
▁exhibitions	-14222
▁instability	-14223
▁motivations	-14224
▁nutritional	-14225
▁positioning	-14226
▁psychopaths	-14227
▁reservation	-14228
▁residential	-14229
▁settlements	-14230
▁smartphones	-14231
▁triceratops	-14232
▁unnecessary	-14233
▁arrangements	-14234
▁dictatorship	-14235
▁enthusiastic	-14236
▁heterosexual	-14237
▁interference	-14238
▁manufacturer	-14239
▁peacekeepers	-14240
▁photographic	-14241
▁prescription	-14242
▁psychopathic	-14243
▁spirituality	-14244
▁thanksgiving	-14245
▁unbelievably	-14246
▁demonstrating	-14247
▁differentiate	-14248
▁disproportion	-14249
▁extracellular	-14250
▁incarceration	-14251
▁inspirational	-14252
▁massachusetts	-14253
▁photographing	-14254
▁presentations	-14255
▁refrigerators	-14256
▁schwarzschild	-14257
▁accomplishment	-14258
▁bioluminescent	-14259
▁groundbreaking	-14260
▁bioluminescence	-14261
-3	-14262
eb	-14263
fs	-14264
ji	-14265
mi	-14266
rd	-14267
▁%	-14268
aba	-14269
aic	-14270
alg	-14271
amy	-14272
aya	-14273
azo	-14274
bao	-14275
bec	-14276
but	-14277
fed	-14278
gur	-14279
ibi	-14280
ieu	-14281
oks	-14282
ols	-14283
ori	-14284
pop	-14285
ref	-14286
roç	-14287
sim	-14288
squ	-14289
ste	-14290
upp	-14291
uty	-14292
▁3,	-14293
▁3-	-14294
▁71	-14295
▁gn	-14296
▁ic	-14297
▁jk	-14298
▁td	-14299
▁ul	-14300
▁um	-14301
▁uv	-14302
agne	-14303
agra	-14304
amie	-14305
asis	-14306
copy	-14307
emia	-14308
enti	-14309
erry	-14310
felt	-14311
flow	-14312
ileo	-14313
insp	-14314
iret	-14315
iser	-14316
isol	-14317
mach	-14318
mies	-14319
onds	-14320
oria	-14321
othy	-14322
oufl	-14323
phem	-14324
prot	-14325
race	-14326
rels	-14327
rick	-14328
riel	-14329
text	-14330
thia	-14331
udge	-14332
unky	-14333
uper	-14334
week	-14335
wick	-14336
wire	-14337
yrus	-14338
▁101	-14339
▁401	-14340
▁750	-14341
▁adh	-14342
▁axe	-14343
▁bbc	-14344
▁cer	-14345
▁cuc	-14346
▁eeg	-14347
▁eru	-14348
▁esg	-14349
▁fah	-14350
▁hes	-14351
▁hex	-14352
▁hid	-14353
▁hoc	-14354
▁imf	-14355
▁kas	-14356
▁nad	-14357
▁opa	-14358
▁pas	-14359
▁pia	-14360
▁pod	-14361
▁tul	-14362
▁tvs	-14363
▁vet	-14364
▁wag	-14365
▁wiz	-14366
▁yep	-14367
arial	-14368
atics	-14369
borne	-14370
check	-14371
chief	-14372
count	-14373
creas	-14374
cribe	-14375
ermat	-14376
first	-14377
grass	-14378
green	-14379
idays	-14380
igate	-14381
ingly	-14382
inois	-14383
lapse	-14384
olith	-14385
ophys	-14386
opian	-14387
owden	-14388
owned	-14389
pical	-14390
ravel	-14391
shine	-14392
space	-14393
store	-14394
swana	-14395
toire	-14396
traum	-14397
ureka	-14398
width	-14399
▁100-	-14400
▁1918	-14401
▁1940	-14402
▁1965	-14403
▁1973	-14404
▁1979	-14405
▁1982	-14406
▁1991	-14407
▁1993	-14408
▁2015	-14409
▁99.9	-14410
▁anas	-14411
▁bagh	-14412
▁bark	-14413
▁boil	-14414
▁cada	-14415
▁disk	-14416
▁dove	-14417
▁duke	-14418
▁dune	-14419
▁eden	-14420
▁emma	-14421
▁glam	-14422
▁gour	-14423
▁herb	-14424
[...]
