<unk>	0
<s>	0
</s>	0
▁t	-0
ng	-1
▁c	-2
▁đ	-3
▁n	-4
▁v	-5
▁th	-6
▁l	-7
▁m	-8
▁ch	-9
▁b	-10
▁nh	-11
▁h	-12
▁,	-13
▁.	-14
▁k	-15
▁s	-16
▁tr	-17
nh	-18
▁kh	-19
▁và	-20
▁g	-21
▁ng	-22
▁là	-23
ôi	-24
▁tôi	-25
▁r	-26
▁p	-27
▁d	-28
ông	-29
▁ph	-30
ác	-31
ột	-32
qu	-33
▁một	-34
▁có	-35
▁chú	-36
▁gi	-37
▁chúng	-38
ên	-39
iệ	-40
ời	-41
ững	-42
▁những	-43
ới	-44
▁củ	-45
▁của	-46
iế	-47
ất	-48
▁các	-49
ạn	-50
▁nó	-51
▁ta	-52
▁qu	-53
▁không	-54
▁nà	-55
▁đó	-56
iề	-57
▁bạn	-58
ượ	-59
ong	-60
▁x	-61
▁như	-62
ười	-63
▁người	-64
iều	-65
▁trong	-66
ại	-67
▁ngh	-68
▁thể	-69
▁họ	-70
ược	-71
uy	-72
▁này	-73
▁đã	-74
▁được	-75
ây	-76
▁&	-77
ot	-78
ình	-79
▁với	-80
ấy	-81
▁cho	-82
quot	-83
▁sự	-84
an	-85
▁ra	-86
ay	-87
▁làm	-88
▁mà	-89
ần	-90
ải	-91
▁ở	-92
ang	-93
▁để	-94
▁điều	-95
iên	-96
▁cả	-97
ằng	-98
ực	-99
▁về	-100
▁sẽ	-101
▁thế	-102
▁khi	-103
▁ho	-104
ái	-105
ống	-106
ơn	-107
ân	-108
anh	-109
ật	-110
iết	-111
iể	-112
ầu	-113
on	-114
ướ	-115
ch	-116
▁từ	-117
ến	-118
ành	-119
▁đây	-120
ai	-121
▁nói	-122
▁nhưng	-123
inh	-124
ao	-125
▁nă	-126
ết	-127
iện	-128
ức	-129
▁1	-130
▁đến	-131
uố	-132
▁phải	-133
▁?	-134
ính	-135
▁vào	-136
iệc	-137
▁vì	-138
ước	-139
ườ	-140
▁việc	-141
▁rằng	-142
▁gì	-143
▁đang	-144
▁độ	-145
ường	-146
àn	-147
au	-148
in	-149
▁rất	-150
▁lại	-151
ản	-152
▁nghĩ	-153
▁thấy	-154
ận	-155
âu	-156
▁cách	-157
▁hơn	-158
▁nhiều	-159
▁thực	-160
ùng	-161
ươ	-162
▁đầu	-163
ài	-164
▁khác	-165
▁con	-166
ậy	-167
▁chỉ	-168
ương	-169
iến	-170
▁cái	-171
▁học	-172
▁công	-173
▁trên	-174
▁-	-175
ối	-176
▁vậy	-177
ạo	-178
ọi	-179
ổi	-180
ếu	-181
▁nào	-182
▁biết	-183
▁chuy	-184
▁đề	-185
▁năm	-186
▁thứ	-187
ung	-188
át	-189
àng	-190
iệu	-191
ũng	-192
▁đi	-193
uốn	-194
▁nếu	-195
ơi	-196
▁thành	-197
▁dụ	-198
ắt	-199
▁cũng	-200
▁:	-201
▁nhà	-202
ộc	-203
▁số	-204
▁to	-205
▁--	-206
áng	-207
ích	-208
▁kho	-209
uộc	-210
▁bị	-211
▁quan	-212
em	-213
▁nên	-214
▁muốn	-215
ồi	-216
ập	-217
ăn	-218
ấn	-219
▁anh	-220
eo	-221
úc	-222
ởi	-223
▁lo	-224
▁mình	-225
▁tại	-226
▁chính	-227
▁nhất	-228
ữa	-229
▁tạo	-230
▁giờ	-231
▁động	-232
án	-233
ưở	-234
ưởng	-235
▁giới	-236
ặt	-237
▁ông	-238
▁hiện	-239
▁mọi	-240
▁bởi	-241
▁tất	-242
▁hình	-243
òn	-244
▁lớ	-245
ền	-246
▁tiế	-247
ày	-248
ắc	-249
ưa	-250
êu	-251
ỏi	-252
▁cảm	-253
iểu	-254
ện	-255
▁thu	-256
▁hay	-257
▁sống	-258
▁sau	-259
▁cuộc	-260
âm	-261
er	-262
▁nhận	-263
ượng	-264
▁thật	-265
am	-266
▁ý	-267
▁quy	-268
ìn	-269
▁tố	-270
ứng	-271
▁cần	-272
▁2	-273
▁tự	-274
▁còn	-275
▁thì	-276
ặc	-277
ánh	-278
▁đị	-279
▁theo	-280
áo	-281
ôn	-282
00	-283
ội	-284
▁câu	-285
▁đồ	-286
▁bắt	-287
▁nhìn	-288
ọng	-289
en	-290
▁ấy	-291
òng	-292
▁tới	-293
▁bằng	-294
▁y	-295
▁cùng	-296
▁lớn	-297
ẫn	-298
▁bản	-299
iểm	-300
▁ngày	-301
▁do	-302
▁cứ	-303
▁tế	-304
▁sao	-305
▁tin	-306
▁thời	-307
▁dụng	-308
▁bộ	-309
▁lên	-310
▁cơ	-311
▁chuyện	-312
▁trước	-313
▁nhân	-314
▁qua	-315
ảng	-316
▁trở	-317
▁sinh	-318
ar	-319
iệm	-320
▁phần	-321
ỗi	-322
▁nước	-323
▁năng	-324
▁sử	-325
▁lu	-326
▁phát	-327
ạt	-328
▁ả	-329
ục	-330
▁thay	-331
▁vấn	-332
ìm	-333
▁toàn	-334
▁đổi	-335
▁dự	-336
ia	-337
▁thông	-338
iệt	-339
▁nơi	-340
iển	-341
▁gia	-342
áy	-343
▁di	-344
▁mới	-345
▁tìm	-346
▁nhau	-347
▁trường	-348
ốc	-349
▁xu	-350
▁hã	-351
▁hệ	-352
▁định	-353
▁nhiên	-354
▁kết	-355
▁tính	-356
▁tốt	-357
▁tuy	-358
▁cô	-359
▁tưởng	-360
▁mạ	-361
▁tu	-362
▁lý	-363
▁trình	-364
▁rồi	-365
▁hàng	-366
▁vật	-367
ấu	-368
ăng	-369
ấp	-370
ảy	-371
ảo	-372
▁hỏi	-373
▁liệu	-374
▁máy	-375
▁ai	-376
▁mặt	-377
ợp	-378
▁ảnh	-379
▁hợp	-380
ạc	-381
im	-382
ách	-383
▁tiếp	-384
▁kinh	-385
ển	-386
áp	-387
▁hai	-388
▁hành	-389
▁hãy	-390
ắn	-391
▁vị	-392
▁hội	-393
▁chiế	-394
▁nữa	-395
▁thiết	-396
▁hoá	-397
▁gian	-398
▁xem	-399
▁thức	-400
▁trung	-401
▁bà	-402
▁thích	-403
▁trọng	-404
▁đồng	-405
▁giải	-406
ễn	-407
ồn	-408
▁trẻ	-409
▁vài	-410
iêu	-411
ệnh	-412
▁đối	-413
▁bất	-414
▁đo	-415
▁lượng	-416
▁thường	-417
▁giống	-418
ắng	-419
▁lần	-420
▁đều	-421
▁tiên	-422
▁loại	-423
▁quá	-424
▁sáng	-425
▁bao	-426
▁nay	-427
▁hiểu	-428
▁tâm	-429
▁3	-430
al	-431
▁bệnh	-432
▁thống	-433
▁nghệ	-434
▁cứu	-435
ộng	-436
▁ngo	-437
ịch	-438
úng	-439
▁điểm	-440
▁vi	-441
▁nghĩa	-442
▁viên	-443
êm	-444
ám	-445
ệt	-446
▁đại	-447
▁gọi	-448
iền	-449
▁tương	-450
▁giả	-451
▁nhỏ	-452
▁quốc	-453
▁hoàn	-454
▁hoặc	-455
▁lúc	-456
▁đưa	-457
▁mỗi	-458
▁tác	-459
▁đường	-460
▁quả	-461
▁nghiệm	-462
▁bây	-463
▁vẫn	-464
▁chiếc	-465
▁nguy	-466
▁bên	-467
or	-468
▁xảy	-469
▁thuật	-470
▁dùng	-471
▁dân	-472
▁biệt	-473
▁đất	-474
▁tổ	-475
▁truy	-476
▁em	-477
▁từng	-478
▁khoảng	-479
ẳng	-480
▁nghe	-481
ẩn	-482
▁chuyển	-483
▁diễn	-484
ọn	-485
▁tuyệt	-486
ão	-487
▁triển	-488
▁đúng	-489
iệp	-490
▁cố	-491
▁quyết	-492
▁cao	-493
▁ăn	-494
▁dạ	-495
▁giáo	-496
▁trị	-497
▁phụ	-498
▁chất	-499
ừng	-500
▁cầu	-501
▁khu	-502
úp	-503
▁kế	-504
uối	-505
▁liên	-506
▁chủ	-507
es	-508
el	-509
▁lực	-510
▁lời	-511
▁bảo	-512
▁tiến	-513
ép	-514
óng	-515
▁ơn	-516
ầm	-517
ứa	-518
▁giá	-519
▁phòng	-520
ăm	-521
▁chưa	-522
út	-523
▁ngay	-524
▁nghiên	-525
▁nữ	-526
ắp	-527
ẩm	-528
▁giúp	-529
▁hết	-530
ợi	-531
▁tình	-532
▁phí	-533
▁đơn	-534
▁xuất	-535
▁xe	-536
▁phương	-537
▁điện	-538
▁bình	-539
▁w	-540
ướng	-541
os	-542
▁não	-543
▁phân	-544
ưới	-545
▁tranh	-546
▁tiếng	-547
▁khó	-548
▁bài	-549
▁truyền	-550
▁mang	-551
▁tuổi	-552
▁tập	-553
▁j	-554
▁kỳ	-555
▁tay	-556
▁cuối	-557
▁đặt	-558
▁khoa	-559
▁tho	-560
▁tiền	-561
▁tượng	-562
ậu	-563
▁sản	-564
▁pháp	-565
▁biến	-566
▁so	-567
▁gần	-568
▁giữa	-569
ít	-570
▁khả	-571
ét	-572
▁yêu	-573
▁trả	-574
▁lấy	-575
▁ba	-576
▁thú	-577
▁bé	-578
▁chiến	-579
ạnh	-580
is	-581
▁cá	-582
et	-583
▁bỏ	-584
▁chu	-585
▁bu	-586
ặp	-587
▁a	-588
▁hoạt	-589
óc	-590
▁thị	-591
ửa	-592
▁xã	-593
▁đáng	-594
▁sách	-595
▁chí	-596
▁mỹ	-597
▁kể	-598
▁5	-599
▁phẩm	-600
ấm	-601
▁hiệu	-602
▁chơi	-603
▁gh	-604
▁sức	-605
▁bức	-606
▁mất	-607
▁thân	-608
▁f	-609
▁đời	-610
ọc	-611
▁đấy	-612
▁ngoài	-613
▁loài	-614
▁minh	-615
ẫu	-616
▁ít	-617
▁tên	-618
▁mô	-619
▁tài	-620
ic	-621
ed	-622
▁âm	-623
▁4	-624
▁cộng	-625
▁nghiệp	-626
▁lập	-627
▁mạnh	-628
▁khí	-629
▁luôn	-630
▁dẫn	-631
óm	-632
ừa	-633
▁thử	-634
▁văn	-635
▁xây	-636
▁tinh	-637
at	-638
ậm	-639
▁bố	-640
▁trí	-641
▁tiêu	-642
▁ví	-643
▁vô	-644
▁dựng	-645
▁mẹ	-646
▁chứng	-647
▁cụ	-648
▁tử	-649
▁phố	-650
▁nguyên	-651
▁nhạc	-652
▁hướng	-653
uyết	-654
▁viết	-655
▁đâu	-656
▁kiến	-657
ào	-658
ôm	-659
▁tư	-660
▁đặc	-661
ầy	-662
▁trái	-663
it	-664
il	-665
ap	-666
▁vời	-667
▁đứa	-668
▁chọn	-669
▁giản	-670
▁chức	-671
▁chế	-672
▁ứng	-673
▁quyền	-674
▁bào	-675
▁suy	-676
▁chết	-677
ạm	-678
▁mạng	-679
▁nền	-680
▁ngu	-681
▁o	-682
▁đạo	-683
▁triệu	-684
▁vụ	-685
▁cấp	-686
▁màu	-687
iếm	-688
ạp	-689
▁sĩ	-690
▁thần	-691
▁tăng	-692
▁lẽ	-693
▁tháng	-694
ẹp	-695
ạch	-696
▁dù	-697
▁phá	-698
▁cực	-699
▁khỏi	-700
▁dưới	-701
▁đánh	-702
▁khá	-703
▁gặp	-704
ắm	-705
as	-706
▁phi	-707
▁xin	-708
▁hôm	-709
▁chẳng	-710
▁xuống	-711
▁chắc	-712
▁chút	-713
▁thêm	-714
▁mu	-715
▁rõ	-716
▁nhóm	-717
▁dịch	-718
▁dữ	-719
▁gắng	-720
âng	-721
▁phép	-722
▁quanh	-723
▁quay	-724
▁xác	-725
▁mở	-726
▁án	-727
▁bay	-728
▁..	-729
▁khiến	-730
▁10	-731
▁mức	-732
▁trò	-733
▁%	-734
000	-735
▁vực	-736
▁thuyết	-737
▁tham	-738
▁chia	-739
▁nhanh	-740
▁dạng	-741
▁duy	-742
▁đàn	-743
▁nguồn	-744
▁vùng	-745
ồng	-746
▁cảnh	-747
▁báo	-748
▁gây	-749
▁đôi	-750
▁vọng	-751
▁châu	-752
▁càng	-753
▁chị	-754
▁giác	-755
▁thậm	-756
▁trang	-757
▁dễ	-758
▁phía	-759
▁tục	-760
▁kì	-761
▁đẹp	-762
iê	-763
▁vũ	-764
▁cây	-765
▁sát	-766
▁đoạn	-767
▁đủ	-768
▁xa	-769
▁biểu	-770
▁nhớ	-771
▁in	-772
▁vu	-773
▁19	-774
áu	-775
▁u	-776
▁20	-777
ol	-778
▁phim	-779
iêng	-780
ưu	-781
▁hưởng	-782
▁kiểm	-783
▁thương	-784
▁...	-785
▁vòng	-786
▁phản	-787
▁dài	-788
▁hồi	-789
and	-790
▁luận	-791
ter	-792
▁ngữ	-793
ạy	-794
▁cậu	-795
▁trời	-796
ủng	-797
▁kia	-798
▁giảm	-799
▁dục	-800
▁thôi	-801
uốc	-802
▁ty	-803
▁chân	-804
▁bước	-805
▁vừa	-806
▁lợi	-807
▁hu	-808
ằm	-809
▁đầy	-810
▁kiếm	-811
▁đô	-812
▁chi	-813
▁thuốc	-814
▁thư	-815
▁tích	-816
▁mục	-817
apos	-818
▁lai	-819
▁trăm	-820
▁hộ	-821
▁hầu	-822
▁giao	-823
▁toán	-824
le	-825
▁6	-826
ựa	-827
▁tỉ	-828
▁môi	-829
▁lệ	-830
ưỡ	-831
▁đình	-832
iếu	-833
▁ro	-834
▁hạn	-835
▁vâng	-836
▁địa	-837
▁sâu	-838
▁i	-839
▁;	-840
▁co	-841
▁mã	-842
▁giữ	-843
▁diện	-844
▁phục	-845
▁trải	-846
▁thanh	-847
▁tồn	-848
▁sai	-849
ra	-850
▁tạp	-851
▁luật	-852
ụp	-853
iềm	-854
▁thí	-855
▁nối	-856
▁lòng	-857
▁lã	-858
▁đoán	-859
▁riêng	-860
▁thuộc	-861
▁dành	-862
uốt	-863
▁căn	-864
▁tối	-865
▁vẻ	-866
▁rộng	-867
▁dạy	-868
▁lịch	-869
▁đứng	-870
▁mắt	-871
▁đạt	-872
▁sợ	-873
▁vệ	-874
▁nổi	-875
▁phủ	-876
▁nghi	-877
▁kỹ	-878
▁mẫu	-879
▁xung	-880
▁thúc	-881
▁trông	-882
àu	-883
▁ánh	-884
▁thái	-885
▁ấn	-886
▁bàn	-887
▁đọc	-888
ac	-889
▁trụ	-890
▁chương	-891
▁lớp	-892
▁la	-893
▁cuốn	-894
▁kỷ	-895
▁chạy	-896
▁sẻ	-897
▁yếu	-898
▁mù	-899
▁!	-900
ặng	-901
▁mối	-902
▁ngồi	-903
us	-904
▁tiết	-905
▁gái	-906
▁khắp	-907
▁phút	-908
▁vui	-909
▁ted	-910
▁7	-911
▁khoẻ	-912
▁suốt	-913
▁thiên	-914
▁ngôn	-915
▁buổi	-916
▁trợ	-917
▁biển	-918
▁da	-919
▁sư	-920
ạng	-921
▁kiểu	-922
▁chắn	-923
▁9	-924
▁an	-925
ượt	-926
▁kiện	-927
eb	-928
ew	-929
▁8	-930
▁mua	-931
▁chung	-932
▁đông	-933
▁trúc	-934
▁ké	-935
▁nam	-936
ad	-937
▁hoa	-938
▁doanh	-939
id	-940
▁tuần	-941
▁sắc	-942
ro	-943
▁sở	-944
▁vận	-945
▁cửa	-946
▁viện	-947
--	-948
▁cánh	-949
▁xét	-950
▁khám	-951
▁ngạc	-952
▁bán	-953
▁xúc	-954
▁st	-955
▁lâu	-956
èo	-957
▁đa	-958
▁ngôi	-959
▁ban	-960
▁cấu	-961
▁ràng	-962
▁nhiệm	-963
▁hiểm	-964
▁thoại	-965
▁mặc	-966
▁chụp	-967
▁kích	-968
▁hoà	-969
▁phức	-970
▁200	-971
▁quý	-972
▁nằm	-973
▁bóng	-974
▁bác	-975
▁nhập	-976
ing	-977
▁băng	-978
▁chuyên	-979
▁e	-980
ĩnh	-981
ưỡng	-982
▁cung	-983
▁ngành	-984
▁hy	-985
▁độc	-986
▁kẻ	-987
▁chỗ	-988
▁chứ	-989
▁cạnh	-990
▁hạnh	-991
oo	-992
ếp	-993
ữu	-994
▁hữu	-995
▁trưởng	-996
▁đức	-997
▁khủng	-998
▁thập	-999
▁tra	-1000
▁vẽ	-1001
▁tổng	-1002
ảm	-1003
ỏng	-1004
▁su	-1005
▁tấm	-1006
▁tim	-1007
▁ghi	-1008
ẵn	-1009
▁chuẩn	-1010
▁phúc	-1011
▁hi	-1012
▁tệ	-1013
▁tức	-1014
▁xanh	-1015
ốt	-1016
▁ích	-1017
▁chịu	-1018
▁sẵn	-1019
ẩy	-1020
▁thiếu	-1021
▁sắp	-1022
ửi	-1023
▁hề	-1024
▁lắng	-1025
▁hơi	-1026
▁al	-1027
▁tái	-1028
ảnh	-1029
▁hoạ	-1030
▁nhiêu	-1031
▁phạm	-1032
▁dựa	-1033
▁tây	-1034
ộn	-1035
▁áp	-1036
▁khăn	-1037
▁chống	-1038
▁đau	-1039
▁mong	-1040
úi	-1041
▁may	-1042
▁thất	-1043
▁bánh	-1044
▁niệm	-1045
▁lạc	-1046
▁mi	-1047
▁cha	-1048
▁lạ	-1049
▁trai	-1050
▁toà	-1051
ón	-1052
▁dung	-1053
▁đóng	-1054
uôi	-1055
▁xử	-1056
▁cải	-1057
▁nội	-1058
▁lựa	-1059
▁đội	-1060
▁hạt	-1061
▁đột	-1062
▁ẩn	-1063
▁tỷ	-1064
uyên	-1065
▁nhi	-1066
▁trực	-1067
▁cổ	-1068
▁gửi	-1069
▁30	-1070
▁tầm	-1071
▁hậu	-1072
▁mật	-1073
▁new	-1074
▁vượt	-1075
om	-1076
ur	-1077
ưng	-1078
▁chăm	-1079
▁khắc	-1080
▁khổ	-1081
▁xấu	-1082
▁dương	-1083
▁nhu	-1084
▁ngoại	-1085
▁dần	-1086
▁danh	-1087
▁hứng	-1088
▁lưu	-1089
▁chiều	-1090
▁kính	-1091
▁nhiệt	-1092
▁dầu	-1093
▁niềm	-1094
▁thiện	-1095
ốn	-1096
▁trạng	-1097
▁ngược	-1098
#9	-1099
▁tí	-1100
▁&#9	-1101
▁lãnh	-1102
▁ô	-1103
▁100	-1104
▁dấu	-1105
▁sang	-1106
▁tội	-1107
▁nhiễ	-1108
▁thủ	-1109
▁ung	-1110
▁ước	-1111
▁nạn	-1112
▁15	-1113
▁nghèo	-1114
▁đấu	-1115
net	-1116
▁chữ	-1117
▁nỗi	-1118
▁50	-1119
▁thách	-1120
▁cận	-1121
▁ổ	-1122
▁đẩy	-1123
▁xo	-1124
▁khách	-1125
▁chữa	-1126
▁ngủ	-1127
▁đen	-1128
▁kéo	-1129
ồm	-1130
ri	-1131
▁rob	-1132
▁tắc	-1133
▁nhờ	-1134
▁gen	-1135
▁nửa	-1136
▁quân	-1137
▁nuôi	-1138
▁quản	-1139
ãi	-1140
▁lí	-1141
th	-1142
▁giấy	-1143
▁tiện	-1144
li	-1145
▁bại	-1146
ist	-1147
▁lĩnh	-1148
▁lỗi	-1149
▁khối	-1150
▁cử	-1151
▁bắc	-1152
▁tốc	-1153
▁inter	-1154
ẩu	-1155
ran	-1156
▁dây	-1157
▁nhiễm	-1158
▁cắt	-1159
▁hát	-1160
▁soát	-1161
▁khiển	-1162
ỉnh	-1163
▁hoạch	-1164
▁mắc	-1165
▁đu	-1166
▁lan	-1167
lo	-1168
▁tả	-1169
▁gồm	-1170
▁mar	-1171
▁quen	-1172
▁đừng	-1173
õi	-1174
▁ti	-1175
▁sóc	-1176
▁gó	-1177
▁cười	-1178
▁giết	-1179
▁mơ	-1180
▁bốn	-1181
▁hại	-1182
▁xếp	-1183
▁lái	-1184
▁thẳng	-1185
▁đá	-1186
▁web	-1187
▁đích	-1188
▁phóng	-1189
▁internet	-1190
▁mê	-1191
▁bầu	-1192
▁thi	-1193
▁đêm	-1194
▁chiếu	-1195
▁điển	-1196
▁hỗ	-1197
▁nhật	-1198
▁phong	-1199
▁dòng	-1200
▁khán	-1201
▁lưới	-1202
▁thấp	-1203
gh	-1204
▁ca	-1205
▁bày	-1206
▁khai	-1207
▁ngắn	-1208
▁cập	-1209
▁gấp	-1210
▁tàu	-1211
ph	-1212
▁cư	-1213
▁giai	-1214
▁rối	-1215
▁dàng	-1216
re	-1217
▁gốc	-1218
▁chúa	-1219
▁niên	-1220
▁bí	-1221
▁hồ	-1222
▁sàng	-1223
▁nông	-1224
ard	-1225
▁giây	-1226
▁ngân	-1227
▁chấp	-1228
▁ngờ	-1229
▁siêu	-1230
▁kỉ	-1231
▁đổ	-1232
ah	-1233
▁vai	-1234
▁lắm	-1235
▁đem	-1236
▁chuyến	-1237
▁trừ	-1238
ặn	-1239
▁cáo	-1240
▁tận	-1241
▁/	-1242
▁tôn	-1243
▁đỡ	-1244
▁trách	-1245
▁cám	-1246
un	-1247
▁sân	-1248
▁12	-1249
▁cân	-1250
▁đợi	-1251
▁ảo	-1252
▁phẫu	-1253
▁nghị	-1254
▁nhảy	-1255
▁xuyên	-1256
▁bạo	-1257
▁gắn	-1258
▁chim	-1259
èn	-1260
▁cam	-1261
▁hài	-1262
▁thụ	-1263
▁dừng	-1264
ầng	-1265
▁ngàn	-1266
ton	-1267
▁jo	-1268
▁ký	-1269
▁âu	-1270
deo	-1271
▁kĩ	-1272
▁màn	-1273
▁tầng	-1274
▁video	-1275
ey	-1276
▁thơ	-1277
▁cháu	-1278
▁lao	-1279
▁hà	-1280
▁đỏ	-1281
ork	-1282
▁sh	-1283
▁phổ	-1284
▁tải	-1285
▁đảm	-1286
▁khởi	-1287
ck	-1288
▁tù	-1289
▁du	-1290
,000	-1291
▁hấp	-1292
▁chỉnh	-1293
▁góc	-1294
ine	-1295
▁mạch	-1296
▁nhắc	-1297
uyện	-1298
▁bang	-1299
▁rừng	-1300
▁dĩ	-1301
▁hộp	-1302
▁mùa	-1303
▁khái	-1304
▁hút	-1305
▁chuột	-1306
ót	-1307
ẳn	-1308
▁mấy	-1309
▁thải	-1310
ag	-1311
▁khuôn	-1312
▁món	-1313
▁ngăn	-1314
▁nghiêm	-1315
iếp	-1316
▁lá	-1317
▁can	-1318
▁hẳn	-1319
▁luyện	-1320
▁kê	-1321
▁ổn	-1322
▁đám	-1323
▁york	-1324
▁già	-1325
▁coi	-1326
▁tai	-1327
▁robot	-1328
▁ar	-1329
▁tín	-1330
▁phận	-1331
▁giàu	-1332
▁tấn	-1333
▁thắng	-1334
ềm	-1335
▁môn	-1336
▁đảo	-1337
▁huỷ	-1338
▁giọng	-1339
▁tuyến	-1340
▁chứa	-1341
▁liệt	-1342
▁18	-1343
son	-1344
▁quyển	-1345
▁am	-1346
▁nặng	-1347
▁hạ	-1348
òi	-1349
▁vân	-1350
▁sóng	-1351
▁mềm	-1352
▁dậy	-1353
▁chủng	-1354
ill	-1355
▁chờ	-1356
▁phù	-1357
▁ống	-1358
▁trùng	-1359
▁trao	-1360
▁máu	-1361
▁buộc	-1362
▁40	-1363
▁chóng	-1364
▁thảo	-1365
ịp	-1366
▁sơ	-1367
▁nóng	-1368
.000	-1369
▁điên	-1370
▁bi	-1371
▁cũ	-1372
▁kim	-1373
▁uống	-1374
ọt	-1375
▁ad	-1376
▁linh	-1377
▁buồn	-1378
▁ồ	-1379
▁rời	-1380
▁thiệu	-1381
▁dưỡng	-1382
ab	-1383
▁tồi	-1384
ein	-1385
▁dõi	-1386
▁miễn	-1387
▁mẽ	-1388
▁car	-1389
▁hãi	-1390
▁loạn	-1391
▁tảng	-1392
▁tường	-1393
▁lộ	-1394
▁sửa	-1395
ak	-1396
▁lầm	-1397
▁tránh	-1398
▁trắng	-1399
▁thưởng	-1400
▁mắn	-1401
▁đáp	-1402
▁quảng	-1403
▁đương	-1404
▁bảng	-1405
▁vững	-1406
▁chàng	-1407
ev	-1408
▁lạnh	-1409
▁25	-1410
▁đào	-1411
ấc	-1412
▁cu	-1413
▁cơn	-1414
ow	-1415
▁khoản	-1416
op	-1417
▁đèn	-1418
ex	-1419
▁tờ	-1420
▁góp	-1421
▁ok	-1422
▁mái	-1423
la	-1424
▁đói	-1425
▁khổng	-1426
st	-1427
▁áo	-1428
▁mảnh	-1429
▁lồ	-1430
▁tổn	-1431
▁tiểu	-1432
▁núi	-1433
ớm	-1434
▁đỉnh	-1435
▁lẫn	-1436
▁tốn	-1437
▁tộc	-1438
▁dường	-1439
▁trồng	-1440
▁quỹ	-1441
▁quên	-1442
▁phỏng	-1443
▁diệu	-1444
▁hiển	-1445
▁trận	-1446
ord	-1447
▁hảo	-1448
▁giỏi	-1449
▁à	-1450
▁bề	-1451
▁quần	-1452
▁mời	-1453
▁ủng	-1454
▁vàng	-1455
oi	-1456
▁ma	-1457
▁pr	-1458
▁trì	-1459
▁khuẩn	-1460
▁cầm	-1461
▁rơi	-1462
▁vợ	-1463
▁mãi	-1464
istan	-1465
▁chấm	-1466
ent	-1467
▁nghìn	-1468
▁cỡ	-1469
▁bật	-1470
▁chạm	-1471
▁phấn	-1472
▁tiềm	-1473
▁lương	-1474
ut	-1475
▁kí	-1476
▁xương	-1477
man	-1478
ie	-1479
▁bền	-1480
▁bữa	-1481
▁huy	-1482
▁sánh	-1483
▁chó	-1484
▁hôn	-1485
▁nghỉ	-1486
▁nổ	-1487
▁goo	-1488
▁khoá	-1489
io	-1490
▁vốn	-1491
▁ong	-1492
▁chiếm	-1493
▁chồng	-1494
▁khẩu	-1495
▁hổ	-1496
▁lửa	-1497
▁biên	-1498
▁tách	-1499
▁ngừng	-1500
▁gió	-1501
▁điệu	-1502
▁khích	-1503
▁làng	-1504
▁z	-1505
▁ghế	-1506
▁nắm	-1507
▁thịt	-1508
▁11	-1509
▁vĩ	-1510
▁sáu	-1511
▁phối	-1512
▁rút	-1513
▁sớm	-1514
ặm	-1515
▁vỡ	-1516
▁hào	-1517
▁đằng	-1518
▁hoảng	-1519
▁sót	-1520
1;	-1521
▁goog	-1522
▁&#91;	-1523
▁chuỗi	-1524
▁khuy	-1525
▁mũ	-1526
3;	-1527
ig	-1528
▁&#93;	-1529
▁chảy	-1530
▁giấc	-1531
▁sạch	-1532
▁chào	-1533
▁kịch	-1534
▁thoát	-1535
ly	-1536
▁trại	-1537
▁80	-1538
▁bọn	-1539
▁loạt	-1540
▁google	-1541
▁khứ	-1542
▁lối	-1543
▁suất	-1544
▁tắt	-1545
▁nghề	-1546
▁chậm	-1547
hn	-1548
ry	-1549
ẹn	-1550
eg	-1551
▁gợi	-1552
▁viễn	-1553
ứt	-1554
▁bè	-1555
▁đế	-1556
ber	-1557
▁tàn	-1558
ùa	-1559
▁nhé	-1560
ươi	-1561
▁lỗ	-1562
ãn	-1563
▁cà	-1564
▁sỹ	-1565
▁phê	-1566
▁tan	-1567
ói	-1568
▁trữ	-1569
▁tán	-1570
▁trưng	-1571
ựng	-1572
▁san	-1573
▁ko	-1574
▁túi	-1575
ik	-1576
ack	-1577
▁cú	-1578
▁phiên	-1579
▁cờ	-1580
▁kiệm	-1581
if	-1582
▁đăng	-1583
est	-1584
iếng	-1585
▁bơi	-1586
▁lặp	-1587
▁tụ	-1588
▁dặm	-1589
▁sông	-1590
▁thước	-1591
bon	-1592
▁sốt	-1593
▁khoảnh	-1594
▁ngại	-1595
▁bụ	-1596
▁né	-1597
um	-1598
▁kháng	-1599
ec	-1600
ell	-1601
▁nguyện	-1602
▁60	-1603
▁vết	-1604
▁nâng	-1605
▁bờ	-1606
▁vỏ	-1607
▁nhắn	-1608
▁thăm	-1609
▁tàng	-1610
▁kém	-1611
▁đuổi	-1612
na	-1613
ian	-1614
ưỡi	-1615
▁thoả	-1616
▁thảm	-1617
▁quang	-1618
▁ghép	-1619
▁ngài	-1620
ìa	-1621
ick	-1622
▁nỗ	-1623
▁lọc	-1624
▁thở	-1625
▁tri	-1626
one	-1627
▁br	-1628
▁nhẹ	-1629
ip	-1630
ul	-1631
▁rẻ	-1632
▁tô	-1633
▁199	-1634
▁voi	-1635
▁lặng	-1636
▁hoang	-1637
▁dã	-1638
▁mùi	-1639
▁tròn	-1640
▁hùng	-1641
▁bò	-1642
▁ox	-1643
▁ưu	-1644
▁điệp	-1645
▁trống	-1646
sh	-1647
▁john	-1648
▁ngẫu	-1649
▁xoay	-1650
▁thánh	-1651
▁vir	-1652
az	-1653
▁giám	-1654
▁thuỷ	-1655
▁is	-1656
▁lục	-1657
▁hiệp	-1658
▁trích	-1659
▁doạ	-1660
▁thác	-1661
▁đoàn	-1662
úa	-1663
▁đam	-1664
▁thừa	-1665
▁đẳng	-1666
▁hoàng	-1667
▁thuận	-1668
▁cal	-1669
▁hiv	-1670
▁hắn	-1671
▁họp	-1672
▁rác	-1673
▁đựng	-1674
ess	-1675
▁lễ	-1676
▁ru	-1677
▁thang	-1678
ớt	-1679
▁cấy	-1680
▁lính	-1681
▁đạp	-1682
▁lãng	-1683
ủi	-1684
▁lành	-1685
▁chặt	-1686
▁lược	-1687
▁miếng	-1688
▁16	-1689
▁af	-1690
▁cục	-1691
art	-1692
▁tật	-1693
▁nhựa	-1694
▁90	-1695
▁đe	-1696
▁mừng	-1697
▁ngoái	-1698
▁gam	-1699
▁lắp	-1700
ườn	-1701
▁cãi	-1702
▁sợi	-1703
▁thai	-1704
▁ngang	-1705
ee	-1706
ore	-1707
▁mây	-1708
▁thận	-1709
▁giảng	-1710
▁tuyên	-1711
era	-1712
▁14	-1713
ans	-1714
▁dị	-1715
▁thầy	-1716
▁bảy	-1717
▁mực	-1718
▁đòi	-1719
▁and	-1720
▁chép	-1721
▁nhịp	-1722
▁nhuận	-1723
▁cát	-1724
▁yên	-1725
▁thao	-1726
▁đống	-1727
▁huống	-1728
▁sổ	-1729
▁bắn	-1730
▁mại	-1731
▁mập	-1732
▁nấm	-1733
▁chặn	-1734
▁hương	-1735
ds	-1736
orn	-1737
▁sc	-1738
▁dav	-1739
▁đùa	-1740
▁diệt	-1741
▁khấu	-1742
ash	-1743
▁70	-1744
▁hiếm	-1745
éo	-1746
▁$	-1747
▁bối	-1748
▁cản	-1749
ff	-1750
ge	-1751
▁chán	-1752
▁cứng	-1753
▁súng	-1754
▁thấu	-1755
co	-1756
▁vú	-1757
▁che	-1758
▁vong	-1759
▁tỏ	-1760
▁bom	-1761
▁mai	-1762
▁khung	-1763
▁phiếu	-1764
▁côn	-1765
▁cặp	-1766
▁hoả	-1767
▁ken	-1768
▁ngọn	-1769
▁tiêm	-1770
▁13	-1771
▁lũ	-1772
▁rập	-1773
▁thù	-1774
▁đua	-1775
▁prot	-1776
▁triết	-1777
▁ám	-1778
ti	-1779
▁hè	-1780
▁sa	-1781
▁móc	-1782
▁afgh	-1783
▁liền	-1784
▁nhằm	-1785
all	-1786
▁chr	-1787
▁lừa	-1788
▁tràn	-1789
ron	-1790
▁el	-1791
▁201	-1792
▁the	-1793
▁trào	-1794
èm	-1795
▁tá	-1796
▁yo	-1797
▁béo	-1798
▁khảo	-1799
▁afghan	-1800
ậc	-1801
▁gỗ	-1802
▁thờ	-1803
▁fran	-1804
▁dối	-1805
▁hối	-1806
▁rượ	-1807
▁đập	-1808
▁khía	-1809
▁bậc	-1810
▁thuy	-1811
▁mạc	-1812
▁rượu	-1813
▁gã	-1814
▁chốt	-1815
▁đảng	-1816
▁thoải	-1817
ob	-1818
▁0	-1819
eet	-1820
ide	-1821
▁hải	-1822
▁hỗn	-1823
▁mưa	-1824
50	-1825
▁sụp	-1826
▁thuyền	-1827
don	-1828
▁im	-1829
▁adn	-1830
▁căng	-1831
▁bổ	-1832
▁17	-1833
▁mỏ	-1834
▁mét	-1835
▁ngưỡng	-1836
▁huấn	-1837
▁song	-1838
ud	-1839
▁mì	-1840
▁ác	-1841
▁ức	-1842
▁chối	-1843
▁ngón	-1844
▁thuỵ	-1845
▁khuyến	-1846
ce	-1847
ớp	-1848
▁óc	-1849
land	-1850
▁kêu	-1851
▁nút	-1852
▁táo	-1853
▁trầm	-1854
ath	-1855
att	-1856
▁cong	-1857
▁ghét	-1858
▁mũi	-1859
▁li	-1860
▁tw	-1861
ail	-1862
ver	-1863
▁ly	-1864
▁par	-1865
▁đài	-1866
▁tỉnh	-1867
ĩa	-1868
▁ạ	-1869
▁thọ	-1870
▁đắt	-1871
▁biện	-1872
▁nhũng	-1873
aw	-1874
▁har	-1875
▁cháy	-1876
▁iran	-1877
▁xong	-1878
▁trứng	-1879
▁afghanistan	-1880
ir	-1881
ợt	-1882
les	-1883
▁túc	-1884
▁cụt	-1885
▁đốc	-1886
▁phán	-1887
▁cỏ	-1888
▁săn	-1889
▁bông	-1890
▁hiến	-1891
▁thiểu	-1892
ich	-1893
log	-1894
▁bãi	-1895
▁gọn	-1896
▁mạo	-1897
▁pin	-1898
▁xoá	-1899
▁david	-1900
▁protein	-1901
▁cỗ	-1902
▁cột	-1903
▁geo	-1904
▁khát	-1905
▁vườn	-1906
to	-1907
ya	-1908
▁mo	-1909
▁bột	-1910
▁thả	-1911
▁bra	-1912
▁dày	-1913
▁tóm	-1914
▁dinh	-1915
▁giận	-1916
▁miền	-1917
▁thuê	-1918
▁truyện	-1919
▁á	-1920
▁nấu	-1921
▁tia	-1922
ớn	-1923
▁21	-1924
▁đốt	-1925
▁chừng	-1926
▁giành	-1927
ook	-1928
▁hồn	-1929
▁rủi	-1930
▁thổ	-1931
▁tạm	-1932
▁binh	-1933
▁thạch	-1934
iệng	-1935
▁198	-1936
▁dọc	-1937
▁lộn	-1938
▁ngũ	-1939
▁xứng	-1940
▁khiếp	-1941
▁cl	-1942
▁kẹ	-1943
▁nơ	-1944
▁tv	-1945
▁bạc	-1946
▁đắn	-1947
▁char	-1948
▁răng	-1949
pp	-1950
▁mò	-1951
▁mộ	-1952
▁dàn	-1953
▁mát	-1954
▁nan	-1955
▁xưa	-1956
▁huyết	-1957
▁thiệp	-1958
▁mĩ	-1959
▁sp	-1960
▁tuỳ	-1961
▁than	-1962
▁thuần	-1963
ta	-1964
▁cẩn	-1965
▁nhỉ	-1966
yl	-1967
ion	-1968
▁bl	-1969
▁ed	-1970
▁đà	-1971
▁leo	-1972
▁xâm	-1973
▁khóc	-1974
▁rưỡi	-1975
ico	-1976
▁nhấn	-1977
▁miệng	-1978
ùi	-1979
ara	-1980
ướt	-1981
▁lẻ	-1982
▁ham	-1983
▁phó	-1984
▁chẩn	-1985
▁thưa	-1986
▁thẩm	-1987
ýt	-1988
▁ấm	-1989
▁500	-1990
▁rào	-1991
▁đĩa	-1992
▁hước	-1993
▁tặng	-1994
ina	-1995
▁xạ	-1996
▁mẩu	-1997
▁blog	-1998
ana	-1999
rael	-2000
▁cốt	-2001
▁ném	-2002
▁rắc	-2003
▁tám	-2004
▁gương	-2005
▁tóc	-2006
▁bạch	-2007
▁dính	-2008
▁trộn	-2009
ca	-2010
▁cốc	-2011
▁lão	-2012
▁quê	-2013
▁lỏng	-2014
ỗng	-2015
▁bó	-2016
▁oh	-2017
▁đớn	-2018
▁game	-2019
▁24	-2020
▁gà	-2021
▁bar	-2022
▁col	-2023
▁fac	-2024
▁hẹn	-2025
▁miêu	-2026
▁phổi	-2027
ith	-2028
ebook	-2029
▁ngầm	-2030
▁trăng	-2031
▁israel	-2032
ps	-2033
ger	-2034
▁đón	-2035
▁cường	-2036
▁thượng	-2037
te	-2038
▁ne	-2039
▁tò	-2040
▁đáy	-2041
▁đậu	-2042
▁hạng	-2043
▁hằng	-2044
▁manh	-2045
▁ngựa	-2046
▁quái	-2047
▁trắc	-2048
▁vuông	-2049
▁facebook	-2050
ke	-2051
ub	-2052
ốm	-2053
ite	-2054
▁quí	-2055
▁trạm	-2056
▁thoảng	-2057
▁ngã	-2058
▁tuệ	-2059
▁kiên	-2060
▁quét	-2061
ada	-2062
enn	-2063
ley	-2064
▁de	-2065
▁ber	-2066
▁giày	-2067
iz	-2068
▁rồ	-2069
▁khô	-2070
▁mèo	-2071
▁lang	-2072
▁nhạy	-2073
▁quán	-2074
▁calif	-2075
▁tuyết	-2076
ẻo	-2077
▁vắc	-2078
ornia	-2079
▁chai	-2080
▁dan	-2081
▁hứa	-2082
▁nha	-2083
▁hoại	-2084
▁trôi	-2085
▁thỉnh	-2086
▁california	-2087
▁rô	-2088
▁tiếc	-2089
▁giường	-2090
▁197	-2091
▁lây	-2092
▁thợ	-2093
▁đếm	-2094
▁bill	-2095
▁be	-2096
▁dna	-2097
▁nho	-2098
▁chăng	-2099
cha	-2100
ãng	-2101
▁lon	-2102
▁lưng	-2103
▁trần	-2104
▁lâm	-2105
▁mãn	-2106
▁nét	-2107
▁đeo	-2108
▁chấn	-2109
▁nướng	-2110
▁cự	-2111
▁le	-2112
▁bro	-2113
▁cụm	-2114
▁nga	-2115
▁mẻ	-2116
▁300	-2117
▁oxy	-2118
▁chris	-2119
ẫy	-2120
▁dò	-2121
▁gói	-2122
▁kèm	-2123
▁van	-2124
▁bụng	-2125
▁thói	-2126
ler	-2127
▁dán	-2128
▁hỏng	-2129
▁ngon	-2130
▁ninh	-2131
▁email	-2132
ve	-2133
ụt	-2134
ass	-2135
▁hư	-2136
▁or	-2137
▁giơ	-2138
▁ira	-2139
▁kênh	-2140
▁vinh	-2141
ma	-2142
ùm	-2143
▁gỡ	-2144
▁sl	-2145
▁sm	-2146
anda	-2147
▁mic	-2148
▁quà	-2149
▁tân	-2150
▁giấu	-2151
▁khuyên	-2152
hi	-2153
bur	-2154
▁lề	-2155
exico	-2156
▁2000	-2157
▁khao	-2158
▁lệnh	-2159
▁tiệc	-2160
▁tĩnh	-2161
ek	-2162
ẫm	-2163
ama	-2164
ins	-2165
▁ép	-2166
▁tháp	-2167
▁tung	-2168
ham	-2169
zil	-2170
▁hô	-2171
▁dao	-2172
▁hàm	-2173
▁lôi	-2174
▁pau	-2175
▁đực	-2176
ington	-2177
▁khoan	-2178
▁canada	-2179
ne	-2180
▁ư	-2181
▁bão	-2182
▁lặn	-2183
stein	-2184
▁hang	-2185
▁hố	-2186
▁cất	-2187
▁heo	-2188
▁lãm	-2189
▁sàn	-2190
▁dược	-2191
▁gián	-2192
▁brazil	-2193
▁mexico	-2194
col	-2195
ram	-2196
▁1.	-2197
▁ôi	-2198
▁ơi	-2199
▁dứt	-2200
quang	-2201
▁long	-2202
▁trục	-2203
▁virus	-2204
▁mờ	-2205
▁cúm	-2206
▁mon	-2207
▁pal	-2208
▁sữa	-2209
▁ngọt	-2210
▁phiền	-2211
by	-2212
da	-2213
ợn	-2214
▁ab	-2215
▁dư	-2216
▁va	-2217
▁mit	-2218
▁chìm	-2219
▁trốn	-2220
ate	-2221
▁tị	-2222
ford	-2223
▁cấm	-2224
▁khỉ	-2225
▁aids	-2226
▁geor	-2227
▁muỗi	-2228
▁trưa	-2229
▁thăng	-2230
pe	-2231
▁liều	-2232
▁mệnh	-2233
tin	-2234
▁na	-2235
▁bụi	-2236
▁rét	-2237
▁thuế	-2238
ov	-2239
ếch	-2240
▁xí	-2241
▁ben	-2242
▁bếp	-2243
▁lõi	-2244
▁buôn	-2245
▁dáng	-2246
▁thổi	-2247
▁kenya	-2248
▁camera	-2249
ers	-2250
▁go	-2251
▁làn	-2252
▁lăn	-2253
▁bong	-2254
▁bùng	-2255
▁ngắm	-2256
▁nàng	-2257
▁tươi	-2258
▁london	-2259
ộm	-2260
ert	-2261
▁tủ	-2262
▁úc	-2263
▁bận	-2264
▁tắm	-2265
▁mark	-2266
▁xinh	-2267
ượn	-2268
▁ac	-2269
▁au	-2270
▁gõ	-2271
▁ki	-2272
▁gấu	-2273
▁hàn	-2274
▁nảy	-2275
▁rau	-2276
▁say	-2277
▁sưu	-2278
▁thẻ	-2279
▁thiệt	-2280
▁trượt	-2281
ok	-2282
▁196	-2283
▁400	-2284
▁gan	-2285
▁nốt	-2286
▁phì	-2287
▁ros	-2288
▁chìa	-2289
▁quát	-2290
▁thua	-2291
▁thám	-2292
▁thịnh	-2293
▁tướng	-2294
▁–	-2295
▁mc	-2296
▁jam	-2297
▁sơn	-2298
▁khớp	-2299
▁nhắm	-2300
▁lường	-2301
av	-2302
ice	-2303
iger	-2304
▁150	-2305
▁pha	-2306
▁vua	-2307
▁feet	-2308
▁hồng	-2309
▁iraq	-2310
de	-2311
▁gu	-2312
▁dar	-2313
▁kín	-2314
itter	-2315
▁giam	-2316
▁ngập	-2317
▁thùng	-2318
ba	-2319
▁phú	-2320
▁rãi	-2321
▁cuộn	-2322
▁phái	-2323
▁quãng	-2324
ướp	-2325
▁bơ	-2326
▁re	-2327
▁ưa	-2328
▁bốt	-2329
▁dãy	-2330
▁châm	-2331
▁khôn	-2332
▁lông	-2333
▁lướt	-2334
▁nhẫn	-2335
ky	-2336
vi	-2337
▁mạn	-2338
▁trà	-2339
▁xóm	-2340
▁wash	-2341
▁twitter	-2342
ony	-2343
▁ang	-2344
▁bos	-2345
▁gre	-2346
▁log	-2347
▁str	-2348
▁ngốc	-2349
▁paul	-2350
▁phạt	-2351
▁sung	-2352
▁tháo	-2353
▁thính	-2354
amp	-2355
ren	-2356
▁cừ	-2357
▁nở	-2358
▁vỗ	-2359
▁chà	-2360
▁hầm	-2361
▁man	-2362
▁vây	-2363
▁mười	-2364
▁nhiếp	-2365
bo	-2366
dp	-2367
▁dám	-2368
▁lát	-2369
▁tuý	-2370
▁chúc	-2371
▁ranh	-2372
olf	-2373
▁cr	-2374
▁nọ	-2375
▁uy	-2376
▁cac	-2377
▁dắt	-2378
▁gdp	-2379
▁đâm	-2380
▁nhãn	-2381
▁cưỡng	-2382
ect	-2383
▁en	-2384
▁wh	-2385
▁bút	-2386
▁ein	-2387
▁toả	-2388
▁đuôi	-2389
▁slide	-2390
▁tuyển	-2391
▁nghịch	-2392
▁er	-2393
▁vở	-2394
▁cậy	-2395
▁nhở	-2396
▁pet	-2397
▁wil	-2398
▁khơi	-2399
▁ngực	-2400
▁webs	-2401
▁điêu	-2402
▁einstein	-2403
me	-2404
und	-2405
▁bọ	-2406
▁bớt	-2407
▁thô	-2408
▁hãng	-2409
▁chước	-2410
za	-2411
apt	-2412
▁hệt	-2413
▁mấu	-2414
▁gánh	-2415
▁nắng	-2416
iel	-2417
lin	-2418
▁ju	-2419
▁lò	-2420
▁cởi	-2421
▁lin	-2422
▁chín	-2423
▁chục	-2424
▁khúc	-2425
▁thâm	-2426
▁niger	-2427
▁phẳng	-2428
▁carbon	-2429
▁washington	-2430
ts	-2431
mas	-2432
▁he	-2433
▁ồn	-2434
▁hòn	-2435
▁lùi	-2436
▁mệt	-2437
▁hung	-2438
yr	-2439
ros	-2440
ênh	-2441
▁je	-2442
▁sứ	-2443
▁lạm	-2444
▁men	-2445
▁vải	-2446
▁wik	-2447
▁đới	-2448
phone	-2449
▁tedx	-2450
▁trấn	-2451
▁nghiện	-2452
ain	-2453
▁sốc	-2454
▁vịnh	-2455
▁nợ	-2456
▁kịp	-2457
▁cưới	-2458
▁muộn	-2459
▁nhặt	-2460
▁stev	-2461
▁george	-2462
▁charles	-2463
▁website	-2464
ka	-2465
ươn	-2466
▁at	-2467
▁jon	-2468
ander	-2469
▁gene	-2470
▁hack	-2471
▁franc	-2472
▁nigeria	-2473
he	-2474
asa	-2475
ica	-2476
▁1,	-2477
▁bo	-2478
▁chở	-2479
▁múa	-2480
▁mỏi	-2481
▁rad	-2482
▁tần	-2483
▁đồi	-2484
▁duyệt	-2485
.5	-2486
30	-2487
▁đố	-2488
▁dải	-2489
▁hưu	-2490
▁lật	-2491
▁mày	-2492
▁2008	-2493
▁phil	-2494
▁rung	-2495
▁thôn	-2496
▁thuẫn	-2497
ile	-2498
ort	-2499
▁fl	-2500
▁ga	-2501
▁rễ	-2502
▁sw	-2503
▁bon	-2504
▁cối	-2505
▁ron	-2506
▁ráp	-2507
▁tha	-2508
▁khôi	-2509
▁khiếm	-2510
▁ngoan	-2511
▁thằng	-2512
▁cacbon	-2513
mp	-2514
ộp	-2515
cin	-2516
▁35	-2517
▁si	-2518
▁đẻ	-2519
▁1000	-2520
▁cướp	-2521
▁rich	-2522
▁treo	-2523
▁địch	-2524
▁cuồng	-2525
ela	-2526
eph	-2527
▁der	-2528
▁jos	-2529
▁qui	-2530
▁rửa	-2531
bi	-2532
mo	-2533
òm	-2534
ằn	-2535
den	-2536
▁gối	-2537
▁rắn	-2538
▁sam	-2539
▁màng	-2540
▁vươn	-2541
mm	-2542
eth	-2543
▁fo	-2544
ward	-2545
▁los	-2546
▁lợn	-2547
▁mồi	-2548
▁pak	-2549
▁sạn	-2550
▁sắt	-2551
▁mảng	-2552
▁khoái	-2553
▁lưỡng	-2554
▁vương	-2555
▁khuyết	-2556
▁stress	-2557
én	-2558
▁ừ	-2559
win	-2560
▁us	-2561
▁dẻo	-2562
▁hẹp	-2563
▁mâu	-2564
▁wal	-2565
▁đáo	-2566
▁adam	-2567
▁phím	-2568
▁trân	-2569
▁đoan	-2570
▁khẳng	-2571
▁francis	-2572
ua	-2573
com	-2574
▁45	-2575
▁se	-2576
edia	-2577
▁bơm	-2578
▁bấy	-2579
▁cừu	-2580
▁lau	-2581
▁tựa	-2582
▁đàm	-2583
po	-2584
ban	-2585
▁75	-2586
▁nô	-2587
▁pm	-2588
ling	-2589
▁bia	-2590
▁chả	-2591
▁cắm	-2592
▁cựu	-2593
▁dâm	-2594
▁lận	-2595
▁ven	-2596
▁vẹn	-2597
▁đạc	-2598
▁pakistan	-2599
ast	-2600
lan	-2601
▁bắp	-2602
▁gps	-2603
▁kẹo	-2604
▁lấp	-2605
▁ser	-2606
▁sil	-2607
▁đạn	-2608
▁khói	-2609
▁lệch	-2610
▁huyền	-2611
are	-2612
ube	-2613
▁pho	-2614
▁yout	-2615
▁khiêu	-2616
▁micha	-2617
▁khuynh	-2618
▁thomas	-2619
▁bal	-2620
▁dọn	-2621
▁đền	-2622
ester	-2623
▁nhầm	-2624
▁tuân	-2625
▁tông	-2626
▁vĩnh	-2627
▁frank	-2628
▁youtube	-2629
di	-2630
gg	-2631
ach	-2632
ght	-2633
ood	-2634
rop	-2635
▁lờ	-2636
▁ob	-2637
▁vé	-2638
▁hen	-2639
▁non	-2640
▁tam	-2641
▁2010	-2642
▁lũng	-2643
▁cương	-2644
▁haiti	-2645
20	-2646
lie	-2647
▁23	-2648
▁nề	-2649
▁dạo	-2650
▁lạp	-2651
▁mal	-2652
▁mil	-2653
▁mòn	-2654
ation	-2655
▁bách	-2656
▁bỗng	-2657
▁mỏng	-2658
▁thung	-2659
▁đỗ	-2660
▁cạn	-2661
▁cắp	-2662
▁kẹt	-2663
▁sch	-2664
▁buýt	-2665
▁chăn	-2666
▁giãn	-2667
▁kiệt	-2668
▁ngừa	-2669
▁trật	-2670
▁nhàng	-2671
▁michael	-2672
lu	-2673
oc	-2674
ern	-2675
van	-2676
▁mồ	-2677
▁rw	-2678
▁xô	-2679
▁dốc	-2680
▁mọc	-2681
▁ray	-2682
▁trú	-2683
▁đai	-2684
▁đợt	-2685
▁thắc	-2686
▁angel	-2687
▁iphone	-2688
▁richard	-2689
ami	-2690
ett	-2691
ity	-2692
▁dở	-2693
▁me	-2694
▁po	-2695
▁rẽ	-2696
▁võ	-2697
▁app	-2698
▁chợ	-2699
▁hyd	-2700
▁lượt	-2701
▁quyên	-2702
▁radio	-2703
▁vượng	-2704
bia	-2705
een	-2706
▁bá	-2707
▁mỉ	-2708
▁amp	-2709
▁hôi	-2710
▁sôi	-2711
▁tom	-2712
▁hạch	-2713
▁khéo	-2714
▁phác	-2715
▁scot	-2716
▁vang	-2717
ft	-2718
ll	-2719
▁bù	-2720
▁dội	-2721
▁nén	-2722
▁vay	-2723
▁xám	-2724
▁xôi	-2725
▁cent	-2726
▁thép	-2727
▁james	-2728
▁thoái	-2729
▁robert	-2730
br	-2731
dy	-2732
ễu	-2733
▁un	-2734
▁lắc	-2735
▁nêu	-2736
▁chua	-2737
▁dũng	-2738
▁việt	-2739
▁xăng	-2740
yn	-2741
ago	-2742
ney	-2743
ụng	-2744
▁99	-2745
▁194	-2746
▁bìa	-2747
▁bọc	-2748
▁lúa	-2749
▁harv	-2750
▁hoài	-2751
▁muối	-2752
▁ah	-2753
▁đẽ	-2754
▁hụt	-2755
▁nob	-2756
▁nản	-2757
▁xíu	-2758
▁ruồi	-2759
▁trộm	-2760
▁carol	-2761
▁obama	-2762
▁smith	-2763
▁hacker	-2764
ẳm	-2765
▁q	-2766
ner	-2767
oth	-2768
▁no	-2769
▁hóc	-2770
▁ván	-2771
▁ếch	-2772
▁2007	-2773
▁alex	-2774
▁tiễn	-2775
▁trừu	-2776
▁wikip	-2777
▁nghiệt	-2778
ny	-2779
se	-2780
▁bồ	-2781
▁lơ	-2782
▁of	-2783
▁ốc	-2784
ates	-2785
imer	-2786
▁big	-2787
▁bướ	-2788
▁gra	-2789
▁jaz	-2790
▁nát	-2791
▁pro	-2792
▁đan	-2793
▁chợt	-2794
▁khan	-2795
▁nasa	-2796
▁nhện	-2797
▁thầm	-2798
▁khoáng	-2799
xi	-2800
ờng	-2801
▁sô	-2802
▁uỷ	-2803
▁ốm	-2804
▁bur	-2805
▁nhĩ	-2806
▁cống	-2807
▁giặt	-2808
▁mươi	-2809
▁soạn	-2810
▁thẳm	-2811
▁tạng	-2812
▁paris	-2813
▁wikipedia	-2814
ct	-2815
old	-2816
▁22	-2817
▁on	-2818
▁bẩn	-2819
▁chẽ	-2820
▁gab	-2821
▁hét	-2822
▁tím	-2823
▁vac	-2824
▁độn	-2825
▁lồng	-2826
▁mượn	-2827
▁nano	-2828
▁nhào	-2829
▁giáng	-2830
ug	-2831
ũi	-2832
ego	-2833
lip	-2834
▁dỗ	-2835
atch	-2836
idge	-2837
▁gũi	-2838
▁lều	-2839
▁sah	-2840
▁súc	-2841
▁chôn	-2842
▁cược	-2843
▁lánh	-2844
▁rock	-2845
▁xích	-2846
▁derek	-2847
▁nobel	-2848
▁oxyto	-2849
▁quyến	-2850
▁steve	-2851
▁triều	-2852
▁tráng	-2853
▁xướng	-2854
▁darwin	-2855
▁martin	-2856
ish	-2857
ota	-2858
▁rũ	-2859
thal	-2860
▁---	-2861
▁kìa	-2862
▁quạ	-2863
▁2009	-2864
▁mộng	-2865
▁quặc	-2866
▁xuân	-2867
▁xưởng	-2868
▁oxytocin	-2869
▁francisco	-2870
lly	-2871
low	-2872
▁hò	-2873
▁mổ	-2874
▁ni	-2875
▁nụ	-2876
▁xỉ	-2877
azon	-2878
▁bám	-2879
▁cài	-2880
▁gal	-2881
▁gìn	-2882
▁lân	-2883
▁mad	-2884
▁wat	-2885
▁mãnh	-2886
▁phun	-2887
▁ruột	-2888
▁logic	-2889
▁angeles	-2890
▁harvard	-2891
ín	-2892
ane	-2893
iss	-2894
org	-2895
▁36	-2896
▁pl	-2897
icon	-2898
▁sáo	-2899
▁sắm	-2900
▁vụn	-2901
▁vứt	-2902
▁giọt	-2903
▁hiếp	-2904
▁inch	-2905
▁ngẫm	-2906
▁nồng	-2907
▁stan	-2908
▁tivi	-2909
ind	-2910
ock	-2911
▁es	-2912
▁rã	-2913
▁ôm	-2914
▁đệ	-2915
berg	-2916
▁bóc	-2917
▁fre	-2918
▁luỹ	-2919
▁mến	-2920
▁quỷ	-2921
▁tal	-2922
▁xăm	-2923
attan	-2924
eland	-2925
▁lùng	-2926
▁okay	-2927
▁thấm	-2928
▁trán	-2929
▁vạch	-2930
▁amazon	-2931
,5	-2932
ann	-2933
ker	-2934
len	-2935
mon	-2936
▁km	-2937
▁lỡ	-2938
▁vờ	-2939
▁bấm	-2940
▁lam	-2941
▁tuỷ	-2942
▁wor	-2943
▁lăng	-2944
▁nhạt	-2945
▁triệt	-2946
▁christ	-2947
▁sahara	-2948
car	-2949
ino	-2950
▁ẩm	-2951
wood	-2952
▁hãm	-2953
▁léo	-2954
▁vòi	-2955
▁chọc	-2956
▁jack	-2957
▁luân	-2958
▁stud	-2959
▁võng	-2960
heimer	-2961
▁green	-2962
▁hydro	-2963
▁chuông	-2964
▁nhường	-2965
do	-2966
iv	-2967
ary	-2968
▁cọ	-2969
▁tê	-2970
▁xà	-2971
▁alz	-2972
▁bồi	-2973
▁dai	-2974
▁nếp	-2975
▁pop	-2976
▁sét	-2977
aptop	-2978
▁2005	-2979
▁chằm	-2980
▁chớp	-2981
▁lưỡi	-2982
▁huynh	-2983
▁laptop	-2984
▁alzheimer	-2985
eh	-2986
tô	-2987
wn	-2988
ald	-2989
▁bê	-2990
▁mỳ	-2991
▁đc	-2992
rian	-2993
▁bốc	-2994
▁jer	-2995
▁per	-2996
▁tựu	-2997
▁1990	-2998
▁chic	-2999
▁higg	-3000
▁móng	-3001
▁nhóc	-3002
▁rỗng	-3003
▁ngươi	-3004
▁nhiễu	-3005
▁peter	-3006
▁studio	-3007
▁manhattan	-3008
ier	-3009
red	-3010
xin	-3011
▁26	-3012
▁27	-3013
▁600	-3014
▁cai	-3015
▁ghê	-3016
▁haw	-3017
▁joe	-3018
▁sim	-3019
▁war	-3020
▁gạch	-3021
▁ngẩn	-3022
▁thắt	-3023
▁đoạt	-3024
▁ngưng	-3025
▁boston	-3026
▁chicago	-3027
ez	-3028
ho	-3029
age	-3030
ida	-3031
▁gr	-3032
▁my	-3033
cola	-3034
emen	-3035
▁000	-3036
▁250	-3037
▁dịp	-3038
▁gậy	-3039
▁lui	-3040
▁ngớ	-3041
▁tuỵ	-3042
▁coca	-3043
▁khiêm	-3044
▁silicon	-3045
bu	-3046
▁2.	-3047
▁it	-3048
▁mỡ	-3049
▁sọ	-3050
▁vả	-3051
▁ye	-3052
▁ze	-3053
liam	-3054
▁del	-3055
▁for	-3056
▁gom	-3057
▁gác	-3058
▁hít	-3059
▁hận	-3060
▁lat	-3061
▁mộc	-3062
▁pol	-3063
▁pos	-3064
▁sal	-3065
▁sar	-3066
▁súp	-3067
▁đúc	-3068
▁golf	-3069
▁hoan	-3070
▁phật	-3071
▁sing	-3072
▁apple	-3073
▁hoành	-3074
▁william	-3075
ja	-3076
ld	-3077
we	-3078
inc	-3079
mer	-3080
▁ii	-3081
▁op	-3082
amin	-3083
line	-3084
▁bầy	-3085
▁jim	-3086
▁phô	-3087
▁run	-3088
▁tre	-3089
▁cảng	-3090
▁hoãn	-3091
▁luồng	-3092
▁rwanda	-3093
ef	-3094
esh	-3095
iếc	-3096
ửng	-3097
▁95	-3098
▁ax	-3099
▁bể	-3100
▁mt	-3101
▁xé	-3102
oran	-3103
sman	-3104
▁gay	-3105
▁gãy	-3106
▁kem	-3107
▁eric	-3108
▁ngột	-3109
▁đuối	-3110
▁đôla	-3111
▁ương	-3112
▁nhánh	-3113
▁trúng	-3114
tr	-3115
ât	-3116
ẽn	-3117
ure	-3118
uth	-3119
▁ag	-3120
▁as	-3121
▁ha	-3122
▁pe	-3123
▁rỉ	-3124
▁ái	-3125
▁195	-3126
▁mah	-3127
▁ngư	-3128
▁đậm	-3129
▁canh	-3130
▁cổng	-3131
▁giật	-3132
▁hans	-3133
▁mich	-3134
▁phốt	-3135
▁star	-3136
▁gabby	-3137
▁kiêng	-3138
▁chuyền	-3139
og	-3140
ue	-3141
int	-3142
per	-3143
rew	-3144
▁65	-3145
▁kar	-3146
▁len	-3147
▁mri	-3148
▁mầm	-3149
▁nhủ	-3150
▁nàn	-3151
▁pat	-3152
▁tôm	-3153
▁vòm	-3154
▁vất	-3155
▁vội	-3156
athan	-3157
igami	-3158
▁2004	-3159
▁2006	-3160
▁gien	-3161
▁giáp	-3162
▁hưng	-3163
▁hổng	-3164
▁tiệm	-3165
▁điền	-3166
▁gates	-3167
▁nghẽn	-3168
▁origami	-3169
pt	-3170
ium	-3171
▁bẻ	-3172
▁et	-3173
cine	-3174
iano	-3175
▁bẩm	-3176
▁led	-3177
▁ngụ	-3178
▁nón	-3179
▁đốm	-3180
▁1960	-3181
▁chày	-3182
▁flor	-3183
▁sand	-3184
▁show	-3185
▁yeah	-3186
▁đụng	-3187
▁khoăn	-3188
▁phiêu	-3189
▁times	-3190
▁trans	-3191
▁palest	-3192
▁thiêng	-3193
mb	-3194
ris	-3195
▁eu	-3196
▁ke	-3197
▁xứ	-3198
▁ấu	-3199
▁don	-3200
▁las	-3201
▁lột	-3202
▁phe	-3203
▁piz	-3204
▁rìa	-3205
▁rạp	-3206
▁rốt	-3207
▁vặt	-3208
▁wow	-3209
▁đóm	-3210
▁1970	-3211
▁hông	-3212
▁king	-3213
▁mont	-3214
▁tang	-3215
▁tony	-3216
▁tùng	-3217
▁xoắn	-3218
▁phiến	-3219
cô	-3220
▁32	-3221
▁av	-3222
▁ic	-3223
▁kệ	-3224
▁ug	-3225
▁120	-3226
▁amy	-3227
▁băn	-3228
▁cáp	-3229
▁dệt	-3230
▁hel	-3231
▁her	-3232
▁que	-3233
▁rio	-3234
▁vạn	-3235
▁khen	-3236
▁khẩn	-3237
▁tịch	-3238
▁khoai	-3239
▁piano	-3240
▁pizza	-3241
▁sướng	-3242
▁thiền	-3243
▁vaccine	-3244
ini	-3245
oft	-3246
uel	-3247
▁28	-3248
▁ao	-3249
▁lọ	-3250
▁os	-3251
alia	-3252
▁bab	-3253
▁búa	-3254
▁ent	-3255
▁ghé	-3256
▁mac	-3257
▁nhị	-3258
▁nor	-3259
▁pan	-3260
▁rộn	-3261
▁tem	-3262
▁uốn	-3263
▁vịt	-3264
▁biếm	-3265
▁clip	-3266
▁gand	-3267
▁nhấp	-3268
▁xách	-3269
▁brian	-3270
▁henry	-3271
▁howard	-3272
▁tasman	-3273
ga	-3274
ko	-3275
rr	-3276
ala	-3277
▁ap	-3278
▁ip	-3279
▁ào	-3280
▁ủi	-3281
▁dập	-3282
▁dồn	-3283
▁gai	-3284
▁ins	-3285
▁môt	-3286
▁sun	-3287
▁tao	-3288
▁tes	-3289
▁xộn	-3290
erson	-3291
inson	-3292
▁2011	-3293
▁bush	-3294
▁chóc	-3295
▁nhét	-3296
▁park	-3297
▁thơm	-3298
▁thốt	-3299
▁đinh	-3300
▁arist	-3301
▁congo	-3302
▁elect	-3303
▁higgs	-3304
▁khùng	-3305
▁koran	-3306
▁world	-3307
▁yemen	-3308
▁online	-3309
▁uganda	-3310
ux	-3311
ale	-3312
ike	-3313
ric	-3314
ten	-3315
▁kẽ	-3316
▁kề	-3317
▁nl	-3318
mpic	-3319
▁dại	-3320
▁mat	-3321
▁mưu	-3322
▁ngừ	-3323
▁tăm	-3324
▁đệm	-3325
▁....	-3326
▁2003	-3327
▁3000	-3328
▁bướm	-3329
▁chíp	-3330
▁củng	-3331
▁huýt	-3332
▁jazz	-3333
▁tali	-3334
▁talk	-3335
▁trùm	-3336
bridge	-3337
▁choáng	-3338
▁micros	-3339
▁aristot	-3340
kg	-3341
imb	-3342
itz	-3343
rus	-3344
via	-3345
zan	-3346
▁33	-3347
▁fg	-3348
▁gl	-3349
▁mớ	-3350
bert	-3351
▁bực	-3352
▁dev	-3353
▁dịu	-3354
▁gạt	-3355
▁hái	-3356
▁met	-3357
▁tẩy	-3358
▁vẫy	-3359
▁chip	-3360
▁lego	-3361
▁ngục	-3362
▁phơi	-3363
▁quad	-3364
▁trèo	-3365
▁trọn	-3366
▁wall	-3367
▁tweet	-3368
▁10,000	-3369
▁entrop	-3370
▁oxford	-3371
▁aristotle	-3372
▁cambridge	-3373
ãy	-3374
ati	-3375
ens	-3376
ire	-3377
▁85	-3378
▁dê	-3379
pher	-3380
yria	-3381
▁dơi	-3382
▁hân	-3383
▁mốc	-3384
▁râu	-3385
▁rỗi	-3386
▁đục	-3387
▁1950	-3388
▁josh	-3389
▁nhàm	-3390
▁sườn	-3391
▁sửng	-3392
▁thắn	-3393
▁chiêm	-3394
▁syria	-3395
▁thoáng	-3396
▁microsoft	-3397
bal	-3398
der	-3399
eda	-3400
▁hả	-3401
lian	-3402
▁bin	-3403
▁cồn	-3404
▁fox	-3405
▁kẹp	-3406
▁mau	-3407
▁mép	-3408
▁nai	-3409
▁oly	-3410
▁ter	-3411
▁tex	-3412
▁tit	-3413
▁trễ	-3414
▁tur	-3415
▁vọt	-3416
▁xay	-3417
▁abra	-3418
▁ford	-3419
▁ngửi	-3420
▁pháo	-3421
▁túng	-3422
▁ghana	-3423
▁micro	-3424
▁phồng	-3425
▁trừng	-3426
▁lester	-3427
▁entropy	-3428
▁neander	-3429
▁taliban	-3430
▁stanford	-3431
▁neanderthal	-3432
fe	-3433
pa	-3434
úm	-3435
ếm	-3436
ốp	-3437
▁0.	-3438
▁55	-3439
▁lụ	-3440
▁rỡ	-3441
▁đè	-3442
ardo	-3443
ille	-3444
ster	-3445
▁bob	-3446
▁bol	-3447
▁bưu	-3448
▁bộc	-3449
▁cop	-3450
▁han	-3451
▁hon	-3452
▁hun	-3453
▁rèn	-3454
▁sus	-3455
▁vẩn	-3456
▁xen	-3457
▁đom	-3458
right	-3459
▁2001	-3460
▁banh	-3461
▁gieo	-3462
▁mand	-3463
▁nuốt	-3464
▁quận	-3465
▁shak	-3466
▁tống	-3467
▁vắng	-3468
▁đàng	-3469
▁chướng	-3470
▁market	-3471
▁charlie	-3472
▁florida	-3473
-1	-3474
ha	-3475
ni	-3476
uk	-3477
zy	-3478
ẹo	-3479
ấng	-3480
▁lê	-3481
▁lô	-3482
agen	-3483
thur	-3484
ulin	-3485
▁bẫy	-3486
▁dưa	-3487
▁dẹp	-3488
▁hán	-3489
▁hâm	-3490
▁mor	-3491
▁sếp	-3492
▁val	-3493
▁ôtô	-3494
beria	-3495
▁1980	-3496
▁chay	-3497
▁ngây	-3498
▁then	-3499
▁thèm	-3500
▁wolf	-3501
▁buồng	-3502
▁holly	-3503
▁steph	-3504
▁texas	-3505
▁virút	-3506
▁10.000	-3507
▁abraham	-3508
▁nghiêng	-3509
cy	-3510
ss	-3511
ìu	-3512
ủa	-3513
ant	-3514
ato	-3515
con	-3516
ero	-3517
ượm	-3518
▁hé	-3519
▁ir	-3520
▁tớ	-3521
▁vớ	-3522
esia	-3523
kins	-3524
ther	-3525
▁bón	-3526
▁cap	-3527
▁chì	-3528
▁cóc	-3529
▁den	-3530
▁kìm	-3531
▁lar	-3532
▁nit	-3533
▁nâu	-3534
▁nạp	-3535
▁phế	-3536
▁tảo	-3537
▁vần	-3538
▁đòn	-3539
orden	-3540
▁nick	-3541
▁thạo	-3542
▁daniel	-3543
▁olympic	-3544
jo	-3545
kh	-3546
ble	-3547
dan	-3548
lyn	-3549
med	-3550
ror	-3551
rút	-3552
uss	-3553
▁37	-3554
▁bj	-3555
▁cộ	-3556
▁xế	-3557
ower	-3558
yrus	-3559
▁bát	-3560
▁bồn	-3561
▁det	-3562
▁dis	-3563
▁lib	-3564
▁mas	-3565
▁mel	-3566
▁nãy	-3567
▁nín	-3568
▁usd	-3569
▁ướt	-3570
▁chùm	-3571
▁doll	-3572
▁jeff	-3573
▁thuỳ	-3574
▁xoáy	-3575
▁cyrus	-3576
▁khiếu	-3577
▁south	-3578
▁thiếp	-3579
▁trinh	-3580
▁philip	-3581
▁insulin	-3582
-2	-3583
bm	-3584
fi	-3585
go	-3586
oh	-3587
nes	-3588
ory	-3589
oto	-3590
rah	-3591
▁31	-3592
▁dv	-3593
▁ky	-3594
▁xi	-3595
▁xả	-3596
▁ân	-3597
ctor	-3598
▁700	-3599
▁bit	-3600
▁bời	-3601
▁gộp	-3602
▁kev	-3603
▁lay	-3604
▁mos	-3605
▁soi	-3606
▁2050	-3607
▁bron	-3608
▁bỏng	-3609
▁ngợi	-3610
▁nhồi	-3611
▁stre	-3612
▁brown	-3613
▁chiên	-3614
▁latin	-3615
▁nhuộm	-3616
▁norden	-3617
ei	-3618
va	-3619
xy	-3620
▁—	-3621
din	-3622
gin	-3623
idi	-3624
iti	-3625
ona	-3626
ott	-3627
pha	-3628
ust	-3629
▁29	-3630
▁ts	-3631
▁xá	-3632
burg	-3633
▁191	-3634
▁air	-3635
▁bẩy	-3636
▁bến	-3637
▁bới	-3638
▁cay	-3639
▁cuả	-3640
▁fer	-3641
▁hal	-3642
▁khe	-3643
▁loa	-3644
▁lạy	-3645
▁lậu	-3646
▁lội	-3647
▁ngộ	-3648
▁nhã	-3649
▁ria	-3650
aland	-3651
▁bổng	-3652
▁diều	-3653
▁dâng	-3654
▁mike	-3655
▁nhăn	-3656
▁sùng	-3657
▁viêm	-3658
▁black	-3659
▁brook	-3660
▁dollar	-3661
▁nghiền	-3662
▁singap	-3663
▁watson	-3664
▁rosling	-3665
▁marketing	-3666
be	-3667
air	-3668
ari	-3669
eop	-3670
gen	-3671
mar	-3672
ola	-3673
osh	-3674
rap	-3675
▁bế	-3676
▁bỉ	-3677
▁rổ	-3678
▁tơ	-3679
▁xơ	-3680
▁ấp	-3681
chia	-3682
espe	-3683
▁800	-3684
▁bóp	-3685
▁ceo	-3686
▁cẩu	-3687
▁ear	-3688
▁hẻo	-3689
▁kil	-3690
▁lee	-3691
▁nel	-3692
▁ngô	-3693
▁som	-3694
▁sói	-3695
▁tua	-3696
▁tụi	-3697
ansas	-3698
▁ever	-3699
▁gore	-3700
▁high	-3701
▁khâu	-3702
▁khốn	-3703
▁lượm	-3704
▁mông	-3705
▁stew	-3706
▁thắp	-3707
▁vách	-3708
▁chặng	-3709
▁khăng	-3710
▁andrew	-3711
▁arthur	-3712
▁scotland	-3713
▁shakespe	-3714
▁hollywood	-3715
▁palestine	-3716
▁singapore	-3717
pu	-3718
dam	-3719
own	-3720
row	-3721
yan	-3722
▁fi	-3723
▁gô	-3724
ence	-3725
ever	-3726
ider	-3727
ison	-3728
roit	-3729
▁giế	-3730
▁keo	-3731
▁nắp	-3732
▁rải	-3733
▁rực	-3734
▁xài	-3735
burgh	-3736
▁hill	-3737
▁hiếu	-3738
▁jenn	-3739
▁khép	-3740
▁matt	-3741
▁nuối	-3742
▁phôi	-3743
▁trêu	-3744
▁devil	-3745
▁indon	-3746
▁khoán	-3747
▁joseph	-3748
▁khoang	-3749
▁street	-3750
▁trương	-3751
▁victor	-3752
▁detroit	-3753
▁iceland	-3754
▁electron	-3755
tu	-3756
ịt	-3757
▁ơ	-3758
eep	-3759
mad	-3760
nia	-3761
pam	-3762
que	-3763
▁ig	-3764
▁jh	-3765
▁tạ	-3766
eron	-3767
iver	-3768
▁alb	-3769
▁bội	-3770
▁cua	-3771
▁dvd	-3772
▁far	-3773
▁gập	-3774
▁hàu	-3775
▁mao	-3776
▁nhí	-3777
▁nếm	-3778
▁red	-3779
▁sỏi	-3780
▁toa	-3781
▁tru	-3782
▁đắm	-3783
ville	-3784
▁bênh	-3785
▁logo	-3786
▁lượn	-3787
▁muôn	-3788
▁ngắt	-3789
▁nhộn	-3790
▁sảnh	-3791
▁trội	-3792
▁alpha	-3793
▁giếng	-3794
▁laden	-3795
▁laser	-3796
▁mandela	-3797
▁stephen	-3798
▁zealand	-3799
▁shakespeare	-3800
▁+	-3801
▁ờ	-3802
ace	-3803
bin	-3804
cel	-3805
men	-3806
ves	-3807
▁48	-3808
▁cd	-3809
▁dỡ	-3810
▁hở	-3811
▁rò	-3812
▁uh	-3813
atar	-3814
oton	-3815
phia	-3816
▁bùn	-3817
▁cán	-3818
▁dâu	-3819
▁ibm	-3820
▁jac	-3821
▁jay	-3822
▁khử	-3823
▁lak	-3824
▁mag	-3825
▁rệt	-3826
▁thề	-3827
▁tát	-3828
▁tạc	-3829
▁tụt	-3830
▁vàn	-3831
▁xảo	-3832
▁đãi	-3833
▁2002	-3834
▁chui	-3835
▁hăng	-3836
▁khốc	-3837
▁scan	-3838
▁trói	-3839
▁đọng	-3840
▁bronx	-3841
▁click	-3842
▁liêng	-3843
▁pound	-3844
▁quăng	-3845
▁joshua	-3846
▁newton	-3847
▁virgin	-3848
▁carolina	-3849
▁indonesia	-3850
ix	-3851
pr	-3852
yd	-3853
bốt	-3854
cri	-3855
▁eb	-3856
▁kr	-3857
▁nạ	-3858
king	-3859
ylon	-3860
▁dời	-3861
▁lew	-3862
▁mẹo	-3863
▁quỵ	-3864
▁sen	-3865
▁vặn	-3866
▁đun	-3867
lobal	-3868
▁1900	-3869
▁1999	-3870
▁berk	-3871
▁chốn	-3872
▁kiều	-3873
▁leon	-3874
▁lách	-3875
▁lửng	-3876
▁ngơi	-3877
▁quạt	-3878
▁rặng	-3879
▁tước	-3880
▁chuối	-3881
▁khiết	-3882
▁nhược	-3883
▁chuộng	-3884
▁100,000	-3885
ou	-3886
hai	-3887
har	-3888
isa	-3889
ole	-3890
oop	-3891
▁38	-3892
▁44	-3893
▁ay	-3894
▁gg	-3895
▁êm	-3896
▁ỏi	-3897
mann	-3898
well	-3899
▁cắn	-3900
▁cọc	-3901
▁kal	-3902
▁lứa	-3903
▁mọt	-3904
▁ngả	-3905
▁nến	-3906
▁nứt	-3907
▁vit	-3908
▁váy	-3909
▁woo	-3910
▁you	-3911
▁đồn	-3912
▁đứt	-3913
cript	-3914
▁beat	-3915
▁cafe	-3916
▁coll	-3917
▁dang	-3918
▁găng	-3919
▁kiềm	-3920
▁rand	-3921
▁suối	-3922
▁atlan	-3923
▁chile	-3924
▁delhi	-3925
▁kevin	-3926
▁khuất	-3927
▁scott	-3928
▁simon	-3929
▁gandhi	-3930
▁nation	-3931
▁wright	-3932
▁wolfram	-3933
ci	-3934
ze	-3935
ỉa	-3936
▁ủ	-3937
ata	-3938
lad	-3939
sin	-3940
▁ex	-3941
▁tẻ	-3942
▁wk	-3943
▁ắc	-3944
opia	-3945
raph	-3946
▁arg	-3947
▁bud	-3948
▁bọt	-3949
▁cạo	-3950
▁hoi	-3951
▁ipo	-3952
▁lou	-3953
▁lót	-3954
▁lấn	-3955
▁lọt	-3956
▁mer	-3957
▁min	-3958
▁nic	-3959
▁nộp	-3960
▁oli	-3961
▁rìu	-3962
▁rớt	-3963
▁sứa	-3964
▁xốp	-3965
inton	-3966
▁1930	-3967
▁carl	-3968
▁chạp	-3969
▁cưỡi	-3970
▁giàn	-3971
▁gold	-3972
▁jean	-3973
▁mary	-3974
▁miss	-3975
▁ngào	-3976
▁ngủi	-3977
▁nhạo	-3978
▁nhấc	-3979
▁phàn	-3980
▁sher	-3981
pamine	-3982
▁colum	-3983
▁ngoạn	-3984
▁opera	-3985
▁nelson	-3986
▁alexander	-3987
bs	-3988
bt	-3989
up	-3990
nik	-3991
nis	-3992
str	-3993
▁cớ	-3994
▁kg	-3995
▁ku	-3996
▁vo	-3997
aeda	-3998
eton	-3999
ings	-4000
ters	-4001
▁ann	-4002
▁cel	-4003
▁cằn	-4004
▁dồi	-4005
▁edi	-4006
▁fri	-4007
▁gạo	-4008
▁hor	-4009
▁kat	-4010
▁lim	-4011
▁lụa	-4012
▁moz	-4013
▁net	-4014
▁nặc	-4015
▁sky	-4016
▁trệ	-4017
▁tít	-4018
▁xấp	-4019
▁đạm	-4020
▁đốn	-4021
▁2030	-4022
▁arch	-4023
▁bell	-4024
▁chật	-4025
▁chốc	-4026
▁gram	-4027
▁jane	-4028
▁jord	-4029
▁liêu	-4030
▁ngạo	-4031
▁ngọc	-4032
▁nhát	-4033
▁quẩn	-4034
▁rong	-4035
▁rồng	-4036
▁sưởi	-4037
▁temp	-4038
▁tiệt	-4039
▁zimb	-4040
entina	-4041
▁power	-4042
▁sarah	-4043
▁thừng	-4044
▁vướng	-4045
▁disney	-4046
▁tanzan	-4047
▁stewart	-4048
▁vitamin	-4049
▁dopamine	-4050
gi	-4051
nn	-4052
và	-4053
ùn	-4054
cks	-4055
gan	-4056
ild	-4057
oma	-4058
use	-4059
▁46	-4060
▁bh	-4061
▁bì	-4062
▁cp	-4063
▁sk	-4064
▁sờ	-4065
▁te	-4066
▁vã	-4067
aron	-4068
chel	-4069
etti	-4070
ican	-4071
penh	-4072
▁1.5	-4073
▁all	-4074
▁ash	-4075
▁củi	-4076
▁dào	-4077
▁gắt	-4078
▁gớm	-4079
▁ind	-4080
▁mìn	-4081
▁rùa	-4082
▁thỏ	-4083
▁tro	-4084
▁axit	-4085
▁chọi	-4086
▁ghen	-4087
▁line	-4088
▁mill	-4089
▁phớt	-4090
▁tuộc	-4091
▁vành	-4092
▁vựng	-4093
▁đính	-4094
▁khoác	-4095
▁lewis	-4096
▁nguội	-4097
▁phanh	-4098
▁thiêu	-4099
▁tràng	-4100
▁copenh	-4101
▁khuếch	-4102
▁poster	-4103
▁venice	-4104
▁brooklyn	-4105
▁virginia	-4106
▁copenhagen	-4107
pi	-4108
uc	-4109
zz	-4110
ún	-4111
ẹt	-4112
gar	-4113
ily	-4114
key	-4115
oom	-4116
pin	-4117
ươc	-4118
▁72	-4119
▁ak	-4120
▁gw	-4121
▁kn	-4122
▁nộ	-4123
▁tở	-4124
▁ôn	-4125
▁ừm	-4126
▁2.5	-4127
▁bir	-4128
▁cưa	-4129
▁dem	-4130
▁háo	-4131
▁kel	-4132
▁mác	-4133
▁nới	-4134
▁oxi	-4135
▁ram	-4136
▁syl	-4137
▁tah	-4138
▁tel	-4139
▁trá	-4140
▁vùi	-4141
ivers	-4142
▁1984	-4143
▁2012	-4144
▁acid	-4145
▁brit	-4146
▁ethi	-4147
▁nhại	-4148
▁nhức	-4149
▁ross	-4150
▁tụng	-4151
▁điếu	-4152
burger	-4153
▁album	-4154
▁chinh	-4155
▁chích	-4156
▁khinh	-4157
▁nhúng	-4158
▁phích	-4159
▁sương	-4160
▁edward	-4161
▁johnny	-4162
▁clinton	-4163
▁tanzania	-4164
▁argentina	-4165
fa	-4166
ib	-4167
õm	-4168
ũa	-4169
ợm	-4170
edy	-4171
end	-4172
ose	-4173
pal	-4174
way	-4175
ệch	-4176
▁42	-4177
▁96	-4178
▁bự	-4179
▁dj	-4180
▁mị	-4181
▁uc	-4182
alem	-4183
ardy	-4184
coln	-4185
eley	-4186
erra	-4187
ilet	-4188
ollo	-4189
▁192	-4190
▁193	-4191
▁cào	-4192
▁cúi	-4193
▁had	-4194
▁hao	-4195
▁hop	-4196
▁huỳ	-4197
▁jul	-4198
▁lụt	-4199
▁meg	-4200
▁mài	-4201
▁méo	-4202
▁mỉa	-4203
▁nực	-4204
▁ooh	-4205
▁toạ	-4206
▁ush	-4207
▁vắt	-4208
▁vỉa	-4209
▁ăng	-4210
▁đôn	-4211
▁đặn	-4212
graph	-4213
oster	-4214
▁amer	-4215
▁benj	-4216
▁bern	-4217
▁chen	-4218
▁cành	-4219
▁cưng	-4220
▁diễu	-4221
▁dưng	-4222
▁dẳng	-4223
▁ipad	-4224
▁nhọn	-4225
▁nhốt	-4226
▁nhục	-4227
▁quấn	-4228
▁suýt	-4229
▁tenn	-4230
▁thảy	-4231
▁thốn	-4232
usalem	-4233
▁chênh	-4234
▁hawai	-4235
▁matth	-4236
▁bosnia	-4237
▁nathan	-4238
▁sylvia	-4239
▁babylon	-4240
▁lincoln	-4241
▁montana	-4242
▁columbia	-4243
▁ethiopia	-4244
▁jerusalem	-4245
▁parkinson	-4246
km	-4247
mi	-4248
bai	-4249
bar	-4250
ecd	-4251
ics	-4252
ies	-4253
lee	-4254
oll	-4255
ors	-4256
rai	-4257
tôi	-4258
▁86	-4259
▁vá	-4260
▁xổ	-4261
▁ớt	-4262
▁130	-4263
▁2.0	-4264
▁báu	-4265
▁chổ	-4266
▁cur	-4267
▁căm	-4268
▁fan	-4269
▁gán	-4270
▁gầy	-4271
▁gốm	-4272
▁hav	-4273
▁kur	-4274
▁kép	-4275
▁ngự	-4276
▁nóc	-4277
▁nấc	-4278
▁bren	-4279
▁carn	-4280
▁city	-4281
▁comp	-4282
▁euro	-4283
▁fort	-4284
▁jill	-4285
▁khoe	-4286
▁láng	-4287
▁news	-4288
▁oecd	-4289
▁quầy	-4290
▁rảnh	-4291
▁taxi	-4292
▁tedg	-4293
▁thối	-4294
▁well	-4295
▁điểu	-4296
▁colom	-4297
▁huỳnh	-4298
▁jones	-4299
▁moore	-4300
▁qatar	-4301
▁virut	-4302
▁water	-4303
▁choàng	-4304
▁toilet	-4305
▁cameron	-4306
▁christo	-4307
▁somalia	-4308
▁leonardo	-4309
▁victoria	-4310
▁tedglobal	-4311
,1	-4312
,7	-4313
yo	-4314
ụn	-4315
ake	-4316
ali	-4317
ani	-4318
bie	-4319
bor	-4320
hov	-4321
ise	-4322
kyo	-4323
ora	-4324
vít	-4325
▁98	-4326
▁aw	-4327
▁bệ	-4328
▁cm	-4329
▁cs	-4330
▁ev	-4331
▁wo	-4332
▁xẻ	-4333
btit	-4334
eera	-4335
erom	-4336
pper	-4337
utan	-4338
▁140	-4339
▁bas	-4340
▁baz	-4341
▁bot	-4342
▁dam	-4343
▁dur	-4344
▁dạn	-4345
▁gót	-4346
▁hức	-4347
▁jes	-4348
▁kam	-4349
▁lén	-4350
▁roy	-4351
▁scr	-4352
▁thà	-4353
▁tỉa	-4354
▁tởm	-4355
▁who	-4356
▁xào	-4357
ering	-4358
utnik	-4359
▁bali	-4360
▁chảo	-4361
▁giầy	-4362
▁lười	-4363
▁mánh	-4364
▁poly	-4365
▁port	-4366
▁test	-4367
▁west	-4368
aptcha	-4369
▁banjo	-4370
▁broad	-4371
▁georg	-4372
▁julia	-4373
▁north	-4374
▁phiện	-4375
▁roger	-4376
btitles	-4377
▁julian	-4378
▁pherom	-4379
▁philad	-4380
▁sierra	-4381
▁starbu	-4382
▁zimbab	-4383
▁siberia	-4384
▁sputnik	-4385
▁berkeley	-4386
▁jonathan	-4387
▁national	-4388
▁hamburger	-4389
▁subtitles	-4390
▁tasmanian	-4391
▁transcript	-4392
40	-4393
cc	-4394
ii	-4395
ox	-4396
agh	-4397
aig	-4398
cal	-4399
cra	-4400
dor	-4401
ita	-4402
itt	-4403
ken	-4404
las	-4405
ops	-4406
pro	-4407
rey	-4408
tan	-4409
tel	-4410
uck	-4411
ươm	-4412
▁dr	-4413
▁fe	-4414
▁ji	-4415
▁má	-4416
▁ol	-4417
▁rà	-4418
▁sr	-4419
▁tý	-4420
▁tứ	-4421
▁ve	-4422
▁đự	-4423
aska	-4424
igan	-4425
ites	-4426
izab	-4427
tông	-4428
wich	-4429
▁1,5	-4430
▁160	-4431
▁180	-4432
▁185	-4433
▁187	-4434
▁350	-4435
▁art	-4436
▁bel	-4437
▁bịt	-4438
▁cat	-4439
▁côi	-4440
▁cửu	-4441
▁gel	-4442
▁hốc	-4443
▁ion	-4444
▁jan	-4445
▁ker	-4446
▁mỉm	-4447
▁pen	-4448
▁rậm	-4449
▁sáp	-4450
▁sấu	-4451
▁top	-4452
▁trớ	-4453
▁tặc	-4454
▁vác	-4455
▁vầy	-4456
▁xoa	-4457
▁xót	-4458
▁đầm	-4459
▁ươi	-4460
ahidi	-4461
phere	-4462
▁1996	-4463
▁5000	-4464
▁alan	-4465
▁bướu	-4466
▁chad	-4467
▁chéo	-4468
▁chóp	-4469
▁cúng	-4470
▁edin	-4471
▁fred	-4472
▁gall	-4473
▁giun	-4474
▁gran	-4475
▁hiên	-4476
▁kiếp	-4477
▁link	-4478
▁lung	-4479
▁lúng	-4480
▁mass	-4481
▁neur	-4482
▁nguỵ	-4483
▁ngâm	-4484
▁nháy	-4485
▁pass	-4486
▁rãnh	-4487
▁shir	-4488
▁thản	-4489
▁xuôi	-4490
▁yves	-4491
▁điếc	-4492
▁đươc	-4493
▁đười	-4494
ladesh	-4495
▁alice	-4496
▁earth	-4497
▁kelly	-4498
▁khuấy	-4499
▁leone	-4500
▁ngoặt	-4501
▁tesla	-4502
▁tokyo	-4503
izabeth	-4504
▁apollo	-4505
▁copern	-4506
▁hawaii	-4507
▁steven	-4508
▁atlanta	-4509
▁jazeera	-4510
▁anderson	-4511
▁benjamin	-4512
▁ushahidi	-4513
▁zimbabwe	-4514
▁edinburgh	-4515
▁elizabeth	-4516
▁starbucks	-4517
-3	-4518
sa	-4519
ơc	-4520
▁=	-4521
ese	-4522
fur	-4523
rib	-4524
vis	-4525
▁43	-4526
▁58	-4527
▁93	-4528
▁dì	-4529
▁mm	-4530
▁sn	-4531
▁sộ	-4532
agos	-4533
egie	-4534
ifer	-4535
mart	-4536
nedy	-4537
tech	-4538
zler	-4539
▁2,5	-4540
▁bén	-4541
▁cas	-4542
▁cor	-4543
▁cày	-4544
▁eng	-4545
▁gar	-4546
▁gas	-4547
▁glu	-4548
▁gục	-4549
▁hit	-4550
▁hot	-4551
▁law	-4552
▁lãi	-4553
▁lầy	-4554
▁map	-4555
▁mầu	-4556
▁rap	-4557
▁thỉ	-4558
▁vôi	-4559
▁xáo	-4560
▁xâu	-4561
ather	-4562
geria	-4563
otter	-4564
▁1998	-4565
▁chén	-4566
▁chải	-4567
▁doug	-4568
▁ghim	-4569
▁ipod	-4570
▁ivan	-4571
▁marc	-4572
▁maya	-4573
▁nhôm	-4574
▁nike	-4575
▁penn	-4576
▁rick	-4577
▁time	-4578
▁viền	-4579
▁đắng	-4580
apagos	-4581
elphia	-4582
▁chằng	-4583
▁emily	-4584
▁khống	-4585
▁plato	-4586
▁susan	-4587
▁triễn	-4588
graphic	-4589
▁lakota	-4590
▁luther	-4591
▁warren	-4592
▁everest	-4593
▁jackson	-4594
▁kennedy	-4595
▁teszler	-4596
▁carnegie	-4597
▁michigan	-4598
▁tasmania	-4599
▁galapagos	-4600
▁bangladesh	-4601
▁philadelphia	-4602
..	-4603
bc	-4604
gu	-4605
hh	-4606
nô	-4607
rô	-4608
200	-4609
han	-4610
ial	-4611
ias	-4612
lor	-4613
ria	-4614
val	-4615
vem	-4616
xon	-4617
▁3.	-4618
▁41	-4619
▁52	-4620
▁64	-4621
▁pa	-4622
▁up	-4623
▁xì	-4624
▁ập	-4625
ield	-4626
mbai	-4627
olas	-4628
omen	-4629
tion	-4630
▁190	-4631
▁ach	-4632
▁bôi	-4633
▁bầm	-4634
▁des	-4635
▁est	-4636
▁fgm	-4637
▁giê	-4638
▁gro	-4639
▁gật	-4640
▁hèn	-4641
▁lạt	-4642
▁mot	-4643
▁nat	-4644
▁nồi	-4645
▁phả	-4646
▁pri	-4647
▁rem	-4648
▁sập	-4649
▁tor	-4650
▁trù	-4651
▁xắn	-4652
▁xịt	-4653
▁đắc	-4654
attle	-4655
izona	-4656
point	-4657
▁1994	-4658
▁beet	-4659
▁bành	-4660
▁cher	-4661
▁chói	-4662
▁enzy	-4663
▁giục	-4664
▁jeop	-4665
▁jess	-4666
▁joel	-4667
▁phot	-4668
▁quấy	-4669
▁thạc	-4670
▁viol	-4671
▁vũng	-4672
▁will	-4673
hammad	-4674
opatch	-4675
▁2,000	-4676
▁chanh	-4677
▁great	-4678
▁marco	-4679
▁ngước	-4680
▁phông	-4681
▁sudan	-4682
▁thủng	-4683
▁bhutan	-4684
▁kansas	-4685
▁mumbai	-4686
▁neuron	-4687
▁nhượng	-4688
▁samuel	-4689
▁100.000	-4690
▁arizona	-4691
▁tempest	-4692
▁colombia	-4693
▁muhammad	-4694
▁sandwich	-4695
▁greenland	-4696
▁nanopatch	-4697
12	-4698
dt	-4699
ks	-4700
uz	-4701
▁)	-4702
fel	-4703
had	-4704
môn	-4705
our	-4706
the	-4707
▁47	-4708
▁74	-4709
▁97	-4710
▁bã	-4711
▁iq	-4712
▁kỵ	-4713
▁mg	-4714
▁oz	-4715
▁uk	-4716
▁ur	-4717
▁vv	-4718
eman	-4719
icus	-4720
imal	-4721
imet	-4722
▁900	-4723
▁arn	-4724
▁bus	-4725
▁còi	-4726
▁dấn	-4727
▁dẫu	-4728
▁gil	-4729
▁khờ	-4730
▁lol	-4731
▁lít	-4732
▁lẫy	-4733
▁ngà	-4734
▁noi	-4735
▁náo	-4736
▁oak	-4737
▁pas	-4738
▁prô	-4739
▁rec	-4740
▁sải	-4741
▁sẹo	-4742
▁tòi	-4743
▁von	-4744
▁đậy	-4745
▁đắp	-4746
▁đỗi	-4747
eller	-4748
hoven	-4749
rence	-4750
▁1995	-4751
▁bert	-4752
▁blue	-4753
▁bàng	-4754
▁báng	-4755
▁bịch	-4756
▁chồn	-4757
▁clay	-4758
▁ngặt	-4759
▁phao	-4760
▁romo	-4761
▁trơn	-4762
▁vuốt	-4763
▁watt	-4764
▁đấng	-4765
donald	-4766
ribati	-4767
▁1.000	-4768
▁cairo	-4769
▁giang	-4770
▁grace	-4771
▁grand	-4772
▁jesus	-4773
▁jihad	-4774
▁jonas	-4775
▁larry	-4776
▁mitch	-4777
▁movem	-4778
▁nepal	-4779
▁princ	-4780
▁quáng	-4781
▁titan	-4782
osphere	-4783
thalate	-4784
▁50.000	-4785
▁alaska	-4786
▁havard	-4787
osterone	-4788
▁captcha	-4789
▁kiribati	-4790
▁beethoven	-4791
▁powerpoint	-4792
▁christopher	-4793
▁testosterone	-4794
80	-4795
ju	-4796
my	-4797
ado	-4798
ait	-4799
aly	-4800
ame	-4801
cou	-4802
day	-4803
emy	-4804
eng	-4805
hol	-4806
ima	-4807
ink	-4808
lex	-4809
một	-4810
tal	-4811
tim	-4812
tor	-4813
ềng	-4814
▁by	-4815
▁kị	-4816
▁lố	-4817
▁pu	-4818
▁xl	-4819
▁ín	-4820
▁ầm	-4821
cher	-4822
eyer	-4823
ropa	-4824
unds	-4825
uten	-4826
word	-4827
▁125	-4828
▁450	-4829
▁aim	-4830
▁bil	-4831
▁cad	-4832
▁cnn	-4833
▁câm	-4834
▁cẩm	-4835
▁cỗi	-4836
▁dol	-4837
▁eve	-4838
▁hip	-4839
▁hươ	-4840
▁hắc	-4841
▁kèn	-4842
▁leb	-4843
▁lầu	-4844
▁mck	-4845
▁mặn	-4846
▁mội	-4847
▁nhẽ	-4848
▁pic	-4849
▁reo	-4850
▁she	-4851
▁sạc	-4852
▁trỏ	-4853
▁tản	-4854
▁vol	-4855
▁wei	-4856
asure	-4857
▁1975	-4858
▁bazơ	-4859
▁cass	-4860
▁họng	-4861
▁kiêu	-4862
▁nang	-4863
▁nham	-4864
▁nhọc	-4865
▁part	-4866
▁rain	-4867
▁rách	-4868
▁ròng	-4869
▁stef	-4870
▁suôn	-4871
▁sừng	-4872
▁thẹn	-4873
▁thỉu	-4874
▁trỗi	-4875
▁aaron	-4876
▁craig	-4877
▁duyên	-4878
▁giềng	-4879
▁quẳng	-4880
▁super	-4881
▁titus	-4882
▁viếng	-4883
▁20.000	-4884
▁50,000	-4885
▁berlin	-4886
▁cheryl	-4887
▁europa	-4888
▁jordan	-4889
▁marath	-4890
▁nguyệt	-4891
▁phượng	-4892
▁rachel	-4893
▁yorker	-4894
▁hungary	-4895
▁johnson	-4896
▁seattle	-4897
▁jeopardy	-4898
▁movember	-4899
▁phthalate	-4900
▁princeton	-4901
▁geographic	-4902
▁lesterland	-4903
.9	-4904
aa	-4905
rk	-4906
sc	-4907
wa	-4908
inn	-4909
iêt	-4910
met	-4911
nie	-4912
pee	-4913
rie	-4914
tha	-4915
une	-4916
unt	-4917
ura	-4918
ưởi	-4919
▁34	-4920
▁82	-4921
▁bú	-4922
▁ec	-4923
▁jr	-4924
▁ka	-4925
▁lh	-4926
▁om	-4927
▁xở	-4928
▁đê	-4929
arin	-4930
egon	-4931
ette	-4932
inea	-4933
rina	-4934
robi	-4935
rray	-4936
▁blu	-4937
▁bow	-4938
▁boy	-4939
▁bịp	-4940
▁dấy	-4941
▁fbi	-4942
▁ful	-4943
▁god	-4944
▁gôn	-4945
▁gặm	-4946
▁lab	-4947
▁med	-4948
▁nao	-4949
▁pac	-4950
▁phu	-4951
▁pra	-4952
▁răn	-4953
▁rạc	-4954
▁rọi	-4955
▁sad	-4956
▁seb	-4957
▁son	-4958
▁sụt	-4959
▁tột	-4960
▁uhm	-4961
▁xói	-4962
▁đút	-4963
▁ướp	-4964
berry	-4965
ellow	-4966
▁4000	-4967
▁beau	-4968
▁chat	-4969
▁chổi	-4970
▁dave	-4971
▁dean	-4972
▁file	-4973
▁foot	-4974
▁foxo	-4975
▁head	-4976
▁hươu	-4977
▁liễu	-4978
▁lộng	-4979
▁math	-4980
▁ngợp	-4981
▁nhấm	-4982
▁phẫn	-4983
▁pier	-4984
▁thêu	-4985
▁tưới	-4986
▁điềm	-4987
▁đựơc	-4988
couver	-4989
otonin	-4990
▁aimee	-4991
▁beach	-4992
▁chiết	-4993
▁diana	-4994
▁diego	-4995
▁fried	-4996
▁games	-4997
▁keith	-4998
▁khuya	-4999
▁mường	-5000
▁phình	-5001
▁skype	-5002
▁spagh	-5003
▁thình	-5004
▁bertie	-5005
▁graham	-5006
▁guinea	-5007
▁island	-5008
▁murray	-5009
▁oliver	-5010
▁taylor	-5011
▁katrina	-5012
▁nairobi	-5013
▁marathon	-5014
▁mcdonald	-5015
▁password	-5016
▁jefferson	-5017
▁spaghetti	-5018
cr	-5019
od	-5020
ars	-5021
ats	-5022
bus	-5023
bốn	-5024
ena	-5025
eta	-5026
ezu	-5027
ows	-5028
ras	-5029
ump	-5030
vin	-5031
▁2,	-5032
▁54	-5033
▁77	-5034
▁dp	-5035
▁dè	-5036
▁id	-5037
▁mw	-5038
▁rg	-5039
abad	-5040
acci	-5041
agan	-5042
ager	-5043
alin	-5044
fred	-5045
inda	-5046
ject	-5047
lock	-5048
ones	-5049
rane	-5050
tone	-5051
▁1,2	-5052
▁1.2	-5053
▁acc	-5054
▁bre	-5055
▁bùm	-5056
▁bần	-5057
▁bục	-5058
▁eth	-5059
▁fda	-5060
▁gaz	-5061
▁geh	-5062
▁ger	-5063
▁ghề	-5064
▁gởi	-5065
▁has	-5066
▁hem	-5067
▁jas	-5068
▁jud	-5069
▁kén	-5070
▁leg	-5071
▁loé	-5072
▁lẩn	-5073
▁mak	-5074
▁nhô	-5075
▁nin	-5076
▁nôn	-5077
▁nặn	-5078
▁pap	-5079
▁sat	-5080
▁sảy	-5081
▁sấm	-5082
▁ten	-5083
▁túp	-5084
▁ver	-5085
▁vóc	-5086
▁xít	-5087
aurus	-5088
chúng	-5089
etown	-5090
garet	-5091
rorna	-5092
ustin	-5093
women	-5094
▁1945	-5095
▁1992	-5096
▁1997	-5097
▁6000	-5098
▁anth	-5099
▁arab	-5100
▁band	-5101
▁bolt	-5102
▁buồm	-5103
▁cuba	-5104
▁dick	-5105
▁doha	-5106
▁gwen	-5107
▁juli	-5108
▁loan	-5109
▁mars	-5110
▁miên	-5111
▁ngần	-5112
▁nhún	-5113
▁nòng	-5114
▁nấng	-5115
▁peru	-5116
▁rose	-5117
▁russ	-5118
▁rành	-5119
▁stir	-5120
▁trút	-5121
▁vinc	-5122
imalay	-5123
▁alber	-5124
▁canxi	-5125
▁chệch	-5126
▁fibon	-5127
▁jerry	-5128
▁johns	-5129
▁julie	-5130
▁kyoto	-5131
▁metan	-5132
▁shock	-5133
▁stock	-5134
▁ukrai	-5135
▁oregon	-5136
▁hawking	-5137
▁himalay	-5138
▁matthew	-5139
▁jennifer	-5140
▁margaret	-5141
▁microrna	-5142
▁mitchell	-5143
▁treasure	-5144
▁fibonacci	-5145
▁serotonin	-5146
▁vancouver	-5147
▁copernicus	-5148
êt	-5149
▁#	-5150
acy	-5151
aus	-5152
chn	-5153
fen	-5154
ila	-5155
mat	-5156
ral	-5157
uce	-5158
uit	-5159
▁53	-5160
▁78	-5161
▁az	-5162
▁gò	-5163
▁gồ	-5164
▁nè	-5165
▁sỡ	-5166
▁tú	-5167
▁we	-5168
ange	-5169
anon	-5170
bera	-5171
ecca	-5172
gram	-5173
illa	-5174
nett	-5175
vian	-5176
▁1.3	-5177
▁404	-5178
▁ali	-5179
▁bạt	-5180
▁cáu	-5181
▁cơm	-5182
▁ell	-5183
▁eur	-5184
▁gol	-5185
▁gào	-5186
▁gân	-5187
▁gầm	-5188
▁ike	-5189
▁jar	-5190
▁mob	-5191
▁mod	-5192
▁mus	-5193
▁mút	-5194
▁mịn	-5195
▁nhì	-5196
▁nhổ	-5197
▁nôi	-5198
▁phà	-5199
▁quỳ	-5200
▁rao	-5201
▁reb	-5202
▁sis	-5203
▁sms	-5204
▁sol	-5205
▁sút	-5206
▁teh	-5207
alore	-5208
ersey	-5209
ition	-5210
những	-5211
oshop	-5212
ronto	-5213
▁2020	-5214
▁axít	-5215
▁calo	-5216
▁conn	-5217
▁coop	-5218
▁diêm	-5219
▁duỗi	-5220
▁gary	-5221
▁gaza	-5222
▁giòn	-5223
▁gord	-5224
▁hong	-5225
▁hoạn	-5226
▁kiêm	-5227
▁lock	-5228
▁miệt	-5229
▁nhảm	-5230
▁nich	-5231
▁peps	-5232
▁ryan	-5233
▁rưởi	-5234
▁rạch	-5235
▁rạng	-5236
▁shar	-5237
▁sopa	-5238
▁thoa	-5239
▁thoi	-5240
▁thuở	-5241
▁trâu	-5242
▁trọt	-5243
ezuela	-5244
▁1,000	-5245
▁allen	-5246
▁billy	-5247
▁dubai	-5248
▁mario	-5249
▁qaeda	-5250
▁alfred	-5251
▁jersey	-5252
▁justin	-5253
▁mozart	-5254
▁nghênh	-5255
▁nguyền	-5256
▁nitric	-5257
▁tedtal	-5258
▁tehran	-5259
▁blogger	-5260
▁caltech	-5261
▁lebanon	-5262
▁liberia	-5263
▁oakland	-5264
▁toronto	-5265
▁american	-5266
▁franklin	-5267
▁lawrence	-5268
▁stirling	-5269
▁bangalore	-5270
▁photoshop	-5271
▁venezuela	-5272
.&	-5273
cl	-5274
cs	-5275
gs	-5276
ji	-5277
ợc	-5278
ụi	-5279
aga	-5280
aha	-5281
aid	-5282
ark	-5283
atz	-5284
bro	-5285
ene	-5286
esa	-5287
hen	-5288
kar	-5289
lem	-5290
let	-5291
ons	-5292
rập	-5293
tar	-5294
ush	-5295
▁39	-5296
▁57	-5297
▁68	-5298
▁bm	-5299
▁cc	-5300
▁eg	-5301
▁eo	-5302
▁hs	-5303
▁lự	-5304
▁py	-5305
▁rệ	-5306
▁tể	-5307
bule	-5308
chan	-5309
iana	-5310
▁110	-5311
▁186	-5312
▁189	-5313
▁clo	-5314
▁deb	-5315
▁dun	-5316
▁dẫm	-5317
▁dốt	-5318
▁ess	-5319
▁gor	-5320
▁hời	-5321
▁ill	-5322
▁kep	-5323
▁les	-5324
▁lev	-5325
▁loà	-5326
▁lẫm	-5327
▁max	-5328
▁moi	-5329
▁nap	-5330
▁nar	-5331
▁nov	-5332
▁nọc	-5333
▁rod	-5334
▁rán	-5335
▁sri	-5336
▁vãn	-5337
▁xén	-5338
▁zip	-5339
espee	-5340
field	-5341
insky	-5342
▁1989	-5343
▁burn	-5344
▁chắt	-5345
▁emma	-5346
▁evan	-5347
▁greg	-5348
▁hãnh	-5349
▁lanh	-5350
▁like	-5351
▁luẩn	-5352
▁moma	-5353
▁neil	-5354
▁nhai	-5355
▁nico	-5356
▁post	-5357
▁quật	-5358
▁rome	-5359
▁rụng	-5360
▁schw	-5361
▁teen	-5362
▁thục	-5363
▁văng	-5364
▁whit	-5365
▁xuẩn	-5366
▁xông	-5367
▁yale	-5368
timore	-5369
▁bruce	-5370
▁buông	-5371
▁cello	-5372
▁chiêu	-5373
▁chửng	-5374
▁denis	-5375
▁gando	-5376
▁gehry	-5377
▁intel	-5378
▁louis	-5379
▁marsh	-5380
▁meyer	-5381
▁ngách	-5382
▁ngừơi	-5383
▁oprah	-5384
▁pepsi	-5385
▁saudi	-5386
▁tunis	-5387
▁white	-5388
espeech	-5389
sterdam	-5390
▁albert	-5391
▁barack	-5392
▁harlem	-5393
▁kibera	-5394
▁panthe	-5395
▁sobule	-5396
▁stefan	-5397
▁walker	-5398
▁langley	-5399
▁tenness	-5400
▁williams	-5401
▁pheromone	-5402
▁freespeech	-5403
,8	-5404
-4	-5405
99	-5406
hr	-5407
ml	-5408
ms	-5409
so	-5410
sp	-5411
sw	-5412
zo	-5413
⁄4	-5414
awa	-5415
awi	-5416
ays	-5417
bes	-5418
bot	-5419
box	-5420
cas	-5421
che	-5422
chi	-5423
ife	-5424
ipa	-5425
mud	-5426
ome	-5427
ont	-5428
ote	-5429
rir	-5430
syl	-5431
tos	-5432
yon	-5433
ẵng	-5434
▁00	-5435
▁67	-5436
▁fm	-5437
▁ge	-5438
▁ix	-5439
▁pi	-5440
▁rơ	-5441
▁sb	-5442
▁ss	-5443
▁ut	-5444
▁zk	-5445
▁át	-5446
▁út	-5447
▁ảm	-5448
etts	-5449
mail	-5450
moud	-5451
obyl	-5452
ream	-5453
rich	-5454
tein	-5455
▁1-2	-5456
▁abu	-5457
▁ark	-5458
▁bíp	-5459
▁bịa	-5460
▁cõi	-5461
▁cật	-5462
▁daf	-5463
▁doo	-5464
▁dặn	-5465
▁esg	-5466
▁fed	-5467
▁giở	-5468
▁gri	-5469
▁gul	-5470
▁gáy	-5471
▁hmm	-5472
▁húp	-5473
▁hằn	-5474
▁kay	-5475
▁kir	-5476
▁kos	-5477
▁kẽm	-5478
▁lẽo	-5479
▁mcc	-5480
▁nba	-5481
▁neo	-5482
▁ngó	-5483
▁one	-5484
▁por	-5485
▁pun	-5486
▁res	-5487
▁rệp	-5488
▁sin	-5489
▁sio	-5490
▁spr	-5491
▁sên	-5492
▁sục	-5493
▁sụn	-5494
▁thê	-5495
▁tấu	-5496
▁vệt	-5497
▁win	-5498
▁wir	-5499
▁yến	-5500
▁đũa	-5501
▁đấm	-5502
▁đẫm	-5503
eeney	-5504
extin	-5505
fford	-5506
leans	-5507
shire	-5508
vania	-5509
▁barb	-5510
▁carr	-5511
▁chao	-5512
▁chộp	-5513
▁coch	-5514
▁code	-5515
▁copy	-5516
▁east	-5517
▁giễu	-5518
▁hall	-5519
▁hoóc	-5520
▁ikea	-5521
▁irắc	-5522
▁joey	-5523
▁karl	-5524
▁kent	-5525
▁kiva	-5526
▁ngấm	-5527
▁noel	-5528
▁phai	-5529
▁pipa	-5530
▁play	-5531
▁rang	-5532
▁rory	-5533
▁serg	-5534
▁sưng	-5535
▁tour	-5536
▁uyên	-5537
▁váng	-5538
colate	-5539
▁2.000	-5540
▁3,000	-5541
▁5,000	-5542
▁ariel	-5543
▁bloom	-5544
▁chern	-5545
▁chững	-5546
▁essex	-5547
▁found	-5548
▁jamai	-5549
▁loang	-5550
▁loãng	-5551
▁maria	-5552
▁moses	-5553
▁nhung	-5554
▁oscar	-5555
▁solly	-5556
▁stand	-5557
▁state	-5558
▁stone	-5559
▁thiển	-5560
▁weibo	-5561
▁archie	-5562
▁bonnie	-5563
▁carter	-5564
▁cooper	-5565
▁gallon	-5566
▁kepler	-5567
▁latinh	-5568
▁michel	-5569
▁miller	-5570
▁nhoáng	-5571
▁potter	-5572
▁tahrir	-5573
▁tedmed	-5574
▁wilson	-5575
sylvania	-5576
▁anthony	-5577
▁goering	-5578
▁ireland	-5579
▁mahmoud	-5580
▁melinda	-5581
▁orleans	-5582
▁scratch	-5583
▁stanley	-5584
▁univers	-5585
▁arkansas	-5586
▁palextin	-5587
▁baltimore	-5588
▁chernobyl	-5589
▁chocolate	-5590
▁tennessee	-5591
▁pennsylvania	-5592
-6	-5593
cm	-5594
hu	-5595
ki	-5596
ku	-5597
nd	-5598
si	-5599
su	-5600
vo	-5601
ww	-5602
êc	-5603
đi	-5604
▁ê	-5605
▁ĩ	-5606
aba	-5607
aks	-5608
ava	-5609
bao	-5610
bun	-5611
cia	-5612
ean	-5613
elt	-5614
ets	-5615
fli	-5616
its	-5617
lot	-5618
ogy	-5619
oot	-5620
oph	-5621
rid	-5622
tic	-5623
wne	-5624
ẩng	-5625
▁76	-5626
▁84	-5627
▁94	-5628
▁bở	-5629
▁dế	-5630
▁ep	-5631
▁fu	-5632
▁mp	-5633
▁mí	-5634
▁nu	-5635
▁nể	-5636
▁ow	-5637
▁rợ	-5638
▁té	-5639
▁wa	-5640
▁đả	-5641
ader	-5642
artz	-5643
atem	-5644
bble	-5645
colm	-5646
cose	-5647
eber	-5648
emat	-5649
erat	-5650
flix	-5651
holm	-5652
icut	-5653
iley	-5654
ince	-5655
itch	-5656
itha	-5657
moor	-5658
rora	-5659
ynth	-5660
zero	-5661
▁1.6	-5662
▁360	-5663
▁bai	-5664
▁cau	-5665
▁cos	-5666
▁cội	-5667
▁cợt	-5668
▁dor	-5669
▁dép	-5670
▁fai	-5671
▁fey	-5672
▁fil	-5673
▁gặt	-5674
▁hid	-5675
▁hol	-5676
▁hót	-5677
▁key	-5678
▁lốc	-5679
▁mir	-5680
▁nik	-5681
▁náu	-5682
▁núm	-5683
▁nại	-5684
▁nạt	-5685
▁nấp	-5686
▁ody	-5687
▁out	-5688
▁rẩy	-5689
▁rẫy	-5690
▁rắm	-5691
▁rụi	-5692
▁sci	-5693
▁sex	-5694
▁sảo	-5695
▁ton	-5696
▁tso	-5697
▁vấp	-5698
▁vịn	-5699
▁xao	-5700
buntu	-5701
rahum	-5702
yager	-5703
▁1500	-5704
▁1800	-5705
▁1986	-5706
▁1988	-5707
▁andy	-5708
▁bono	-5709
▁brad	-5710
▁buff	-5711
▁chậu	-5712
▁cock	-5713
▁denn	-5714
▁econ	-5715
▁homo	-5716
▁hoán	-5717
▁inst	-5718
▁irag	-5719
▁kate	-5720
▁kông	-5721
▁love	-5722
▁lình	-5723
▁măng	-5724
▁nauy	-5725
▁ngất	-5726
▁nhoi	-5727
▁nitơ	-5728
▁phồn	-5729
▁shah	-5730
▁tora	-5731
▁tuôn	-5732
▁viêc	-5733
▁vụng	-5734
▁wang	-5735
▁whoa	-5736
▁yoga	-5737
▁đong	-5738
▁đùng	-5739
usetts	-5740
▁agnes	-5741
▁ahmed	-5742
▁ailen	-5743
▁bayes	-5744
▁biếng	-5745
▁brand	-5746
▁dolby	-5747
▁freud	-5748
▁gamma	-5749
▁harry	-5750
▁helen	-5751
▁jacqu	-5752
▁jason	-5753
▁lanka	-5754
▁libya	-5755
▁linux	-5756
▁moham	-5757
▁nghiã	-5758
▁ngẩng	-5759
▁santa	-5760
▁scoop	-5761
▁sioux	-5762
▁stein	-5763
▁young	-5764
atemala	-5765
ecticut	-5766
ematica	-5767
▁20,000	-5768
▁aurora	-5769
▁browne	-5770
▁chuồng	-5771
▁khoanh	-5772
▁norman	-5773
▁rezero	-5774
▁ubuntu	-5775
▁violin	-5776
rahumara	-5777
▁200,000	-5778
▁glucose	-5779
▁hopkins	-5780
▁malcolm	-5781
▁massach	-5782
▁milimet	-5783
▁sweeney	-5784
▁cochrane	-5785
▁maryland	-5786
▁nicholas	-5787
▁palestin	-5788
▁pantheon	-5789
▁tedwomen	-5790
▁amsterdam	-5791
▁broadmoor	-5792
▁guatemala	-5793
▁tarahumara	-5794
▁connecticut	-5795
▁mathematica	-5796
,2	-5797
.2	-5798
.7	-5799
fl	-5800
lô	-5801
rt	-5802
uj	-5803
ém	-5804
ỏm	-5805
aby	-5806
ade	-5807
anc	-5808
cer	-5809
cop	-5810
dit	-5811
els	-5812
erk	-5813
fer	-5814
iag	-5815
ira	-5816
jev	-5817
lev	-5818
mét	-5819
och	-5820
ovo	-5821
rsh	-5822
sse	-5823
▁56	-5824
▁89	-5825
▁91	-5826
▁bp	-5827
▁gt	-5828
▁hp	-5829
▁jk	-5830
▁kb	-5831
▁lư	-5832
▁mr	-5833
▁ny	-5834
▁oà	-5835
▁rộ	-5836
▁đễ	-5837
able	-5838
ambi	-5839
aren	-5840
asso	-5841
egal	-5842
horn	-5843
iflu	-5844
ingo	-5845
itan	-5846
itic	-5847
itts	-5848
lash	-5849
mond	-5850
oman	-5851
omet	-5852
osev	-5853
phua	-5854
rick	-5855
tail	-5856
yota	-5857
▁1,3	-5858
▁188	-5859
▁2-3	-5860
▁avi	-5861
▁aye	-5862
▁bun	-5863
▁chk	-5864
▁cia	-5865
▁cỏi	-5866
▁dằn	-5867
▁giỏ	-5868
▁goá	-5869
▁hóm	-5870
▁kid	-5871
▁mbi	-5872
▁mis	-5873
▁mix	-5874
▁mun	-5875
▁mào	-5876
▁mồm	-5877
▁naj	-5878
▁ngơ	-5879
▁ott	-5880
▁pao	-5881
▁pur	-5882
▁qúi	-5883
▁ren	-5884
▁rep	-5885
▁rầm	-5886
▁sel	-5887
▁sul	-5888
▁sán	-5889
▁túm	-5890
▁vel	-5891
▁vạt	-5892
▁wis	-5893
▁đùi	-5894
▁đần	-5895
adore	-5896
astle	-5897
atông	-5898
hamas	-5899
inder	-5900
lotte	-5901
owitz	-5902
qaeda	-5903
rogen	-5904
sseus	-5905
▁1940	-5906
▁ball	-5907
▁bart	-5908
▁bass	-5909
▁chèn	-5910
▁cruz	-5911
▁cồng	-5912
▁data	-5913
▁diet	-5914
▁down	-5915
▁evel	-5916
▁hamp	-5917
▁hann	-5918
▁hipp	-5919
▁huck	-5920
▁hỉnh	-5921
▁jake	-5922
▁khay	-5923
▁khoé	-5924
▁khoả	-5925
▁limb	-5926
▁luke	-5927
▁luồn	-5928
▁mell	-5929
▁ngóc	-5930
▁ngửa	-5931
▁nhút	-5932
▁noah	-5933
▁nung	-5934
▁nành	-5935
▁nách	-5936
▁pran	-5937
▁quác	-5938
▁sara	-5939
▁scho	-5940
▁sean	-5941
▁sành	-5942
▁thây	-5943
▁thét	-5944
▁thầu	-5945
▁tric	-5946
▁ucla	-5947
▁vượn	-5948
▁wind	-5949
astian	-5950
enture	-5951
everly	-5952
manuel	-5953
▁10000	-5954
▁austr	-5955
▁calor	-5956
▁chang	-5957
▁chánh	-5958
▁elvis	-5959
▁guard	-5960
▁hiros	-5961
▁hirsh	-5962
▁incra	-5963
▁jimmy	-5964
▁khoát	-5965
▁khánh	-5966
▁loanh	-5967
▁media	-5968
▁nhứng	-5969
▁osama	-5970
▁papua	-5971
▁suyễn	-5972
eratops	-5973
▁40,000	-5974
▁40.000	-5975
▁bonnet	-5976
▁brenda	-5977
▁dennis	-5978
▁donald	-5979
▁enzyme	-5980
▁hormon	-5981
▁ixaren	-5982
▁libăng	-5983
▁proton	-5984
▁rivers	-5985
▁robots	-5986
▁thuyên	-5987
▁toraja	-5988
▁trướng	-5989
▁viking	-5990
▁wikile	-5991
▁zipcar	-5992
▁bahamas	-5993
▁beverly	-5994
▁heather	-5995
▁netflix	-5996
▁rockett	-5997
▁tamiflu	-5998
▁tedster	-5999
▁voyager	-6000
▁walmart	-6001
▁catadore	-6002
▁cocktail	-6003
▁maratông	-6004
▁odysseus	-6005
▁progeria	-6006
▁biosphere	-6007
▁charlotte	-6008
▁sebastian	-6009
▁stockholm	-6010
▁foundation	-6011
▁triceratops	-6012
.6	-6013
10	-6014
iy	-6015
tt	-6016
ça	-6017
ẻm	-6018
ỡn	-6019
abi	-6020
act	-6021
ape	-6022
cam	-6023
fus	-6024
ifi	-6025
ipp	-6026
jan	-6027
mit	-6028
obo	-6029
orm	-6030
rch	-6031
ree	-6032
ret	-6033
rom	-6034
ryn	-6035
ulu	-6036
vet	-6037
yce	-6038
yph	-6039
zar	-6040
▁bô	-6041
▁cy	-6042
▁dó	-6043
▁gỉ	-6044
▁hũ	-6045
▁nỉ	-6046
▁vơ	-6047
▁vể	-6048
▁wy	-6049
▁xê	-6050
▁đă	-6051
agas	-6052
alie	-6053
anol	-6054
atma	-6055
côla	-6056
dson	-6057
elli	-6058
etas	-6059
etty	-6060
ical	-6061
ilot	-6062
imét	-6063
jevo	-6064
load	-6065
owan	-6066
phal	-6067
read	-6068
rett	-6069
riel	-6070
roça	-6071
wait	-6072
west	-6073
xter	-6074
▁1.4	-6075
▁101	-6076
▁3,5	-6077
▁401	-6078
▁750	-6079
▁are	-6080
▁arm	-6081
▁ast	-6082
▁aud	-6083
▁bbc	-6084
▁but	-6085
▁bừa	-6086
▁cúc	-6087
▁day	-6088
▁dom	-6089
▁dra	-6090
▁dạt	-6091
▁eeg	-6092
▁gãi	-6093
▁haz	-6094
▁imf	-6095
▁imp	-6096
▁kab	-6097
▁kap	-6098
▁lag	-6099
▁lem	-6100
▁lõm	-6101
▁lộc	-6102
▁mba	-6103
▁mem	-6104
▁mid	-6105
▁neu	-6106
▁nev	-6107
▁năn	-6108
▁nều	-6109
▁ran	-6110
▁râm	-6111
▁rơm	-6112
▁rầu	-6113
▁rữa	-6114
▁sag	-6115
▁sủa	-6116
▁tar	-6117
▁vớt	-6118
▁wol	-6119
▁xua	-6120
▁ươm	-6121
ffiti	-6122
lashy	-6123
ortis	-6124
tonia	-6125
▁1918	-6126
▁1957	-6127
▁1965	-6128
▁1973	-6129
▁1979	-6130
▁1983	-6131
▁1991	-6132
▁2015	-6133
▁2500	-6134
▁7000	-6135
▁anas	-6136
▁aust	-6137
▁bagh	-6138
▁beep	-6139
▁camp	-6140
▁chót	-6141
▁chần	-6142
▁chập	-6143
▁diox	-6144
▁ebay	-6145
▁ganh	-6146
▁gara	-6147
▁giời	-6148
▁juan	-6149
▁kang	-6150
▁kath	-6151
▁khal	-6152
▁kềnh	-6153
▁lisa	-6154
▁lóng	-6155
▁miến	-6156
▁morg	-6157
▁mull	-6158
▁mùng	-6159
▁ngòi	-6160
▁ngời	-6161
▁ngợm	-6162
▁nhen	-6163
▁nhím	-6164
▁nhối	-6165
▁ohio	-6166
▁palm	-6167
▁quây	-6168
▁rùng	-6169
▁shaw	-6170
▁siết	-6171
▁thưc	-6172
▁thềm	-6173
▁trin	-6174
▁turk	-6175
▁vãnh	-6176
▁wiki	-6177
▁đước	-6178
enberg	-6179
strong	-6180
▁4.000	-6181
▁5.000	-6182
▁amino	-6183
▁broth	-6184
▁casey	-6185
▁chuồn	-6186
▁danny	-6187
▁darpa	-6188
▁galil	-6189
▁giông	-6190
▁jacob	-6191
▁jamie	-6192
▁karen	-6193
▁linus	-6194
▁nhuần	-6195
▁oxide	-6196
▁pitts	-6197
▁quặng	-6198
▁riley	-6199
▁rufus	-6200
▁token	-6201
▁vinci	-6202
▁30,000	-6203
▁30.000	-6204
▁baxter	-6205
▁bilbao	-6206
▁burger	-6207
▁canyon	-6208
▁critic	-6209
▁econom	-6210
▁fellow	-6211
▁gordon	-6212
▁harris	-6213
▁helium	-6214
▁hitler	-6215
▁hunter	-6216
▁illino	-6217
▁kosovo	-6218
▁mellon	-6219
▁ngượng	-6220
▁pascal	-6221
▁reddit	-6222
▁sergey	-6223
▁sisyph	-6224
▁sôcôla	-6225
▁toyota	-6226
▁carroça	-6227
▁central	-6228
▁denisov	-6229
▁freeman	-6230
▁gilbert	-6231
▁indiana	-6232
▁jamaica	-6233
▁mahatma	-6234
▁picasso	-6235
▁polymer	-6236
▁project	-6237
▁prôtein	-6238
▁russell	-6239
▁splashy	-6240
▁tunisia	-6241
▁estrogen	-6242
▁friedman	-6243
▁graffiti	-6244
▁guardian	-6245
▁marshall	-6246
▁robinson	-6247
▁accenture	-6248
▁christian	-6249
▁pittsburgh	-6250
▁massachusetts	-6251
,3	-6252
-5	-6253
dg	-6254
kt	-6255
rd	-6256
sy	-6257
ôc	-6258
ều	-6259
▁í	-6260
---	-6261
aki	-6262
ano	-6263
apm	-6264
aro	-6265
bab	-6266
dad	-6267
eka	-6268
eli	-6269
ema	-6270
esk	-6271
fia	-6272
git	-6273
imi	-6274
imo	-6275
iro	-6276
mal	-6277
nch	-6278
phi	-6279
tis	-6280
uch	-6281
umi	-6282
ven	-6283
zim	-6284
▁66	-6285
▁71	-6286
▁73	-6287
▁dc	-6288
▁dí	-6289
▁fr	-6290
▁gv	-6291
▁kw	-6292
▁lg	-6293
▁lẹ	-6294
▁lở	-6295
▁pc	-6296
▁pp	-6297
▁sé	-6298
▁sò	-6299
▁tg	-6300
▁wi	-6301
adus	-6302
blin	-6303
burn	-6304
card	-6305
esar	-6306
hann	-6307
incl	-6308
ivic	-6309
ment	-6310
nick	-6311
olly	-6312
onia	-6313
othy	-6314
otto	-6315
ough	-6316
ouri	-6317
rass	-6318
vent	-6319
wick	-6320
▁0.5	-6321
▁1.8	-6322
▁1⁄4	-6323
▁365	-6324
▁abc	-6325
▁asp	-6326
▁aug	-6327
▁bặm	-6328
▁chừ	-6329
▁coc	-6330
▁cặn	-6331
▁dum	-6332
▁fis	-6333
▁gợn	-6334
▁hep	-6335
▁héo	-6336
▁hòm	-6337
▁hẻm	-6338
▁jet	-6339
▁kas	-6340
▁khơ	-6341
▁lồi	-6342
▁mcg	-6343
▁mul	-6344
▁ngõ	-6345
▁ngỡ	-6346
▁phỉ	-6347
▁pre	-6348
▁reg	-6349
▁ris	-6350
▁riv	-6351
▁rom	-6352
▁rèm	-6353
▁rót	-6354
▁rợn	-6355
▁stu	-6356
▁sầu	-6357
▁sọc	-6358
▁trơ	-6359
▁trờ	-6360
▁tợn	-6361
▁vis	-6362
▁vói	-6363
▁vẹt	-6364
▁vụt	-6365
▁yum	-6366
▁đay	-6367
▁đên	-6368
aysia	-6369
barak	-6370
efoot	-6371
esome	-6372
house	-6373
▁1858	-6374
▁1920	-6375
▁1949	-6376
▁1982	-6377
▁1985	-6378
▁1993	-6379
▁2013	-6380
▁8000	-6381
▁anne	-6382
▁bach	-6383
▁biêt	-6384
▁brun	-6385
▁cape	-6386
▁cern	-6387
▁chap	-6388
▁chừa	-6389
▁clev	-6390
▁corn	-6391
▁cphi	-6392
▁demo	-6393
▁fear	-6394
▁film	-6395
▁gaga	-6396
▁gapm	-6397
▁gard	-6398
▁glad	-6399
▁good	-6400
▁gàng	-6401
▁hooc	-6402
▁hunt	-6403
▁judy	-6404
▁khứu	-6405
▁kong	-6406
▁kurd	-6407
▁laze	-6408
▁lith	-6409
▁mard	-6410
▁mách	-6411
▁mắng	-6412
▁neut	-6413
▁ngạt	-6414
▁ngầu	-6415
▁nhan	-6416
▁nhàn	-6417
▁nháp	-6418
▁nhót	-6419
▁nhõm	-6420
▁nhúm	-6421
▁nhầy	-6422
▁pach	-6423
▁pyth	-6424
▁snow	-6425
▁sofa	-6426
▁thòi	-6427
▁troy	-6428
▁tuột	-6429
▁usda	-6430
▁whis	-6431
▁wide	-6432
▁đuợc	-6433
ingham	-6434
muddin	-6435
nesota	-6436
prince	-6437
puchia	-6438
stream	-6439
ynthia	-6440
▁actor	-6441
▁child	-6442
▁chũng	-6443
▁civic	-6444
▁cohen	-6445
▁color	-6446
▁encel	-6447
▁faiza	-6448
▁flash	-6449
▁gayla	-6450
▁geoff	-6451
▁grant	-6452
▁hidro	-6453
▁huyện	-6454
▁hyder	-6455
▁kabul	-6456
▁khong	-6457
▁naomi	-6458
▁nguời	-6459
▁pants	-6460
▁perry	-6461
▁phách	-6462
▁phụng	-6463
▁ruộng	-6464
▁saman	-6465
▁sincl	-6466
▁thoạt	-6467
▁tròng	-6468
▁trũng	-6469
▁wales	-6470
▁wired	-6471
ambique	-6472
chester	-6473
ortisol	-6474
osevelt	-6475
▁12.000	-6476
▁60,000	-6477
▁achill	-6478
▁bonobo	-6479
▁eureka	-6480
▁evelyn	-6481
▁hamlet	-6482
▁monkey	-6483
▁monter	-6484
▁nghĩnh	-6485
▁photon	-6486
▁school	-6487
▁series	-6488
▁venter	-6489
▁awesome	-6490
▁bandura	-6491
▁barbara	-6492
▁complex	-6493
▁cynthia	-6494
▁dollars	-6495
▁england	-6496
▁gabriel	-6497
▁galileo	-6498
▁georgia	-6499
▁kentuck	-6500
▁mubarak	-6501
▁senegal	-6502
▁tedtalk	-6503
▁terence	-6504
▁ukraine	-6505
▁windows	-6506
▁barefoot	-6507
▁cortisol	-6508
▁emmanuel	-6509
▁illinois	-6510
▁malaysia	-6511
▁olympics	-6512
▁sarajevo	-6513
▁sinclair	-6514
▁australia	-6515
▁campuchia	-6516
▁enceladus	-6517
▁gapminder	-6518
▁hampshire	-6519
▁minnesota	-6520
▁najmuddin	-6521
▁riverside	-6522
▁roosevelt	-6523
▁wikileaks	-6524
▁blackberry	-6525
▁mozambique	-6526
▁transition	-6527
,0	-6528
,4	-6529
,9	-6530
.3	-6531
fo	-6532
là	-6533
pl	-6534
wh	-6535
ĩu	-6536
ỡi	-6537
▁@	-6538
ams	-6539
any	-6540
bul	-6541
cht	-6542
cor	-6543
dez	-6544
eck	-6545
eed	-6546
ere	-6547
ery	-6548
ffe	-6549
ios	-6550
iêc	-6551
lar	-6552
mmm	-6553
oit	-6554
oko	-6555
osp	-6556
par	-6557
rig	-6558
rol	-6559
ryl	-6560
ugh	-6561
urn	-6562
urt	-6563
uza	-6564
vel	-6565
yle	-6566
▁59	-6567
▁83	-6568
▁88	-6569
▁dh	-6570
▁dy	-6571
▁dơ	-6572
▁ft	-6573
▁gù	-6574
▁há	-6575
▁hê	-6576
▁iv	-6577
▁lm	-6578
▁lt	-6579
▁mó	-6580
▁pt	-6581
▁tb	-6582
▁tn	-6583
▁uý	-6584
▁đơ	-6585
▁ạt	-6586
▁ắp	-6587
abel	-6588
aine	-6589
cock	-6590
corn	-6591
dale	-6592
endo	-6593
enix	-6594
gill	-6595
hima	-6596
ides	-6597
ight	-6598
isco	-6599
leep	-6600
meis	-6601
more	-6602
okie	-6603
olph	-6604
orth	-6605
quez	-6606
rene	-6607
rice	-6608
roid	-6609
ryst	-6610
shmi	-6611
stan	-6612
uyến	-6613
uyễn	-6614
▁0.1	-6615
▁1.7	-6616
▁182	-6617
▁2.3	-6618
▁202	-6619
▁3.5	-6620
▁650	-6621
▁ath	-6622
▁bat	-6623
▁bla	-6624
▁bùa	-6625
▁bổn	-6626
▁cdc	-6627
▁cro	-6628
▁dĩa	-6629
▁dặt	-6630
▁dừa	-6631
▁eif	-6632
▁hec	-6633
▁hùm	-6634
▁hốt	-6635
▁hột	-6636
▁jaw	-6637
▁kin	-6638
▁lhc	-6639
▁low	-6640
▁lóc	-6641
▁lún	-6642
▁lốp	-6643
▁lụi	-6644
▁mam	-6645
▁mur	-6646
▁mậu	-6647
▁ngỏ	-6648
▁nhả	-6649
▁nih	-6650
▁nom	-6651
▁not	-6652
▁nẹp	-6653
▁ola	-6654
▁pam	-6655
▁pav	-6656
▁pia	-6657
▁quĩ	-6658
▁rên	-6659
▁rạn	-6660
▁sap	-6661
▁sir	-6662
▁ste	-6663
▁sur	-6664
▁sệt	-6665
▁sồi	-6666
▁teo	-6667
▁thớ	-6668
▁tuc	-6669
▁tằm	-6670
▁uất	-6671
▁yah	-6672
▁đái	-6673
▁ưng	-6674
annel	-6675
erkat	-6676
icill	-6677
ilton	-6678
inger	-6679
insey	-6680
istor	-6681
không	-6682
leton	-6683
nders	-6684
người	-6685
otton	-6686
press	-6687
uston	-6688
ydney	-6689
zmann	-6690
▁1200	-6691
▁1962	-6692
▁1987	-6693
▁99.9	-6694
▁amen	-6695
▁anna	-6696
▁balk	-6697
▁beck	-6698
▁chèo	-6699
▁chém	-6700
▁chồi	-6701
▁clar	-6702
▁coke	-6703
▁comm	-6704
▁deep	-6705
▁diam	-6706
▁giỡn	-6707
▁hind	-6708
▁hiều	-6709
▁hoff	-6710
▁home	-6711
▁jans	-6712
▁kant	-6713
▁kend	-6714
▁khắt	-6715
▁knee	-6716
▁kris	-6717
▁lady	-6718
▁list	-6719
▁lảng	-6720
▁mini	-6721
▁máng	-6722
▁mòng	-6723
▁ngáp	-6724
▁nhẹn	-6725
▁niêm	-6726
▁pear	-6727
▁pine	-6728
▁ragu	-6729
▁robb	-6730
▁roma	-6731
▁saul	-6732
▁ster	-6733
▁sững	-6734
▁tera	-6735
▁thun	-6736
▁thụt	-6737
▁toái	-6738
▁trau	-6739
▁trăn	-6740
▁trặc	-6741
▁xiết	-6742
▁zach	-6743
engine	-6744
owanus	-6745
▁1,500	-6746
▁3.000	-6747
▁4,000	-6748
▁adren	-6749
▁afgan	-6750
▁altos	-6751
▁blair	-6752
▁bloop	-6753
▁chuộc	-6754
▁chưng	-6755
▁cloud	-6756
▁count	-6757
▁crick	-6758
▁ellen	-6759
▁enzim	-6760
▁exxon	-6761
▁house	-6762
▁jesse	-6763
▁libby	-6764
▁linda	-6765
▁luria	-6766
▁mafia	-6767
▁mania	-6768
▁motor	-6769
▁nghẹn	-6770
▁ngùng	-6771
▁paula	-6772
▁phiệt	-6773
▁phăng	-6774
▁phước	-6775
▁pilot	-6776
▁point	-6777
▁prego	-6778
▁prize	-6779
▁roman	-6780
▁serra	-6781
▁sheph	-6782
▁sleep	-6783
▁smart	-6784
agascar	-6785
icillin	-6786
meister	-6787
▁amanda	-6788
▁chường	-6789
▁darfur	-6790
▁eiffel	-6791
▁freder	-6792
▁hannah	-6793
▁isabel	-6794
▁jeremy	-6795
▁kaluza	-6796
▁kaplan	-6797
▁malawi	-6798
▁marduk	-6799
▁philli	-6800
▁reagan	-6801
▁sheila	-6802
▁tennis	-6803
▁tweets	-6804
▁vivian	-6805
▁webcam	-6806
rosaurus	-6807
▁500,000	-6808
▁algeria	-6809
▁android	-6810
▁baghdad	-6811
▁cargill	-6812
▁cassini	-6813
▁collins	-6814
▁estonia	-6815
▁fischer	-6816
▁gowanus	-6817
▁jacques	-6818
▁jessica	-6819
▁meerkat	-6820
▁pauling	-6821
▁rebecca	-6822
▁science	-6823
▁shirley	-6824
▁caroline	-6825
▁colorado	-6826
▁hormones	-6827
▁kentucky	-6828
▁missouri	-6829
▁monterey	-6830
▁samantha	-6831
▁saunders	-6832
▁sisyphus	-6833
▁cleveland	-6834
▁himalayas	-6835
▁hiroshima	-6836
▁hirshhorn	-6837
▁hyderabad	-6838
engineering	-6839
▁afganistan	-6840
▁madagascar	-6841
▁penicillin	-6842
▁sagmeister	-6843
▁university	-6844
,6	-6845
.8	-6846
13	-6847
45	-6848
98	-6849
af	-6850
ax	-6851
bb	-6852
cụ	-6853
lê	-6854
xo	-6855
ys	-6856
zi	-6857
ễm	-6858
▁_	-6859
▁̣	-6860
adi	-6861
ady	-6862
aff	-6863
ank	-6864
aux	-6865
cho	-6866
chs	-6867
cow	-6868
die	-6869
dop	-6870
eek	-6871
ehr	-6872
ete	-6873
fri	-6874
hrv	-6875
ieu	-6876
igr	-6877
irl	-6878
jaz	-6879
lam	-6880
map	-6881
min	-6882
oac	-6883
ond	-6884
rad	-6885
rit	-6886
rắc	-6887
sch	-6888
sen	-6889
tra	-6890
uba	-6891
uld	-6892
veg	-6893
wal	-6894
war	-6895
êin	-6896
▁05	-6897
▁62	-6898
▁63	-6899
▁cò	-6900
▁hc	-6901
▁jm	-6902
▁jy	-6903
▁lả	-6904
▁lổ	-6905
▁sy	-6906
▁sá	-6907
▁sỉ	-6908
▁tễ	-6909
▁ue	-6910
▁xy	-6911
▁úp	-6912
▁đờ	-6913
aire	-6914
ames	-6915
amie	-6916
athy	-6917
atur	-6918
bago	-6919
ball	-6920
bart	-6921
blog	-6922
chai	-6923
dies	-6924
egas	-6925
enny	-6926
enos	-6927
esco	-6928
gers	-6929
ickr	-6930
idad	-6931
illi	-6932
ippi	-6933
lein	-6934
loid	-6935
ness	-6936
ocks	-6937
pson	-6938
rove	-6939
thus	-6940
yrne	-6941
▁1,6	-6942
▁170	-6943
▁175	-6944
▁4,5	-6945
▁7.5	-6946
▁747	-6947
▁ass	-6948
▁bkt	-6949
▁bor	-6950
▁buy	-6951
▁bêu	-6952
▁bỏi	-6953
▁bứt	-6954
▁chê	-6955
▁cla	-6956
▁ddt	-6957
▁dec	-6958
▁dew	-6959
▁dot	-6960
▁dow	-6961
▁dìm	-6962
▁eli	-6963
▁esk	-6964
▁esp	-6965
▁etc	-6966
▁fab	-6967
▁git	-6968
▁giũ	-6969
▁gàn	-6970
▁gẫu	-6971
▁gẫy	-6972
▁hom	-6973
▁hãn	-6974
▁hạc	-6975
▁hắt	-6976
▁hớt	-6977
▁hỡi	-6978
▁ice	-6979
▁jen	-6980
▁kha	-6981
▁khố	-6982
▁két	-6983
▁luỵ	-6984
▁lẻo	-6985
▁lỏi	-6986
▁moo	-6987
▁nad	-6988
▁now	-6989
▁nĩa	-6990
▁ork	-6991
▁pad	-6992
▁quệ	-6993
▁raj	-6994
▁rho	-6995
▁row	-6996
▁ròi	-6997
▁rầy	-6998
▁sac	-6999
▁saf	-7000
▁set	-7001
▁slo	-7002
▁sty	-7003
▁séc	-7004
▁taj	-7005
▁thự	-7006
▁til	-7007
▁toi	-7008
▁trề	-7009
▁tul	-7010
▁vas	-7011
▁vợt	-7012
▁wii	-7013
▁xui	-7014
▁xỉn	-7015
▁zam	-7016
agram	-7017
chnya	-7018
erbai	-7019
icsek	-7020
juana	-7021
ology	-7022
pines	-7023
rtigr	-7024
space	-7025
ssein	-7026
stone	-7027
▁1947	-7028
▁1953	-7029
▁1968	-7030
▁1974	-7031
▁1976	-7032
▁2014	-7033
▁amin	-7034
▁aviv	-7035
▁beth	-7036
▁bion	-7037
▁bung	-7038
▁bừng	-7039
▁chaz	-7040
▁chev	-7041
▁chùi	-7042
▁chĩa	-7043
▁chửi	-7044
▁ding	-7045
▁duol	-7046
▁elli	-7047
▁erik	-7048
▁feyn	-7049
▁fmri	-7050
▁giùm	-7051
▁giấm	-7052
▁goro	-7053
▁gros	-7054
▁hany	-7055
▁heal	-7056
▁khét	-7057
▁kỉnh	-7058
▁lake	-7059
▁life	-7060
▁liếc	-7061
▁lucy	-7062
▁mack	-7063
▁mcch	-7064
▁mead	-7065
▁meth	-7066
▁more	-7067
▁muội	-7068
▁nghê	-7069
▁ngứa	-7070
▁nhât	-7071
▁nhòm	-7072
▁nhờn	-7073
▁nice	-7074
▁pink	-7075
▁quix	-7076
▁quot	-7077
▁roll	-7078
▁scha	-7079
▁seth	-7080
▁slow	-7081
▁sony	-7082
▁thẩn	-7083
▁tide	-7084
▁trồi	-7085
▁trợn	-7086
▁trụi	-7087
▁tulu	-7088
▁utah	-7089
▁uyển	-7090
▁viag	-7091
▁vila	-7092
▁vênh	-7093
▁with	-7094
▁xiếc	-7095
▁đành	-7096
castle	-7097
egrass	-7098
hrvold	-7099
master	-7100
rystal	-7101
▁aires	-7102
▁alain	-7103
▁alban	-7104
▁andre	-7105
▁bitco	-7106
▁byrne	-7107
▁cents	-7108
▁chiêc	-7109
▁costa	-7110
▁davis	-7111
▁dolly	-7112
▁dyson	-7113
▁eames	-7114
▁enzym	-7115
▁frans	-7116
▁hasan	-7117
▁heads	-7118
▁hills	-7119
▁hindu	-7120
▁istan	-7121
▁kerry	-7122
▁klein	-7123
▁krist	-7124
▁lagos	-7125
▁luyến	-7126
▁milli	-7127
▁ngạch	-7128
▁nương	-7129
▁organ	-7130
▁orkut	-7131
▁owens	-7132
▁palin	-7133
▁paulo	-7134
▁quark	-7135
▁rives	-7136
▁robin	-7137
▁rossy	-7138
▁salad	-7139
▁sally	-7140
▁sandy	-7141
▁shack	-7142
▁thàng	-7143
▁thặng	-7144
▁trành	-7145
▁wings	-7146
▁zetas	-7147
borough	-7148
ersburg	-7149
issippi	-7150
mingham	-7151
▁12,000	-7152
▁25,000	-7153
▁80.000	-7154
▁ariely	-7155
▁budrus	-7156
▁buenos	-7157
▁celine	-7158
▁chopin	-7159
▁church	-7160
▁cookie	-7161
▁cotton	-7162
▁farmer	-7163
▁flickr	-7164
▁forbes	-7165
▁gluten	-7166
▁hadron	-7167
▁hansen	-7168
▁hudson	-7169
▁janine	-7170
▁juliet	-7171
▁kuwait	-7172
▁maslow	-7173
▁moscow	-7174
▁nevada	-7175
▁nghiến	-7176
▁nhuyễn	-7177
▁nicole	-7178
▁nikola	-7179
▁pinker	-7180
▁pounds	-7181
▁pranav	-7182
▁ronald	-7183
▁saddam	-7184
▁sheryl	-7185
▁socola	-7186
▁sophia	-7187
▁tobago	-7188
▁tucson	-7189
▁vaccin	-7190
▁zambia	-7191
erbaijan	-7192
▁200.000	-7193
▁alberta	-7194
▁alberto	-7195
▁america	-7196
▁amyloid	-7197
▁fortune	-7198
▁gifford	-7199
▁hurtigr	-7200
▁hussein	-7201
▁jarrett	-7202
▁jordans	-7203
▁laramie	-7204
▁michoac	-7205
▁ottoman	-7206
▁simpson	-7207
▁sunphua	-7208
▁titanic	-7209
▁broadway	-7210
▁chechnya	-7211
▁collider	-7212
▁gladwell	-7213
▁istanbul	-7214
▁matthieu	-7215
▁myhrvold	-7216
▁randolph	-7217
▁robicsek	-7218
▁trinidad	-7219
▁wingsuit	-7220
▁airstream	-7221
▁armstrong	-7222
▁bluegrass	-7223
▁boltzmann	-7224
▁economist	-7225
▁kurdistan	-7226
▁azerbaijan	-7227
▁georgetown	-7228
▁mcchrystal	-7229
▁microphone	-7230
▁petersburg	-7231
▁pheromones	-7232
▁torosaurus	-7233
▁hurtigruten	-7234
▁mississippi	-7235
▁philippines	-7236
-8	-7237
bê	-7238
dd	-7239
df	-7240
gy	-7241
hz	-7242
ij	-7243
kw	-7244
ln	-7245
lơ	-7246
no	-7247
ru	-7248
ty	-7249
xơ	-7250
íp	-7251
ừm	-7252
▁ụ	-7253
100	-7254
aam	-7255
ais	-7256
akh	-7257
ase	-7258
bri	-7259
can	-7260
ced	-7261
cot	-7262
cus	-7263
eme	-7264
hna	-7265
hop	-7266
ieg	-7267
ien	-7268
ift	-7269
ign	-7270
imp	-7271
ior	-7272
jad	-7273
kin	-7274
liu	-7275
mor	-7276
mur	-7277
nic	-7278
ocz	-7279
opo	-7280
pta	-7281
pur	-7282
rat	-7283
rel	-7284
rex	-7285
sha	-7286
tes	-7287
ugu	-7288
õng	-7289
▁79	-7290
▁92	-7291
▁bạ	-7292
▁bẽ	-7293
▁cn	-7294
▁dm	-7295
▁dả	-7296
▁dể	-7297
▁hơ	-7298
▁js	-7299
▁lb	-7300
▁mè	-7301
▁rể	-7302
▁td	-7303
▁tã	-7304
▁vs	-7305
▁vò	-7306
▁xù	-7307
▁ắt	-7308
abil	-7309
ague	-7310
alog	-7311
amer	-7312
arch	-7313
atin	-7314
aust	-7315
aver	-7316
ayne	-7317
bach	-7318
beta	-7319
cken	-7320
cker	-7321
erto	-7322
esha	-7323
gata	-7324
heim	-7325
icef	-7326
ickl	-7327
illo	-7328
itar	-7329
kman	-7330
oney	-7331
ooth	-7332
rani	-7333
rori	-7334
sson	-7335
tain	-7336
thời	-7337
unes	-7338
watt	-7339
weil	-7340
wind	-7341
work	-7342
znet	-7343
▁103	-7344
▁apo	-7345
▁atm	-7346
▁bái	-7347
▁bít	-7348
▁bợm	-7349
▁csf	-7350
▁cta	-7351
▁càm	-7352
▁cảu	-7353
▁dep	-7354
▁dãn	-7355
▁dật	-7356
▁dỏm	-7357
▁dột	-7358
▁emp	-7359
▁fải	-7360
▁guy	-7361
▁heb	-7362
▁hừm	-7363
▁ian	-7364
▁ing	-7365
▁kan	-7366
▁koh	-7367
▁lip	-7368
▁liu	-7369
▁luc	-7370
▁lìa	-7371
▁lùa	-7372
▁lùn	-7373
▁lăm	-7374
▁lọi	-7375
▁lới	-7376
▁múc	-7377
▁mẫn	-7378
▁mịt	-7379
▁nsa	-7380
▁nắn	-7381
▁orn	-7382
▁rev	-7383
▁rid	-7384
▁rna	-7385
▁rus	-7386
▁rât	-7387
▁rủa	-7388
▁sit	-7389
▁squ	-7390
▁sài	-7391
▁sặc	-7392
▁sọt	-7393
▁thò	-7394
▁tót	-7395
▁tết	-7396
▁vik	-7397
▁vod	-7398
▁vét	-7399
▁vơi	-7400
▁vảy	-7401
▁vữa	-7402
▁wit	-7403
▁won	-7404
▁xẻo	-7405
▁ôxy	-7406
abama	-7407
ative	-7408
eanor	-7409
inawa	-7410
istry	-7411
itiba	-7412
ittle	-7413
monia	-7414
oczka	-7415
olemy	-7416
olulu	-7417
rolux	-7418
rylic	-7419
terol	-7420
worth	-7421
zanne	-7422
▁1100	-7423
▁1969	-7424
▁1972	-7425
▁1977	-7426
▁1978	-7427
▁1981	-7428
▁apar	-7429
▁bank	-7430
▁base	-7431
▁best	-7432
▁biễu	-7433
▁bond	-7434
▁bowl	-7435
▁chòi	-7436
▁chòm	-7437
▁chầm	-7438
▁coum	-7439
▁cous	-7440
▁cóng	-7441
▁diff	-7442
▁duke	-7443
▁dộng	-7444
▁farm	-7445
▁ferr	-7446
▁font	-7447
▁free	-7448
▁full	-7449
▁gang	-7450
▁gell	-7451
▁giũa	-7452
▁grey	-7453
▁gulf	-7454
▁hand	-7455
▁hart	-7456
▁heli	-7457
▁herc	-7458
▁hero	-7459
▁hiền	-7460
▁igbo	-7461
▁ipcc	-7462
▁joan	-7463
▁kara	-7464
▁khuỷ	-7465
▁khít	-7466
▁kros	-7467
▁loát	-7468
▁mali	-7469
▁mall	-7470
▁marx	-7471
▁mash	-7472
▁mili	-7473
▁nami	-7474
▁ngáy	-7475
▁ngấy	-7476
▁nheo	-7477
▁nhái	-7478
▁nhám	-7479
▁nhịn	-7480
▁nino	-7481
▁oliu	-7482
▁pent	-7483
▁phen	-7484
▁phàm	-7485
▁phầm	-7486
▁phẩu	-7487
▁phết	-7488
▁punk	-7489
▁quậy	-7490
▁rica	-7491
▁rumi	-7492
▁rupi	-7493
▁sexy	-7494
▁shin	-7495
▁siri	-7496
▁sole	-7497
▁solo	-7498
▁thât	-7499
▁toby	-7500
▁tong	-7501
▁tuối	-7502
▁táng	-7503
▁umar	-7504
▁uran	-7505
▁vali	-7506
▁vent	-7507
▁vồng	-7508
▁vừng	-7509
▁wifi	-7510
▁wong	-7511
▁wood	-7512
▁zero	-7513
▁đãng	-7514
atcher	-7515
consin	-7516
ilocks	-7517
sonian	-7518
▁25000	-7519
▁ahmad	-7520
▁allan	-7521
▁andes	-7522
▁anton	-7523
▁barry	-7524
▁botsw	-7525
▁brent	-7526
▁bruno	-7527
▁budap	-7528
▁cabin	-7529
▁carib	-7530
▁chand	-7531
▁chuck	-7532
▁chuốt	-7533
▁democ	-7534
▁drori	-7535
▁durga	-7536
▁earle	-7537
▁engel	-7538
▁gener	-7539
▁genev	-7540
▁griff	-7541
▁gupta	-7542
▁guồng	-7543
▁haidt	-7544
▁hyper	-7545
▁kaaba	-7546
▁kamen	-7547
▁khoét	-7548
▁lickl	-7549
▁light	-7550
▁miles	-7551
▁mount	-7552
▁nghén	-7553
▁nghẹt	-7554
▁ngoạc	-7555
▁ngoặc	-7556
▁ngàng	-7557
▁ngỗng	-7558
▁ngừoi	-7559
▁nhãng	-7560
▁ninja	-7561
▁nixon	-7562
▁nơron	-7563
▁peace	-7564
▁percy	-7565
▁prosp	-7566
▁quyện	-7567
▁rhode	-7568
▁ridge	-7569
▁schul	-7570
▁sheen	-7571
▁shows	-7572
▁shred	-7573
▁spect	-7574
▁sunni	-7575
▁turbo	-7576
▁usain	-7577
▁vegas	-7578
▁yahoo	-7579
efeller	-7580
▁alexis	-7581
▁arabia	-7582
▁atkins	-7583
▁august	-7584
▁barbie	-7585
▁bionic	-7586
▁botton	-7587
▁brooks	-7588
▁choles	-7589
▁edison	-7590
▁ferris	-7591
▁guitar	-7592
▁harvey	-7593
▁johann	-7594
▁kuznet	-7595
▁makoko	-7596
▁marcus	-7597
▁nghếch	-7598
▁ornish	-7599
▁report	-7600
▁shirky	-7601
▁stalin	-7602
▁suther	-7603
▁unicef	-7604
▁valley	-7605
▁warner	-7606
otterdam	-7607
▁150,000	-7608
▁acrylic	-7609
▁alabama	-7610
▁allende	-7611
▁beatbox	-7612
▁beatles	-7613
▁british	-7614
▁carolyn	-7615
▁channel	-7616
▁eleanor	-7617
▁ethanol	-7618
▁feynman	-7619
▁hoffman	-7620
▁karachi	-7621
▁kilomet	-7622
▁lakshmi	-7623
▁neumann	-7624
▁neutron	-7625
▁nicolas	-7626
▁okinawa	-7627
▁patrick	-7628
▁phoenix	-7629
▁popcorn	-7630
▁ptolemy	-7631
▁resnick	-7632
▁snowden	-7633
▁tijuana	-7634
▁whiskey	-7635
▁atlantic	-7636
▁brothers	-7637
▁collagen	-7638
▁coumarin	-7639
▁curitiba	-7640
▁duolingo	-7641
▁giffords	-7642
▁honolulu	-7643
▁schwartz	-7644
▁terawatt	-7645
▁thatcher	-7646
▁instagram	-7647
▁krosoczka	-7648
▁licklider	-7649
▁microblog	-7650
▁newcastle	-7651
▁shreddies	-7652
▁wisconsin	-7653
▁allosphere	-7654
▁electrolux	-7655
▁goldilocks	-7656
▁greenville	-7657
▁sutherland	-7658
▁transistor	-7659
▁cholesterol	-7660
▁rockefeller	-7661
.1	-7662
gô	-7663
nt	-7664
nó	-7665
sm	-7666
tz	-7667
íu	-7668
đó	-7669
▁ỉ	-7670
-20	-7671
ahn	-7672
aim	-7673
als	-7674
aso	-7675
aul	-7676
aya	-7677
azo	-7678
chu	-7679
cut	-7680
eal	-7681
eca	-7682
ega	-7683
elo	-7684
ely	-7685
etz	-7686
flu	-7687
for	-7688
ful	-7689
get	-7690
gic	-7691
ito	-7692
lah	-7693
lav	-7694
lia	-7695
mmy	-7696
nhe	-7697
ols	-7698
owa	-7699
rin	-7700
sal	-7701
sey	-7702
sus	-7703
tch	-7704
tct	-7705
teo	-7706
thì	-7707
tất	-7708
ups	-7709
vre	-7710
wln	-7711
yll	-7712
▁51	-7713
▁61	-7714
▁aa	-7715
▁bb	-7716
▁bớ	-7717
▁bợ	-7718
▁ct	-7719
▁ez	-7720
▁gở	-7721
▁mú	-7722
▁oi	-7723
▁um	-7724
▁vê	-7725
▁yr	-7726
....	-7727
acre	-7728
adda	-7729
anti	-7730
ater	-7731
aton	-7732
ator	-7733
avas	-7734
ayan	-7735
bage	-7736
bell	-7737
bour	-7738
cope	-7739
cyos	-7740
down	-7741
eger	-7742
eing	-7743
eiro	-7744
elah	-7745
elop	-7746
ento	-7747
erin	-7748
hman	-7749
ilia	-7750
ilyn	-7751
ited	-7752
itor	-7753
ivia	-7754
lees	-7755
lett	-7756
lông	-7757
nest	-7758
neth	-7759
omon	-7760
onte	-7761
orio	-7762
osia	-7763
pert	-7764
pesa	-7765
poxy	-7766
prov	-7767
real	-7768
reen	-7769
riet	-7770
teau	-7771
than	-7772
ugos	-7773
umen	-7774
usty	-7775
witz	-7776
▁0,0	-7777
▁0.2	-7778
▁183	-7779
▁220	-7780
▁3-4	-7781
▁4.5	-7782
▁aqu	-7783
▁bam	-7784
▁bau	-7785
▁bmw	-7786
▁bog	-7787
▁bul	-7788
▁bye	-7789
▁bèn	-7790
▁búp	-7791
▁bấp	-7792
▁cir	-7793
▁cre	-7794
▁càn	-7795
▁cúp	-7796
▁cằm	-7797
▁dah	-7798
▁diy	-7799
▁dry	-7800
▁dãi	-7801
▁dìu	-7802
▁dòm	-7803
▁ecu	-7804
▁fav	-7805
▁fin	-7806
▁fow	-7807
▁fus	-7808
▁gir	-7809
▁goi	-7810
▁gắm	-7811
▁gọt	-7812
▁gột	-7813
▁hex	-7814
▁hey	-7815
▁hoo	-7816
▁hos	-7817
▁huh	-7818
▁hum	-7819
▁huý	-7820
▁hói	-7821
▁hấn	-7822
▁hợt	-7823
▁ibu	-7824
▁iss	-7825
▁job	-7826
▁jur	-7827
▁kaz	-7828
▁kni	-7829
▁kyi	-7830
▁lhq	-7831
▁liz	-7832
▁lặt	-7833
▁lẻn	-7834
▁lựu	-7835
▁maj	-7836
▁mẩn	-7837
▁nex	-7838
▁nhỡ	-7839
▁nrk	-7840
▁nua	-7841
▁nài	-7842
▁nít	-7843
▁nòi	-7844
▁nấy	-7845
▁nần	-7846
▁nớt	-7847
▁nức	-7848
▁oan	-7849
▁oed	-7850
▁off	-7851
▁ple	-7852
▁psa	-7853
▁rca	-7854
▁rey	-7855
▁rou	-7856
▁rov	-7857
▁ruy	-7858
▁rọc	-7859
▁ses	-7860
▁sev	-7861
▁sue	-7862
▁suu	-7863
▁sào	-7864
▁sâm	-7865
▁sấy	-7866
▁sầm	-7867
▁tak	-7868
▁trc	-7869
▁try	-7870
▁tìn	-7871
▁tơi	-7872
▁tầu	-7873
▁tẹo	-7874
▁tịt	-7875
▁usb	-7876
▁vul	-7877
▁vỏn	-7878
▁wag	-7879
▁xãy	-7880
▁xóc	-7881
▁xới	-7882
▁xửa	-7883
▁yao	-7884
▁yay	-7885
▁yos	-7886
▁zap	-7887
▁đác	-7888
▁đít	-7889
▁ắng	-7890
▁ổng	-7891
abyte	-7892
adema	-7893
ardin	-7894
awatt	-7895
corex	-7896
craft	-7897
ecret	-7898
encia	-7899
igman	-7900
ildes	-7901
isher	-7902
iyama	-7903
kerry	-7904
kheim	-7905
luhan	-7906
murdo	-7907
ority	-7908
orrow	-7909
othic	-7910
trino	-7911
undsc	-7912
urich	-7913
urnal	-7914
valds	-7915
▁1300	-7916
▁1400	-7917
▁1600	-7918
▁1910	-7919
▁1926	-7920
▁1948	-7921
▁1954	-7922
▁1963	-7923
▁2100	-7924
▁9000	-7925
▁agra	-7926
▁anat	-7927
▁ares	-7928
▁aung	-7929
▁beij	-7930
▁blah	-7931
▁boom	-7932
▁buck	-7933
▁búng	-7934
▁bồng	-7935
▁cash	-7936
▁cham	-7937
▁chil	-7938
▁chin	-7939
▁choi	-7940
▁cháo	-7941
▁chùn	-7942
▁chạc	-7943
▁chấu	-7944
▁còng	-7945
▁cẳng	-7946
▁dall	-7947
▁dies	-7948
▁diệp	-7949
▁erin	-7950
▁fall	-7951
▁fern	-7952
▁flow	-7953
▁four	-7954
▁glas	-7955
▁gogh	-7956
▁gươm	-7957
▁gừng	-7958
▁hatz	-7959
▁holo	-7960
▁iowa	-7961
▁jeep	-7962
▁jose	-7963
▁jump	-7964
▁kipp	-7965
▁kirk	-7966
▁kobe	-7967
▁kung	-7968
▁liêm	-7969
▁loét	-7970
▁maas	-7971
▁mail	-7972
▁maps	-7973
▁mena	-7974
▁must	-7975
▁nato	-7976
▁ngấu	-7977
▁ngậm	-7978
▁nhoà	-7979
▁nhói	-7980
▁nhậm	-7981
▁niel	-7982
▁niết	-7983
▁pash	-7984
▁phất	-7985
▁plan	-7986
▁pugh	-7987
▁quai	-7988
▁reed	-7989
▁rese	-7990
▁rita	-7991
▁ruby	-7992
▁sant	-7993
▁sars	-7994
▁seri	-7995
▁shel	-7996
▁socr	-7997
▁spec	-7998
▁sunf	-7999
▁tata	-8000
▁thán	-8001
▁thâu	-8002
▁thớt	-8003
▁till	-8004
▁tivo	-8005
▁toát	-8006
▁truỵ	-8007
▁tuýp	-8008
▁tuốc	-8009
▁unil	-8010
▁word	-8011
▁xiên	-8012
▁yard	-8013
▁your	-8014
▁đung	-8015
▁đễnh	-8016
annica	-8017
borazo	-8018
celona	-8019
dorfer	-8020
erinck	-8021
escope	-8022
ilding	-8023
intosh	-8024
lahoma	-8025
linger	-8026
profen	-8027
racyos	-8028
▁30000	-8029
▁adams	-8030
▁aicha	-8031
▁alisa	-8032
▁annie	-8033
▁aspen	-8034
▁atala	-8035
▁betty	-8036
▁bioph	-8037
▁cesar	-8038
▁coast	-8039
▁coban	-8040
▁colle	-8041
▁damas	-8042
▁diane	-8043
▁disco	-8044
▁donna	-8045
▁doyle	-8046
▁ebert	-8047
▁epoxy	-8048
▁every	-8049
▁ganđi	-8050
▁gever	-8051
▁ghiếc	-8052
▁giêng	-8053
▁gould	-8054
▁gross	-8055
▁heidi	-8056
▁huyên	-8057
▁india	-8058
▁javas	-8059
▁jenny	-8060
▁locke	-8061
▁loren	-8062
▁lunch	-8063
▁luton	-8064
▁magie	-8065
▁manju	-8066
▁micrô	-8067
▁milan	-8068
▁mitra	-8069
▁money	-8070
▁muông	-8071
▁nancy	-8072
▁ngưởi	-8073
▁nhằng	-8074
▁nhừng	-8075
▁night	-8076
▁olden	-8077
▁paolo	-8078
▁parab	-8079
▁parag	-8080
▁parik	-8081
▁party	-8082
▁patel	-8083
▁phiếm	-8084
▁pmtct	-8085
▁queen	-8086
▁radar	-8087
▁randi	-8088
▁rodri	-8089
▁sachs	-8090
▁scand	-8091
▁sting	-8092
▁sushi	-8093
▁suông	-8094
▁swapt	-8095
▁tamil	-8096
▁tango	-8097
▁techn	-8098
▁terry	-8099
▁thảnh	-8100
▁tonya	-8101
▁triền	-8102
▁trạch	-8103
▁verme	-8104
▁whirl	-8105
▁whole	-8106
▁yugos	-8107
ability	-8108
eopathy	-8109
ventist	-8110
▁80,000	-8111
▁angela	-8112
▁avatar	-8113
▁barric	-8114
▁boeing	-8115
▁curtis	-8116
▁cácbon	-8117
▁darwln	-8118
▁derart	-8119
▁dereck	-8120
▁design	-8121
▁dioxit	-8122
▁ecosia	-8123
▁eskimo	-8124
▁esther	-8125
▁fabian	-8126
▁fildes	-8127
▁fowler	-8128
▁garden	-8129
▁geneva	-8130
▁giacom	-8131
▁global	-8132
▁gothic	-8133
▁granny	-8134
▁ground	-8135
▁health	-8136
▁hippoc	-8137
▁hubble	-8138
▁impact	-8139
▁itunes	-8140
▁jackie	-8141
▁kinsey	-8142
▁lauren	-8143
▁madrid	-8144
▁marcel	-8145
▁martha	-8146
▁mccain	-8147
▁merced	-8148
▁monica	-8149
▁motors	-8150
▁palmer	-8151
▁pierre	-8152
▁python	-8153
▁robbie	-8154
▁salaam	-8155
▁silver	-8156
▁sugata	-8157
▁sulfur	-8158
▁sydney	-8159
▁tamara	-8160
▁tulley	-8161
▁turing	-8162
▁valdez	-8163
▁viagra	-8164
▁walter	-8165
▁worldw	-8166
▁yellow	-8167
▁150.000	-8168
▁250.000	-8169
▁300,000	-8170
▁400,000	-8171
▁400.000	-8172
▁babbage	-8173
▁bernard	-8174
▁bolivia	-8175
▁buffett	-8176
▁cocaine	-8177
▁diamond	-8178
▁edwards	-8179
▁frankie	-8180
▁goldman	-8181
▁harriet	-8182
▁hoocmôn	-8183
▁houston	-8184
▁janeiro	-8185
▁journal	-8186
▁kuznets	-8187
▁malthus	-8188
▁marilyn	-8189
▁mcluhan	-8190
▁mcmurdo	-8191
▁miranda	-8192
▁mission	-8193
▁mohamed	-8194
▁monster	-8195
▁namibia	-8196
▁network	-8197
▁nơtrino	-8198
▁philips	-8199
▁protêin	-8200
▁soundsc	-8201
▁steward	-8202
▁sunitha	-8203
▁suzanne	-8204
▁ukraina	-8205
gendorfer	-8206
▁achilles	-8207
▁botswana	-8208
▁budapest	-8209
▁cacbonat	-8210
▁capetown	-8211
▁cruzeiro	-8212
▁dietrich	-8213
▁dracorex	-8214
▁durkheim	-8215
▁fischeri	-8216
▁himalaya	-8217
▁johannes	-8218
▁minority	-8219
▁mohammed	-8220
▁oklahoma	-8221
▁phillips	-8222
▁portland	-8223
▁prospera	-8224
▁research	-8225
▁richards	-8226
▁seligman	-8227
▁tomorrow	-8228
▁torvalds	-8229
▁unilever	-8230
▁adventist	-8231
▁barcelona	-8232
▁denisovan	-8233
▁engelbart	-8234
▁frederick	-8235
▁ibuprofen	-8236
▁oldenburg	-8237
▁standford	-8238
▁whirlwind	-8239
▁beijerinck	-8240
▁birmingham	-8241
▁britannica	-8242
▁chimborazo	-8243
▁homeopathy	-8244
▁javascript	-8245
▁meyerowitz	-8246
▁democracyos	-8247
▁smithsonian	-8248
▁yellowstone	-8249
11	-8250
14	-8251
25	-8252
42	-8253
49	-8254
95	-8255
bl	-8256
cd	-8257
dl	-8258
ea	-8259
mô	-8260
ns	-8261
tn	-8262
tp	-8263
tê	-8264
wo	-8265
yc	-8266
ía	-8267
▁*	-8268
▁ó	-8269
-15	-8270
-50	-8271
abe	-8272
ahi	-8273
aik	-8274
aqu	-8275
asy	-8276
aug	-8277
azi	-8278
bee	-8279
bet	-8280
cco	-8281
ces	-8282
cli	-8283
cốt	-8284
edi	-8285
far	-8286
hem	-8287
hoo	-8288
hyd	-8289
ids	-8290
ika	-8291
ikh	-8292
iza	-8293
jit	-8294
kel	-8295
kes	-8296
kig	-8297
lap	-8298
lif	-8299
off	-8300
oir	-8301
ots	-8302
pho	-8303
ple	-8304
qui	-8305
rho	-8306
roe	-8307
sky	-8308
tsi	-8309
uma	-8310
unk	-8311
urf	-8312
usc	-8313
usd	-8314
ute	-8315
ved	-8316
wey	-8317
zac	-8318
zen	-8319
▁-1	-8320
▁49	-8321
▁db	-8322
▁dd	-8323
▁dà	-8324
▁dẻ	-8325
▁ey	-8326
▁fn	-8327
▁hủ	-8328
▁jb	-8329
▁jn	-8330
▁lữ	-8331
▁ms	-8332
▁mé	-8333
▁ns	-8334
▁rì	-8335
▁rỏ	-8336
▁sê	-8337
▁tm	-8338
▁tq	-8339
▁tz	-8340
▁tà	-8341
▁vm	-8342
▁vồ	-8343
▁wt	-8344
▁xị	-8345
▁xỏ	-8346
▁ùn	-8347
▁ẩu	-8348
▁ối	-8349
acey	-8350
aids	-8351
ains	-8352
alah	-8353
aman	-8354
andt	-8355
anga	-8356
anth	-8357
apol	-8358
arez	-8359
asca	-8360
bard	-8361
bath	-8362
biết	-8363
brot	-8364
dore	-8365
dred	-8366
edic	-8367
elas	-8368
ello	-8369
enne	-8370
esca	-8371
esta	-8372
eway	-8373
gate	-8374
ghar	-8375
ians	-8376
icip	-8377
igal	-8378
inas	-8379
ions	-8380
irus	-8381
isel	-8382
iser	-8383
ital	-8384
itra	-8385
ival	-8386
iềng	-8387
kina	-8388
koff	-8389
kota	-8390
kozy	-8391
lass	-8392
loyd	-8393
lulo	-8394
mapa	-8395
mark	-8396
mble	-8397
mins	-8398
mmer	-8399
name	-8400
nisi	-8401
oker	-8402
oooo	-8403
oren	-8404
phis	-8405
plin	-8406
pont	-8407
pton	-8408
rann	-8409
rect	-8410
roir	-8411
shoo	-8412
teng	-8413
tinh	-8414
tiuk	-8415
tive	-8416
trol	-8417
ucle	-8418
undi	-8419
unus	-8420
ural	-8421
usta	-8422
vani	-8423
vers	-8424
viết	-8425
▁-40	-8426
▁178	-8427
▁2,3	-8428
▁6.5	-8429
▁aaa	-8430
▁aah	-8431
▁bis	-8432
▁bói	-8433
▁bện	-8434
▁bộn	-8435
▁bủa	-8436
▁cav	-8437
▁ced	-8438
▁cen	-8439
▁chy	-8440
▁cis	-8441
▁cit	-8442
▁cod	-8443
▁com	-8444
▁cox	-8445
▁cùa	-8446
▁cùn	-8447
▁cún	-8448
▁cút	-8449
▁cọp	-8450
▁cỡi	-8451
▁dap	-8452
▁dầm	-8453
▁eva	-8454
▁fez	-8455
▁fir	-8456
▁foo	-8457
▁gib	-8458
▁giớ	-8459
▁gun	-8460
▁gut	-8461
▁gài	-8462
▁gấm	-8463
▁hin	-8464
▁hoc	-8465
▁hăm	-8466
▁hơp	-8467
▁hấu	-8468
▁hổn	-8469
▁hợm	-8470
▁igf	-8471
▁ink	-8472
▁jai	-8473
▁kaf	-8474
▁khẽ	-8475
▁kum	-8476
▁kền	-8477
▁laf	-8478
▁lán	-8479
▁lòi	-8480
▁lằn	-8481
▁maz	-8482
▁mes	-8483
▁mía	-8484
▁mảy	-8485
▁mền	-8486
▁mụn	-8487
▁nab	-8488
▁nas	-8489
▁neg	-8490
▁nir	-8491
▁nok	-8492
▁nái	-8493
▁nôm	-8494
▁nạo	-8495
▁nẻo	-8496
▁oái	-8497
▁pew	-8498
▁phũ	-8499
▁pom	-8500
▁pot	-8501
▁reu	-8502
▁ric	-8503
▁rip	-8504
▁ráo	-8505
▁rốn	-8506
▁rụt	-8507
▁seo	-8508
▁syn	-8509
▁são	-8510
▁sưa	-8511
▁sắn	-8512
▁sởi	-8513
▁sởn	-8514
▁tab	-8515
▁tat	-8516
▁thr	-8517
▁trĩ	-8518
▁trọ	-8519
▁tào	-8520
▁tôt	-8521
▁tĩu	-8522
▁tấp	-8523
▁tẩm	-8524
▁vát	-8525
▁vít	-8526
▁www	-8527
▁xml	-8528
▁xát	-8529
▁xẩy	-8530
▁xắp	-8531
▁zab	-8532
▁zul	-8533
adija	-8534
ahaha	-8535
alach	-8536
aline	-8537
aster	-8538
athai	-8539
awton	-8540
caust	-8541
chang	-8542
cutta	-8543
elile	-8544
eline	-8545
ental	-8546
fluid	-8547
garia	-8548
indle	-8549
inner	-8550
kigai	-8551
lasma	-8552
othar	-8553
parov	-8554
rates	-8555
shasa	-8556
shbab	-8557
trand	-8558
ugger	-8559
uguay	-8560
ulder	-8561
umpet	-8562
unded	-8563
where	-8564
zarus	-8565
zweil	-8566
▁1850	-8567
▁1879	-8568
▁1890	-8569
▁1929	-8570
▁1938	-8571
▁1959	-8572
▁1967	-8573
▁2016	-8574
▁agar	-8575
▁aria	-8576
▁baby	-8577
▁barn	-8578
▁benn	-8579
▁bess	-8580
▁blak	-8581
▁born	-8582
▁bose	-8583
▁brah	-8584
▁brck	-8585
▁brin	-8586
▁burg	-8587
▁buốt	-8588
▁byte	-8589
▁bềnh	-8590
▁cell	-8591
▁chon	-8592
▁chịt	-8593
▁chội	-8594
▁citi	-8595
▁club	-8596
▁cuôc	-8597
▁cuốc	-8598
▁cạch	-8599
▁depp	-8600
▁dhar	-8601
▁dink	-8602
▁dmca	-8603
▁drew	-8604
▁dịnh	-8605
▁eddy	-8606
▁eman	-8607
▁fitz	-8608
▁fras	-8609
▁fren	-8610
▁giõi	-8611
▁gray	-8612
▁guga	-8613
▁hama	-8614
▁hard	-8615
▁hell	-8616
▁hers	-8617
▁hugh	-8618
▁hutu	-8619
▁jobs	-8620
▁jung	-8621
▁kare	-8622
▁khua	-8623
▁kiev	-8624
▁kitt	-8625
▁klee	-8626
▁kohn	-8627
▁less	-8628
▁liềm	-8629
▁lord	-8630
▁lươn	-8631
▁mann	-8632
▁maui	-8633
▁mick	-8634
▁moon	-8635
▁mosk	-8636
▁muồi	-8637
▁mênh	-8638
▁mượt	-8639
▁nash	-8640
▁ngoi	-8641
▁ngán	-8642
▁ngốn	-8643
▁nhác	-8644
▁nhúc	-8645
▁nhẩm	-8646
▁nhằn	-8647
▁nina	-8648
▁noir	-8649
▁oxit	-8650
▁pack	-8651
▁palo	-8652
▁phos	-8653
▁phạn	-8654
▁phẩy	-8655
▁pimp	-8656
▁quất	-8657
▁read	-8658
▁risd	-8659
▁roth	-8660
▁rush	-8661
▁ráng	-8662
▁sams	-8663
▁sash	-8664
▁scra	-8665
▁seng	-8666
▁sval	-8667
▁sảng	-8668
▁take	-8669
▁tech	-8670
▁thal	-8671
▁thon	-8672
▁thuý	-8673
▁thơi	-8674
▁tncs	-8675
▁toxo	-8676
▁trek	-8677
▁trọc	-8678
▁type	-8679
▁tưng	-8680
▁vill	-8681
▁vầng	-8682
▁wael	-8683
▁walt	-8684
▁webb	-8685
▁wool	-8686
▁xước	-8687
amsala	-8688
angelo	-8689
asthan	-8690
baleen	-8691
cliffe	-8692
egeren	-8693
nation	-8694
onigal	-8695
phalos	-8696
tainer	-8697
ussels	-8698
vetson	-8699
▁20000	-8700
▁50000	-8701
▁7,000	-8702
▁aless	-8703
▁alley	-8704
▁atlas	-8705
▁atten	-8706
▁audio	-8707
▁bacon	-8708
▁behar	-8709
▁berry	-8710
▁blanc	-8711
▁boong	-8712
▁bragg	-8713
▁break	-8714
▁bundy	-8715
▁burma	-8716
▁burns	-8717
▁canal	-8718
▁caram	-8719
▁china	-8720
▁chong	-8721
▁claes	-8722
▁clark	-8723
▁coler	-8724
▁const	-8725
▁daily	-8726
▁dewey	-8727
▁elias	-8728
▁enron	-8729
▁erick	-8730
▁evans	-8731
▁ferro	-8732
▁forer	-8733
▁giăng	-8734
▁giằng	-8735
▁glenn	-8736
▁grier	-8737
▁grove	-8738
▁hecta	-8739
▁huang	-8740
▁huých	-8741
▁ipods	-8742
▁italy	-8743
▁jeans	-8744
▁johan	-8745
▁jonny	-8746
▁kamal	-8747
▁kamkw	-8748
▁khuỷu	-8749
▁kiran	-8750
▁laman	-8751
▁liệng	-8752
▁mahab	-8753
▁maine	-8754
▁marie	-8755
▁mason	-8756
▁match	-8757
▁matty	-8758
▁mckay	-8759
▁medic	-8760
▁mello	-8761
▁modem	-8762
▁napot	-8763
▁ngóng	-8764
▁ngông	-8765
▁nicol	-8766
▁nucle	-8767
▁nuông	-8768
▁ozone	-8769
▁posts	-8770
▁prick	-8771
▁prius	-8772
▁punta	-8773
▁quàng	-8774
▁rabin	-8775
▁ratan	-8776
▁reich	-8777
▁remix	-8778
▁river	-8779
▁saint	-8780
▁slick	-8781
▁small	-8782
▁speed	-8783
▁start	-8784
▁stern	-8785
▁store	-8786
▁talks	-8787
▁tedxr	-8788
▁tedxs	-8789
▁thinh	-8790
▁thong	-8791
▁tombo	-8792
▁tommy	-8793
▁tracy	-8794
▁tulip	-8795
▁tuyền	-8796
▁vodka	-8797
▁winky	-8798
▁xuồng	-8799
▁yunus	-8800
enstein	-8801
minster	-8802
project	-8803
ramento	-8804
station	-8805
▁15,000	-8806
▁25.000	-8807
▁action	-8808
▁acumen	-8809
▁adrian	-8810
▁alison	-8811
▁angola	-8812
▁arnold	-8813
▁austin	-8814
▁bartok	-8815
▁batiuk	-8816
▁benoit	-8817
▁bergen	-8818
▁bieber	-8819
▁borane	-8820
▁bridge	-8821
▁caucas	-8822
▁cheval	-8823
▁clarke	-8824
▁crimer	-8825
▁dakota	-8826
▁diesel	-8827
▁dublin	-8828
▁dunlap	-8829
▁foster	-8830
▁fuller	-8831
▁gallup	-8832
▁gambia	-8833
▁gamble	-8834
▁garage	-8835
▁giương	-8836
▁greene	-8837
▁harold	-8838
▁hasbro	-8839
▁herbie	-8840
▁ikigai	-8841
▁improv	-8842
▁inches	-8843
▁jeanny	-8844
▁joplin	-8845
▁karate	-8846
▁kermit	-8847
▁kindle	-8848
▁laurie	-8849
▁lehman	-8850
▁lothar	-8851
▁maddie	-8852
▁maidan	-8853
▁meadow	-8854
▁mistry	-8855
▁morris	-8856
▁nellie	-8857
▁nguệch	-8858
▁orwell	-8859
▁osorio	-8860
▁panama	-8861
▁puerto	-8862
▁reader	-8863
▁record	-8864
▁ridley	-8865
▁sardin	-8866
▁sesame	-8867
▁sheena	-8868
▁sivers	-8869
▁somali	-8870
▁starck	-8871
▁sughar	-8872
▁unesco	-8873
▁upload	-8874
▁valent	-8875
▁wagner	-8876
▁yochai	-8877
anderson	-8878
atherine	-8879
changing	-8880
national	-8881
▁albania	-8882
▁ammonia	-8883
▁apophis	-8884
▁ashdown	-8885
▁avelile	-8886
▁balkans	-8887
▁bennett	-8888
▁berners	-8889
▁bitcoin	-8890
▁burkina	-8891
▁cornell	-8892
▁derartu	-8893
▁dorothy	-8894
▁douglas	-8895
▁drybath	-8896
▁grameen	-8897
▁gregory	-8898
▁hillary	-8899
▁hotmail	-8900
▁karmapa	-8901
▁kenneth	-8902
▁khadija	-8903
▁lazarus	-8904
▁lithium	-8905
▁madison	-8906
▁masters	-8907
▁midwest	-8908
▁morgana	-8909
▁mullins	-8910
▁myspace	-8911
▁natalie	-8912
▁pachyce	-8913
▁phillip	-8914
▁pierson	-8915
▁quixote	-8916
▁reuters	-8917
▁robbins	-8918
▁sarkozy	-8919
▁stephan	-8920
▁terroir	-8921
▁tuynisi	-8922
▁uranium	-8923
▁uruguay	-8924
▁vermeer	-8925
▁vincent	-8926
▁wangari	-8927
▁webster	-8928
▁wilkins	-8929
▁wounded	-8930
▁xenlulo	-8931
▁appalach	-8932
▁beatrice	-8933
▁bionicle	-8934
▁bulgaria	-8935
▁calcutta	-8936
▁carrillo	-8937
▁centimét	-8938
▁chandler	-8939
▁cousteau	-8940
▁florence	-8941
▁hatzalah	-8942
▁interval	-8943
▁kasparov	-8944
▁kinshasa	-8945
▁kurzweil	-8946
▁legadema	-8947
▁meegeren	-8948
▁megawatt	-8949
▁milliken	-8950
▁montreal	-8951
▁nickname	-8952
▁particip	-8953
▁scrabble	-8954
▁socrates	-8955
▁svalbard	-8956
▁swaptree	-8957
▁tedtalks	-8958
▁theodore	-8959
▁warcraft	-8960
▁whitacre	-8961
▁adrenalin	-8962
▁container	-8963
▁holocaust	-8964
▁hypercard	-8965
▁jurvetson	-8966
▁macintosh	-8967
▁mcgonigal	-8968
▁moskowitz	-8969
▁radcliffe	-8970
▁rajasthan	-8971
▁rotterdam	-8972
▁shephelah	-8973
▁telescope	-8974
▁worldwide	-8975
▁zabbaleen	-8976
▁zullinger	-8977
▁channelrho	-8978
▁dharamsala	-8979
▁disneyland	-8980
▁everywhere	-8981
▁ferrofluid	-8982
▁huntington	-8983
▁manchester	-8984
▁postsecret	-8985
▁sacramento	-8986
▁shackleton	-8987
▁playstation	-8988
▁attenborough	-8989
▁meggendorfer	-8990
▁neanderthals	-8991
▁international	-8992
▁pachycephalos	-8993
-7	-8994
29	-8995
31	-8996
60	-8997
64	-8998
65	-8999
75	-9000
78	-9001
ae	-9002
dn	-9003
dr	-9004
gb	-9005
gw	-9006
hl	-9007
hy	-9008
mà	-9009
nơ	-9010
pc	-9011
py	-9012
sl	-9013
tơ	-9014
uh	-9015
xa	-9016
xd	-9017
xe	-9018
zb	-9019
âp	-9020
íc	-9021
đa	-9022
ẵm	-9023
ệm	-9024
ỵt	-9025
▁\	-9026
▁©	-9027
▁ị	-9028
▁ố	-9029
▁ợ	-9030
-10	-9031
-40	-9032
600	-9033
afa	-9034
aho	-9035
aka	-9036
alo	-9037
aur	-9038
bir	-9039
bạn	-9040
cav	-9041
cet	-9042
ckx	-9043
del	-9044
dog	-9045
dom	-9046
dul	-9047
ebe	-9048
ebr	-9049
eki	-9050
esc	-9051
fam	-9052
gim	-9053
gli	-9054
gow	-9055
gus	-9056
hhh	-9057
hic	-9058
hne	-9059
hou	-9060
iac	-9061
iki	-9062
iks	-9063
ili	-9064
ism	-9065
ize	-9066
jac	-9067
jah	-9068
jin	-9069
kcd	-9070
kow	-9071
laj	-9072
lov	-9073
lph	-9074
mid	-9075
nee	-9076
oke	-9077
ono	-9078
oon	-9079
osa	-9080
ost	-9081
oul	-9082
pol	-9083
pos	-9084
res	-9085
ril	-9086
rio	-9087
rix	-9088
san	-9089
tai	-9090
thy	-9091
tml	-9092
tod	-9093
tsd	-9094
tun	-9095
tối	-9096
uan	-9097
ubs	-9098
ude	-9099
ula	-9100
ule	-9101
uri	-9102
uyn	-9103
vey	-9104
yêu	-9105
zon	-9106
êng	-9107
đun	-9108
đây	-9109
ẫng	-9110
▁09	-9111
▁4.	-9112
▁cb	-9113
▁cở	-9114
▁dề	-9115
▁fb	-9116
▁gc	-9117
▁gờ	-9118
▁hm	-9119
▁hú	-9120
▁hờ	-9121
▁jt	-9122
▁lé	-9123
▁lì	-9124
▁mủ	-9125
▁nc	-9126
▁ná	-9127
▁nê	-9128
▁og	-9129
▁rh	-9130
▁ry	-9131
▁sj	-9132
▁só	-9133
▁sụ	-9134
▁ul	-9135
▁uv	-9136
▁vè	-9137
▁vế	-9138
▁yb	-9139
▁ây	-9140
▁úi	-9141
▁đh	-9142
▁đì	-9143
▁ẵm	-9144
▁ẻo	-9145
▁ớn	-9146
2010	-9147
adah	-9148
ador	-9149
agon	-9150
aise	-9151
akis	-9152
akka	-9153
alan	-9154
andi	-9155
ando	-9156
anet	-9157
aroo	-9158
arta	-9159
arty	-9160
atan	-9161
atti	-9162
augh	-9163
awat	-9164
bean	-9165
bine	-9166
borg	-9167
brey	-9168
ccob	-9169
ckel	-9170
coli	-9171
dber	-9172
dopa	-9173
ecom	-9174
ella	-9175
elle	-9176
enna	-9177
etor	-9178
fort	-9179
guel	-9180
hall	-9181
hicô	-9182
huhu	-9183
iker	-9184
ines	-9185
ious	-9186
izen	-9187
jazz	-9188
jord	-9189
lanh	-9190
laug	-9191
lawa	-9192
ltan	-9193
maer	-9194
mone	-9195
nham	-9196
occo	-9197
oglo	-9198
olan	-9199
olic	-9200
onen	-9201
onim	-9202
orde	-9203
orge	-9204
pers	-9205
plex	-9206
popo	-9207
ppam	-9208
race	-9209
raib	-9210
rate	-9211
riam	-9212
rrrr	-9213
shaz	-9214
ship	-9215
sler	-9216
star	-9217
teur	-9218
thub	-9219
trow	-9220
tual	-9221
tuốt	-9222
uise	-9223
view	-9224
ware	-9225
ycin	-9226
zbek	-9227
zymb	-9228
ômét	-9229
điều	-9230
▁0.8	-9231
▁1,0	-9232
▁1,4	-9233
▁1.1	-9234
▁102	-9235
▁105	-9236
▁145	-9237
▁156	-9238
▁158	-9239
▁165	-9240
▁181	-9241
▁2.7	-9242
▁205	-9243
▁230	-9244
▁240	-9245
▁3.3	-9246
▁3.7	-9247
▁330	-9248
▁442	-9249
▁5,5	-9250
▁5-6	-9251
▁911	-9252
▁aba	-9253
▁abb	-9254
▁act	-9255
▁afr	-9256
▁aha	-9257
▁ahh	-9258
▁ami	-9259
▁ard	-9260
▁arv	-9261
▁bac	-9262
▁buc	-9263
▁bập	-9264
▁bậy	-9265
▁bịu	-9266
▁chè	-9267
▁cra	-9268
▁csi	-9269
▁cut	-9270
▁cưú	-9271
▁cạc	-9272
▁cầy	-9273
▁cộc	-9274
▁cộm	-9275
▁daw	-9276
▁die	-9277
▁duệ	-9278
▁dùi	-9279
▁dầy	-9280
▁dến	-9281
▁dứa	-9282
▁epa	-9283
▁fam	-9284
▁fax	-9285
▁gag	-9286
▁gao	-9287
▁gbm	-9288
▁gig	-9289
▁gnh	-9290
▁gòn	-9291
▁het	-9292
▁hob	-9293
▁hod	-9294
▁hám	-9295
▁hão	-9296
▁héc	-9297
▁hổi	-9298
▁ich	-9299
▁inv	-9300
▁jal	-9301
▁jeh	-9302
▁jpl	-9303
▁khư	-9304
▁kip	-9305
▁kis	-9306
▁kit	-9307
▁kun	-9308
▁kít	-9309
▁lbs	-9310
▁let	-9311
▁loi	-9312
▁lud	-9313
▁lyn	-9314
▁lác	-9315
▁lúp	-9316
▁lút	-9317
▁lơi	-9318
▁lẩm	-9319
▁lữa	-9320
▁mca	-9321
▁meh	-9322
▁mik	-9323
▁mmm	-9324
▁múi	-9325
▁mầy	-9326
▁mẫm	-9327
▁mứt	-9328
▁mửa	-9329
▁nak	-9330
▁nem	-9331
▁nfl	-9332
▁ngỗ	-9333
▁nhá	-9334
▁nhợ	-9335
▁nia	-9336
▁oai	-9337
▁omg	-9338
▁opp	-9339
▁oth	-9340
▁oát	-9341
▁pbs	-9342
▁ped	-9343
▁pix	-9344
▁ppm	-9345
▁quở	-9346
▁qủa	-9347
▁rah	-9348
▁roi	-9349
▁rol	-9350
▁rám	-9351
▁rít	-9352
▁rôi	-9353
▁rằm	-9354
▁see	-9355
▁sek	-9356
▁sem	-9357
▁shi	-9358
▁shu	-9359
▁sid	-9360
▁sig	-9361
▁sok	-9362
▁sox	-9363
▁sơm	-9364
▁sạo	-9365
▁sực	-9366
▁thé	-9367
▁thệ	-9368
▁tik	-9369
▁trổ	-9370
▁two	-9371
▁táp	-9372
▁tât	-9373
▁tạt	-9374
▁tủa	-9375
▁upd	-9376
▁usc	-9377
▁vun	-9378
▁váo	-9379
▁vât	-9380
▁vén	-9381
▁vắn	-9382
▁vệc	-9383
▁wes	-9384
▁wid	-9385
▁xun	-9386
▁xơi	-9387
▁yor	-9388
▁yếm	-9389
▁zig	-9390
▁ách	-9391
▁đúp	-9392
▁đăc	-9393
▁đăt	-9394
▁đểu	-9395
ablan	-9396
acama	-9397
achim	-9398
andro	-9399
arias	-9400
arius	-9401
bread	-9402
ector	-9403
emens	-9404
ening	-9405
eroon	-9406
ethyl	-9407
ewell	-9408
found	-9409
gimol	-9410
gital	-9411
guson	-9412
ianne	-9413
icket	-9414
ideen	-9415
iegel	-9416
iffen	-9417
isner	-9418
itium	-9419
lavia	-9420
lying	-9421
mouth	-9422
mwood	-9423
nhưng	-9424
ocure	-9425
oming	-9426
orges	-9427
orska	-9428
oulli	-9429
owatt	-9430
quest	-9431
ricia	-9432
ronin	-9433
stock	-9434
trong	-9435
trung	-9436
ucker	-9437
ujaim	-9438
usion	-9439
uther	-9440
venia	-9441
yllis	-9442
zzone	-9443
▁----	-9444
▁1904	-9445
▁1919	-9446
▁1941	-9447
▁1952	-9448
▁1956	-9449
▁1958	-9450
▁1964	-9451
▁1966	-9452
▁aber	-9453
▁airp	-9454
▁alto	-9455
▁avaz	-9456
▁bear	-9457
▁bike	-9458
▁bits	-9459
▁biều	-9460
▁boot	-9461
▁bran	-9462
▁bòng	-9463
▁bọng	-9464
▁cali	-9465
▁casa	-9466
▁chag	-9467
▁chan	-9468
▁chau	-9469
▁chem	-9470
▁chác	-9471
▁chắp	-9472
▁cool	-9473
▁cuồn	-9474
▁cáng	-9475
▁dale	-9476
▁diển	-9477
▁dodo	-9478
▁dool	-9479
▁doub	-9480
▁eden	-9481
▁egan	-9482
▁elyn	-9483
▁enri	-9484
▁erez	-9485
▁fark	-9486
▁faso	-9487
▁feed	-9488
▁feki	-9489
▁fide	-9490
▁finn	-9491
▁fire	-9492
▁food	-9493
▁gart	-9494
▁girl	-9495
▁giầu	-9496
▁haha	-9497
▁html	-9498
▁hững	-9499
▁idol	-9500
▁ince	-9501
▁ines	-9502
▁isaf	-9503
▁java	-9504
▁jody	-9505
▁jonh	-9506
▁kart	-9507
▁khạo	-9508
▁khải	-9509
▁khảm	-9510
▁kick	-9511
▁kill	-9512
▁kilô	-9513
▁kite	-9514
▁kofi	-9515
▁koko	-9516
▁kool	-9517
▁lear	-9518
▁lenn	-9519
▁lgbt	-9520
▁lima	-9521
▁lion	-9522
▁live	-9523
▁loai	-9524
▁lynn	-9525
▁lênh	-9526
▁lạch	-9527
▁lằng	-9528
▁main	-9529
▁maur	-9530
▁miko	-9531
▁mile	-9532
▁milk	-9533
▁môtô	-9534
▁mống	-9535
▁nanh	-9536
▁nath	-9537
▁neon	-9538
▁ngạn	-9539
▁ngụm	-9540
▁nhuỵ	-9541
▁nhẵn	-9542
▁nong	-9543
▁oanh	-9544
▁ocar	-9545
▁ommm	-9546
▁oops	-9547
▁oslo	-9548
▁oxal	-9549
▁page	-9550
▁pand	-9551
▁phít	-9552
▁phập	-9553
▁pope	-9554
▁prag	-9555
▁prod	-9556
▁prov	-9557
▁ptsd	-9558
▁quắt	-9559
▁rama	-9560
▁real	-9561
▁rice	-9562
▁rico	-9563
▁rift	-9564
▁rony	-9565
▁salt	-9566
▁saxe	-9567
▁sequ	-9568
▁shhh	-9569
▁shiv	-9570
▁skid	-9571
▁sufi	-9572
▁suỵt	-9573
▁thóc	-9574
▁thọc	-9575
▁torr	-9576
▁town	-9577
▁trib	-9578
▁true	-9579
▁trìu	-9580
▁trệt	-9581
▁trớn	-9582
▁ward	-9583
▁wins	-9584
▁worc	-9585
▁xkcd	-9586
▁đich	-9587
▁đuốc	-9588
▁đặng	-9589
abasca	-9590
acking	-9591
bourne	-9592
bright	-9593
carbon	-9594
cavore	-9595
dbergh	-9596
elling	-9597
etooth	-9598
friend	-9599
gerald	-9600
leeson	-9601
nister	-9602
perial	-9603
presso	-9604
rowitz	-9605
siness	-9606
todesk	-9607
▁1,2,3	-9608
▁1.500	-9609
▁12000	-9610
▁15000	-9611
▁2,500	-9612
▁6.000	-9613
▁abdul	-9614
▁adria	-9615
▁allah	-9616
▁amjad	-9617
▁armen	-9618
▁astro	-9619
▁basit	-9620
▁birds	-9621
▁birke	-9622
▁block	-9623
▁bobby	-9624
▁bolte	-9625
▁bosch	-9626
▁brain	-9627
▁carbo	-9628
▁check	-9629
▁chihu	-9630
▁chilê	-9631
▁choir	-9632
▁chùng	-9633
▁conan	-9634
▁damon	-9635
▁dough	-9636
▁ebola	-9637
▁edith	-9638
▁eliot	-9639
▁enter	-9640
▁euros	-9641
▁fargo	-9642
▁feder	-9643
▁foods	-9644
▁freed	-9645
▁galen	-9646
▁gayle	-9647
▁ghita	-9648
▁glass	-9649
▁gmail	-9650
▁godin	-9651
▁goran	-9652
▁grams	-9653
▁gượng	-9654
▁hamas	-9655
▁hanna	-9656
▁hardy	-9657
▁homer	-9658
▁hosni	-9659
▁hutch	-9660
▁idaho	-9661
▁inuit	-9662
▁joyce	-9663
▁khồng	-9664
▁kitty	-9665
▁laura	-9666
▁lotto	-9667
▁loveg	-9668
▁macar	-9669
▁mahal	-9670
▁marin	-9671
▁marla	-9672
▁mecca	-9673
▁miner	-9674
▁model	-9675
▁moocs	-9676
▁mycop	-9677
▁ngoằn	-9678
▁nhiếm	-9679
▁nhiện	-9680
▁nhích	-9681
▁nicot	-9682
▁nokia	-9683
▁pinot	-9684
▁poker	-9685
▁quầng	-9686
▁ralph	-9687
▁ramon	-9688
▁randy	-9689
▁remen	-9690
▁renny	-9691
▁romeo	-9692
▁sagan	-9693
▁sears	-9694
▁seoul	-9695
▁shawn	-9696
▁siêng	-9697
▁slash	-9698
▁snoop	-9699
▁spock	-9700
▁stage	-9701
▁stick	-9702
▁strat	-9703
▁studs	-9704
▁szymb	-9705
▁table	-9706
▁thali	-9707
▁thich	-9708
▁thrun	-9709
▁thổng	-9710
▁tibet	-9711
▁treat	-9712
▁turin	-9713
▁tutsi	-9714
▁twain	-9715
▁tyler	-9716
▁under	-9717
▁uzbek	-9718
▁volta	-9719
▁volvo	-9720
▁willy	-9721
▁yards	-9722
ablanca	-9723
akhstan	-9724
alympic	-9725
mblebee	-9726
oglobin	-9727
roponte	-9728
tenberg	-9729
▁11.000	-9730
▁15.000	-9731
▁250000	-9732
▁airbus	-9733
▁analog	-9734
▁archer	-9735
▁austen	-9736
▁babble	-9737
▁baobab	-9738
▁basque	-9739
▁bogota	-9740
▁borges	-9741
▁braxin	-9742
▁bunker	-9743
▁calori	-9744
▁cannes	-9745
▁carson	-9746
▁cedars	-9747
▁chitra	-9748
▁claron	-9749
▁coltan	-9750
▁county	-9751
▁cronin	-9752
▁cruise	-9753
▁cyborg	-9754
▁dallas	-9755
▁daphne	-9756
▁dotcom	-9757
▁duplex	-9758
▁elliot	-9759
▁empire	-9760
▁ensler	-9761
▁fraser	-9762
▁ghonim	-9763
▁ghraib	-9764
▁github	-9765
▁hanson	-9766
▁haring	-9767
▁hebrew	-9768
▁hercul	-9769
▁heroin	-9770
▁italia	-9771
▁jansen	-9772
▁jansky	-9773
▁jetman	-9774
▁kendal	-9775
▁kenyan	-9776
▁kerala	-9777
▁kevlar	-9778
▁khiêng	-9779
▁kismet	-9780
▁knight	-9781
▁kymaer	-9782
▁laurel	-9783
▁league	-9784
▁leslie	-9785
▁little	-9786
▁louise	-9787
▁magell	-9788
▁marrow	-9789
▁marvin	-9790
▁mckean	-9791
▁mechan	-9792
▁merckx	-9793
▁miguel	-9794
▁milton	-9795
▁mobile	-9796
▁mormon	-9797
▁musica	-9798
▁myesha	-9799
▁mêhicô	-9800
▁nghiễm	-9801
▁pamela	-9802
▁parker	-9803
▁phường	-9804
▁picnic	-9805
▁polaro	-9806
▁porter	-9807
▁pretor	-9808
▁prozac	-9809
▁router	-9810
▁salman	-9811
▁schulz	-9812
▁scrubs	-9813
▁server	-9814
▁shirin	-9815
▁skerry	-9816
▁spring	-9817
▁square	-9818
▁starsh	-9819
▁susana	-9820
▁temple	-9821
▁teresa	-9822
▁thaler	-9823
▁tinker	-9824
▁unaids	-9825
▁united	-9826
▁vacxin	-9827
▁vanier	-9828
▁violon	-9829
▁vulner	-9830
▁whites	-9831
▁wonder	-9832
▁zappos	-9833
▁zucker	-9834
▁zurich	-9835
gimoloch	-9836
▁250,000	-9837
▁350.000	-9838
▁allison	-9839
▁antonio	-9840
▁assange	-9841
▁atacama	-9842
▁ballbot	-9843
▁belshaz	-9844
▁benedic	-9845
▁berkley	-9846
▁boulder	-9847
▁bowling	-9848
▁bradley	-9849
▁bucardo	-9850
▁bueller	-9851
▁calorie	-9852
▁caramen	-9853
▁college	-9854
▁commons	-9855
▁control	-9856
▁dioxide	-9857
▁galvani	-9858
▁glasgow	-9859
▁gleeson	-9860
▁googler	-9861
▁hacking	-9862
▁hamburg	-9863
▁hepburn	-9864
▁hormone	-9865
▁jenkins	-9866
▁joachim	-9867
▁kamkwam	-9868
▁kathryn	-9869
▁kendall	-9870
▁kilômét	-9871
▁leonard	-9872
▁limpopo	-9873
▁maathai	-9874
▁mapendo	-9875
▁mildred	-9876
▁mizzone	-9877
▁morocco	-9878
▁mustafa	-9879
▁napster	-9880
▁natural	-9881
▁noujaim	-9882
▁ocarina	-9883
▁pandora	-9884
▁parabol	-9885
▁pasteur	-9886
▁pollock	-9887
▁prickly	-9888
▁reuther	-9889
▁sanccob	-9890
▁shereen	-9891
▁siemens	-9892
▁solomon	-9893
▁springs	-9894
▁strider	-9895
▁tahltan	-9896
▁tedxusc	-9897
▁timothy	-9898
▁tritium	-9899
▁virtual	-9900
▁walters	-9901
▁weiffen	-9902
▁wislawa	-9903
▁wofford	-9904
▁wyoming	-9905
▁autodesk	-9906
▁beatjazz	-9907
▁brussels	-9908
▁business	-9909
▁cameroon	-9910
▁campbell	-9911
▁caucasus	-9912
▁children	-9913
▁creative	-9914
▁defriend	-9915
▁discover	-9916
▁download	-9917
▁ferguson	-9918
▁horowitz	-9919
▁imperial	-9920
▁kangaroo	-9921
▁kilowatt	-9922
▁locavore	-9923
▁mercedes	-9924
▁novocure	-9925
▁patricia	-9926
▁pierpont	-9927
▁rockwell	-9928
▁sardinia	-9929
▁slovenia	-9930
▁standard	-9931
▁taniyama	-9932
▁tedsters	-9933
▁wormwood	-9934
▁zimbardo	-9935
▁ahmedabad	-9936
▁augustine	-9937
▁bannister	-9938
▁bernoulli	-9939
▁bloomberg	-9940
▁bluetooth	-9941
▁bumblebee	-9942
▁caribbean	-9943
▁christina	-9944
▁churchill	-9945
▁coleridge	-9946
▁collusion	-9947
▁goldstein	-9948
▁lamanites	-9949
▁lindbergh	-9950
▁lovegrove	-9951
▁melbourne	-9952
▁michoacán	-9953
▁nathaniel	-9954
▁stephanie	-9955
▁universal	-9956
▁worcester	-9957
▁xenluloza	-9958
▁bennington	-9959
▁blackawton	-9960
▁casablanca	-9961
▁christakis	-9962
▁copernican	-9963
▁fitzgerald	-9964
▁giacometti	-9965
▁kazakhstan	-9966
▁mechanical	-9967
▁mycoplasma	-9968
▁negroponte	-9969
▁paralympic	-9970
▁smartphone	-9971
▁soundscape	-9972
▁szymborska	-9973
▁yugoslavia	-9974
▁buckminster	-9975
▁hippocrates	-9976
▁participant	-9977
▁stygimoloch	-9978
▁weiffenbach	-9979
▁frankenstein	-9980
▁vulnerability	-9981
▁worldchanging	-9982
34	-9983
36	-9984
82	-9985
92	-9986
cn	-9987
có	-9988
dh	-9989
dđ	-9990
fr	-9991
hd	-9992
kj	-9993
of	-9994
qo	-9995
ui	-9996
vc	-9997
óp	-9998
ăt	-9999
ểu	-10000
ổn	-10001
⁄2	-10002
▁ã	-10003
▁ì	-10004
▁อ	-10005
▁ế	-10006
▁ứ	-10007
▁	-10008
,10	-10009
,15	-10010
,20	-10011
-12	-10012
-60	-10013
664	-10014
aac	-10015
ads	-10016
ahl	-10017
ako	-10018
amo	-10019
asw	-10020
ccc	-10021
cro	-10022
của	-10023
dah	-10024
dai	-10025
dar	-10026
dia	-10027
dic	-10028
dis	-10029
div	-10030
ech	-10031
enz	-10032
erd	-10033
fad	-10034
fee	-10035
flo	-10036
fly	-10037
hia	-10038
his	-10039
hub	-10040
iff	-10041
igh	-10042
ius	-10043
ive	-10044
jid	-10045
lim	-10046
lio	-10047
làm	-10048
meg	-10049
mel	-10050
mes	-10051
mpa	-10052
nah	-10053
nam	-10054
nev	-10055
non	-10056
náp	-10057
nói	-10058
olo	-10059
ori	-10060
orp	-10061
oss	-10062
out	-10063
ozo	-10064
pad	-10065
phê	-10066
raf	-10067
rev	-10068
rip	-10069
rma	-10070
rod	-10071
rov	-10072
rum	-10073
ski	-10074
spr	-10075
sáu	-10076
tdđ	-10077
thx	-10078
tir	-10079
tom	-10080
tpj	-10081
tây	-10082
tốt	-10083
ult	-10084
uni	-10085
uru	-10086
ury	-10087
vit	-10088
vào	-10089
wan	-10090
xic	-10091
ơng	-10092
ổng	-10093
▁03	-10094
▁04	-10095
▁07	-10096
▁69	-10097
▁7.	-10098
▁87	-10099
▁bc	-10100
▁bẹ	-10101
▁cù	-10102
▁gy	-10103
▁hù	-10104
▁hế	-10105
▁io	-10106
▁kè	-10107
▁mụ	-10108
▁nã	-10109
▁pô	-10110
▁rc	-10111
▁rê	-10112
▁sữ	-10113
▁tè	-10114
▁tề	-10115
▁ui	-10116
▁vù	-10117
▁vầ	-10118
▁xó	-10119
▁xố	-10120
▁zf	-10121
▁ăm	-10122
▁ải	-10123
,700	-10124
.300	-10125
2008	-10126
2011	-10127
acks	-10128
adbe	-10129
affi	-10130
agel	-10131
agra	-10132
agua	-10133
ahua	-10134
aiah	-10135
aide	-10136
aker	-10137
ales	-10138
alle	-10139
anic	-10140
anna	-10141
anni	-10142
aran	-10143
ardi	-10144
assa	-10145
atle	-10146
atra	-10147
avin	-10148
back	-10149
bane	-10150
bapt	-10151
bers	-10152
biot	-10153
bird	-10154
boja	-10155
bone	-10156
born	-10157
brid	-10158
băng	-10159
cent	-10160
chen	-10161
chio	-10162
cino	-10163
ctic	-10164
deen	-10165
desh	-10166
doch	-10167
edin	-10168
elet	-10169
elin	-10170
elit	-10171
eluj	-10172
emba	-10173
emey	-10174
ends	-10175
entl	-10176
eroy	-10177
ersk	-10178
erts	-10179
erty	-10180
erve	-10181
etic	-10182
etri	-10183
etta	-10184
etto	-10185
eyla	-10186
fast	-10187
gaad	-10188
gito	-10189
haas	-10190
hard	-10191
haus	-10192
head	-10193
hnan	-10194
hore	-10195
iath	-10196
ichu	-10197
icks	-10198
igel	-10199
ilda	-10200
ilon	-10201
iman	-10202
inek	-10203
inin	-10204
ipeg	-10205
irut	-10206
isch	-10207
issa	-10208
ista	-10209
iste	-10210
itia	-10211
itol	-10212
jama	-10213
khov	-10214
kjav	-10215
laza	-10216
ller	-10217
lton	-10218
mand	-10219
maro	-10220
meen	-10221
mont	-10222
mous	-10223
mund	-10224
ners	-10225
ngal	-10226
nger	-10227
ning	-10228
ocop	-10229
ogen	-10230
okov	-10231
olia	-10232
ooka	-10233
otax	-10234
otox	-10235
ovic	-10236
phan	-10237
phần	-10238
pold	-10239
rens	-10240
rent	-10241
rika	-10242
rive	-10243
rost	-10244
rush	-10245
shir	-10246
tery	-10247
tran	-10248
tuổi	-10249
unch	-10250
upon	-10251
urch	-10252
viet	-10253
vika	-10254
voir	-10255
walk	-10256
wear	-10257
week	-10258
yath	-10259
ylus	-10260
được	-10261
động	-10262
▁0.6	-10263
▁1,7	-10264
▁1,8	-10265
▁104	-10266
▁112	-10267
▁117	-10268
▁135	-10269
▁136	-10270
▁162	-10271
▁177	-10272
▁1⁄2	-10273
▁2,4	-10274
▁2.4	-10275
▁260	-10276
▁380	-10277
▁3⁄4	-10278
▁4.6	-10279
▁440	-10280
▁544	-10281
▁550	-10282
▁581	-10283
▁6,5	-10284
▁7.6	-10285
▁826	-10286
▁996	-10287
▁ack	-10288
▁ahn	-10289
▁aol	-10290
▁apt	-10291
▁ayl	-10292
▁bed	-10293
▁boo	-10294
▁box	-10295
▁brd	-10296
▁bri	-10297
▁bét	-10298
▁bẹp	-10299
▁caí	-10300
▁chọ	-10301
▁chỏ	-10302
▁chớ	-10303
▁cin	-10304
▁cnc	-10305
▁cow	-10306
▁cup	-10307
▁cùm	-10308
▁cấn	-10309
▁dic	-10310
▁dùm	-10311
▁dậm	-10312
▁dặc	-10313
▁edx	-10314
▁end	-10315
▁equ	-10316
▁fah	-10317
▁fel	-10318
▁fra	-10319
▁fro	-10320
▁gon	-10321
▁gạc	-10322
▁gội	-10323
▁húc	-10324
▁hển	-10325
▁hộc	-10326
▁ign	-10327
▁inh	-10328
▁jag	-10329
▁jak	-10330
▁jol	-10331
▁jou	-10332
▁jun	-10333
▁kai	-10334
▁kew	-10335
▁khà	-10336
▁kpi	-10337
▁kra	-10338
▁kru	-10339
▁kry	-10340
▁kyu	-10341
▁lad	-10342
▁lil	-10343
▁lov	-10344
▁loã	-10345
▁loè	-10346
▁lux	-10347
▁lxd	-10348
▁lài	-10349
▁lèo	-10350
▁lét	-10351
▁líu	-10352
▁lơn	-10353
▁mdg	-10354
▁mom	-10355
▁mow	-10356
▁mta	-10357
▁mtt	-10358
▁mtv	-10359
▁mui	-10360
▁mùn	-10361
▁măt	-10362
▁mạt	-10363
▁mải	-10364
▁mỏm	-10365
▁mốt	-10366
▁mớm	-10367
▁nbc	-10368
▁ngở	-10369
▁nhò	-10370
▁nhó	-10371
▁nhơ	-10372
▁nhử	-10373
▁nhữ	-10374
▁niu	-10375
▁nye	-10376
▁níu	-10377
▁nệm	-10378
▁nện	-10379
▁oun	-10380
▁pab	-10381
▁pah	-10382
▁pdf	-10383
▁pud	-10384
▁pul	-10385
▁rab	-10386
▁rel	-10387
▁rit	-10388
▁sab	-10389
▁sey	-10390
▁soc	-10391
▁sum	-10392
▁săm	-10393
▁sần	-10394
▁sẳn	-10395
▁tap	-10396
▁tcn	-10397
▁tic	-10398
▁tms	-10399
▁trư	-10400
▁trứ	-10401
▁tuf	-10402
▁típ	-10403
▁tắn	-10404
▁tắp	-10405
▁tời	-10406
▁tủi	-10407
▁uri	-10408
▁usa	-10409
▁vil	-10410
▁vin	-10411
▁vãi	-10412
▁vèo	-10413
▁vút	-10414
▁vằn	-10415
▁vẵn	-10416
▁vọc	-10417
▁vờn	-10418
▁was	-10419
▁wen	-10420
▁wug	-10421
▁wur	-10422
▁xix	-10423
▁xéo	-10424
▁xôn	-10425
▁xúp	-10426
▁xạc	-10427
▁xẩu	-10428
▁xắt	-10429
▁xịn	-10430
▁xốt	-10431
▁yuc	-10432
▁àoo	-10433
▁áng	-10434
▁đàu	-10435
▁đúa	-10436
▁đản	-10437
▁đếu	-10438
▁đỉa	-10439
▁đụn	-10440
5.000	-10441
abena	-10442
ahili	-10443
aille	-10444
akkaf	-10445
aniuk	-10446
anmar	-10447
atchi	-10448
ateau	-10449
atsby	-10450
aturk	-10451
atury	-10452
aware	-10453
bbits	-10454
burst	-10455
chatz	-10456
egans	-10457
elkar	-10458
emite	-10459
engar	-10460
enjin	-10461
enson	-10462
eople	-10463
erner	-10464
ggets	-10465
haram	-10466
hovah	-10467
illus	-10468
ilogy	-10469
ingle	-10470
inoza	-10471
insop	-10472
isenh	-10473
itect	-10474
itzer	-10475
malde	-10476
matic	-10477
matra	-10478
nevar	-10479
olina	-10480
omage	-10481
onies	-10482
onton	-10483
oreau	-10484
other	-10485
owell	-10486
ozoin	-10487
phrey	-10488
ption	-10489
rived	-10490
robot	-10491
scany	-10492
shman	-10493
sinai	-10494
theid	-10495
tions	-10496
ulian	-10497
ulose	-10498
urley	-10499
ution	-10500
▁0,05	-10501
▁1.25	-10502
▁1650	-10503
▁1759	-10504
▁1875	-10505
▁1880	-10506
▁1885	-10507
▁1908	-10508
▁1912	-10509
▁1915	-10510
▁1928	-10511
▁1932	-10512
▁1939	-10513
▁1944	-10514
▁1971	-10515
▁3500	-10516
▁abdi	-10517
▁ache	-10518
▁adel	-10519
▁adhd	-10520
▁aldo	-10521
▁amar	-10522
▁amip	-10523
▁anim	-10524
▁ardu	-10525
▁argh	-10526
▁aron	-10527
▁bald	-10528
▁bami	-10529
▁bast	-10530
▁benz	-10531
▁beta	-10532
▁biff	-10533
▁bobo	-10534
▁boys	-10535
▁bris	-10536
▁bros	-10537
▁bull	-10538
▁burt	-10539
▁bưng	-10540
▁cage	-10541
▁card	-10542
▁cath	-10543
▁chài	-10544
▁chùa	-10545
▁chỉa	-10546
▁chớm	-10547
▁chực	-10548
▁conc	-10549
▁cour	-10550
▁cran	-10551
▁cọng	-10552
▁dana	-10553
▁dart	-10554
▁dass	-10555
▁deqo	-10556
▁dich	-10557
▁diếp	-10558
▁dodi	-10559
▁dogg	-10560
▁dong	-10561
▁dora	-10562
▁dúng	-10563
▁dượt	-10564
▁easy	-10565
▁eddi	-10566
▁fair	-10567
▁flem	-10568
▁flin	-10569
▁flip	-10570
▁forr	-10571
▁foxp	-10572
▁from	-10573
▁ghem	-10574
▁ghìm	-10575
▁giov	-10576
▁giud	-10577
▁give	-10578
▁heer	-10579
▁herz	-10580
▁hinh	-10581
▁hock	-10582
▁hodg	-10583
▁hole	-10584
▁hood	-10585
▁hope	-10586
▁hour	-10587
▁huao	-10588
▁hòng	-10589
▁hẵng	-10590
▁ideo	-10591
▁isop	-10592
▁jain	-10593
▁jaws	-10594
▁joie	-10595
▁june	-10596
▁just	-10597
▁kane	-10598
▁kham	-10599
▁kiki	-10600
▁kiếu	-10601
▁knop	-10602
▁kyle	-10603
▁labs	-10604
▁land	-10605
▁lest	-10606
▁lich	-10607
▁liếm	-10608
▁lois	-10609
▁lomb	-10610
▁luca	-10611
▁luce	-10612
▁lula	-10613
▁luộc	-10614
▁lyne	-10615
▁lâng	-10616
▁lẳng	-10617
▁lỉnh	-10618
▁mach	-10619
▁madh	-10620
▁mama	-10621
▁merz	-10622
▁mess	-10623
▁mies	-10624
▁mira	-10625
▁moby	-10626
▁mooc	-10627
▁mãng	-10628
▁mướt	-10629
▁nanô	-10630
▁narc	-10631
▁nazi	-10632
▁neph	-10633
▁ngụp	-10634
▁nhin	-10635
▁nhíp	-10636
▁nhẩy	-10637
▁nint	-10638
▁nova	-10639
▁nyad	-10640
▁núng	-10641
▁open	-10642
▁pall	-10643
▁panh	-10644
▁past	-10645
▁pccc	-10646
▁pers	-10647
▁pete	-10648
▁pets	-10649
▁phar	-10650
▁phel	-10651
▁phào	-10652
▁phễu	-10653
▁phới	-10654
▁phực	-10655
▁plas	-10656
▁poor	-10657
▁pors	-10658
▁pred	-10659
▁purs	-10660
▁quiz	-10661
▁rinh	-10662
▁ritz	-10663
▁rosa	-10664
▁rtpj	-10665
▁rudy	-10666
▁ruổi	-10667
▁rưới	-10668
▁rượt	-10669
▁sanj	-10670
▁scud	-10671
▁seal	-10672
▁shim	-10673
▁shop	-10674
▁shuk	-10675
▁sida	-10676
▁siza	-10677
▁smol	-10678
▁soph	-10679
▁spam	-10680
▁stro	-10681
▁stux	-10682
▁sulf	-10683
▁sắng	-10684
▁sụng	-10685
▁sủng	-10686
▁tamm	-10687
▁tate	-10688
▁teeb	-10689
▁ther	-10690
▁this	-10691
▁thom	-10692
▁thum	-10693
▁thàm	-10694
▁thía	-10695
▁thùa	-10696
▁thưở	-10697
▁thổn	-10698
▁toan	-10699
▁todd	-10700
▁toạc	-10701
▁toại	-10702
▁tree	-10703
▁tren	-10704
▁tron	-10705
▁trát	-10706
▁trét	-10707
▁trôn	-10708
▁trầy	-10709
▁tuốt	-10710
▁tuồi	-10711
▁tành	-10712
▁uổng	-10713
▁vaux	-10714
▁viển	-10715
▁vung	-10716
▁vusi	-10717
▁vảng	-10718
▁wars	-10719
▁wine	-10720
▁winn	-10721
▁wyss	-10722
▁xcốt	-10723
▁xent	-10724
▁xoăn	-10725
▁xuốt	-10726
▁xưng	-10727
▁yann	-10728
▁ôliu	-10729
▁đanh	-10730
▁đtdđ	-10731
▁đìều	-10732
▁đơợc	-10733
▁đựoc	-10734
ancial	-10735
athrin	-10736
brandt	-10737
carthy	-10738
chcock	-10739
dopsin	-10740
eberry	-10741
edonia	-10742
elbrot	-10743
elujah	-10744
emeyaw	-10745
ennium	-10746
estern	-10747
ettner	-10748
ffeine	-10749
inavia	-10750
ingway	-10751
inness	-10752
israel	-10753
istine	-10754
itchen	-10755
loween	-10756
ordion	-10757
perger	-10758
phones	-10759
rogram	-10760
sakkaf	-10761
spring	-10762
tophan	-10763
vannah	-10764
vetica	-10765
▁1,100	-10766
▁1-2-3	-10767
▁1.600	-10768
▁10,20	-10769
▁10-15	-10770
▁15-20	-10771
▁46664	-10772
▁8,000	-10773
▁8.000	-10774
▁adolf	-10775
▁angry	-10776
▁annan	-10777
▁anony	-10778
▁artem	-10779
▁ausch	-10780
▁avril	-10781
▁baehr	-10782
▁barón	-10783
▁basic	-10784
▁basil	-10785
▁bible	-10786
▁bihar	-10787
▁bindi	-10788
▁bingo	-10789
▁bjorn	-10790
▁bliss	-10791
▁board	-10792
▁bossy	-10793
▁botox	-10794
▁bouba	-10795
▁boyle	-10796
▁bướng	-10797
▁champ	-10798
▁chaos	-10799
▁chắng	-10800
▁cisco	-10801
▁clare	-10802
▁clint	-10803
▁close	-10804
▁colin	-10805
▁court	-10806
▁cuống	-10807
▁dance	-10808
▁daria	-10809
▁delta	-10810
▁dhabi	-10811
▁dicke	-10812
▁dingo	-10813
▁doris	-10814
▁dream	-10815
▁duflo	-10816
▁duran	-10817
▁dusty	-10818
▁dượng	-10819
▁emory	-10820
▁etete	-10821
▁ethel	-10822
▁fedex	-10823
▁frost	-10824
▁gallo	-10825
▁ghiền	-10826
▁hindi	-10827
▁huyệt	-10828
▁image	-10829
▁isaac	-10830
▁islam	-10831
▁janet	-10832
▁jared	-10833
▁jolly	-10834
▁jorge	-10835
▁keats	-10836
▁khoải	-10837
▁kilog	-10838
▁kings	-10839
▁kirst	-10840
▁kiếng	-10841
▁large	-10842
▁laugh	-10843
▁leroy	-10844
▁leyla	-10845
▁limor	-10846
▁liver	-10847
▁lower	-10848
▁loáng	-10849
▁luyên	-10850
▁maker	-10851
▁mcfad	-10852
▁memes	-10853
▁miami	-10854
▁mills	-10855
▁mises	-10856
▁molly	-10857
▁monty	-10858
▁mouss	-10859
▁mujah	-10860
▁music	-10861
▁muỗng	-10862
▁nadia	-10863
▁ngoai	-10864
▁nguôi	-10865
▁ngáng	-10866
▁nhang	-10867
▁nhiểu	-10868
▁nhình	-10869
▁nhạnh	-10870
▁niall	-10871
▁nigel	-10872
▁ninth	-10873
▁nylon	-10874
▁olson	-10875
▁omega	-10876
▁oxfam	-10877
▁pacak	-10878
▁parus	-10879
▁pearl	-10880
▁pedro	-10881
▁petra	-10882
▁petri	-10883
▁phone	-10884
▁phàng	-10885
▁phỉnh	-10886
▁plaza	-10887
▁porco	-10888
▁print	-10889
▁prism	-10890
▁quyệt	-10891
▁quánh	-10892
▁rapam	-10893
▁rebel	-10894
▁reinh	-10895
▁rider	-10896
▁roche	-10897
▁rolls	-10898
▁rosey	-10899
▁royal	-10900
▁rubin	-10901
▁rupal	-10902
▁saima	-10903
▁scrot	-10904
▁sethi	-10905
▁shady	-10906
▁shelf	-10907
▁shell	-10908
▁silic	-10909
▁sinek	-10910
▁sonic	-10911
▁soren	-10912
▁tatum	-10913
▁tedxd	-10914
▁thoai	-10915
▁thuât	-10916
▁thòng	-10917
▁tiger	-10918
▁toang	-10919
▁toanh	-10920
▁today	-10921
▁tomas	-10922
▁torah	-10923
▁track	-10924
▁trust	-10925
▁trược	-10926
▁tuyêt	-10927
▁union	-10928
▁velde	-10929
▁vibro	-10930
▁vivre	-10931
▁wadah	-10932
▁woods	-10933
▁worth	-10934
▁xuông	-10935
▁yentl	-10936
▁zaire	-10937
america	-10938
elitsha	-10939
starter	-10940
tengill	-10941
▁16,000	-10942
▁70,000	-10943
▁99.999	-10944
▁africa	-10945
▁anders	-10946
▁aparna	-10947
▁aubrey	-10948
▁ayelet	-10949
▁balkan	-10950
▁baloch	-10951
▁barton	-10952
▁beirut	-10953
▁berlow	-10954
▁blaise	-10955
▁borneo	-10956
▁brooke	-10957
▁butler	-10958
▁camden	-10959
▁carmen	-10960
▁carrie	-10961
▁castle	-10962
▁center	-10963
▁champs	-10964
▁cirque	-10965
▁cocain	-10966
▁cogito	-10967
▁copper	-10968
▁danone	-10969
▁debora	-10970
▁denver	-10971
▁depthx	-10972
▁direct	-10973
▁double	-10974
▁dunbar	-10975
▁ecuado	-10976
▁eisenh	-10977
▁ernest	-10978
▁favela	-10979
▁fisher	-10980
▁french	-10981
▁frieda	-10982
▁ganson	-10983
▁gatsby	-10984
▁german	-10985
▁golden	-10986
▁graves	-10987
▁handel	-10988
▁hilton	-10989
▁hocken	-10990
▁homaro	-10991
▁hotdog	-10992
▁impass	-10993
▁instit	-10994
▁isaiah	-10995
▁jaclyn	-10996
▁jehane	-10997
▁jinsop	-10998
▁jugaad	-10999
▁kareem	-11000
▁keller	-11001
▁khaled	-11002
▁khalil	-11003
▁khoàng	-11004
▁kohler	-11005
▁krista	-11006
▁kílian	-11007
▁lahore	-11008
▁lancet	-11009
▁leadbe	-11010
▁legacy	-11011
▁lessig	-11012
▁levine	-11013
▁lexico	-11014
▁lionel	-11015
▁maasai	-11016
▁majora	-11017
▁marble	-11018
▁markus	-11019
▁mcafee	-11020
▁metric	-11021
▁minsky	-11022
▁mixing	-11023
▁morgan	-11024
▁mowgli	-11025
▁munroe	-11026
▁nature	-11027
▁nghành	-11028
▁nguyen	-11029
▁ostrow	-11030
▁patton	-11031
▁people	-11032
▁pepper	-11033
▁perony	-11034
▁phosph	-11035
▁pilots	-11036
▁planet	-11037
▁pleist	-11038
▁poupon	-11039
▁produc	-11040
▁promet	-11041
▁provid	-11042
▁purple	-11043
▁queens	-11044
▁rapper	-11045
▁robben	-11046
▁ronson	-11047
▁rupert	-11048
▁sandel	-11049
▁sandor	-11050
▁santee	-11051
▁sapien	-11052
▁scalia	-11053
▁scatch	-11054
▁schwar	-11055
▁scient	-11056
▁seatle	-11057
▁serbia	-11058
▁shaffi	-11059
▁sidney	-11060
▁siyath	-11061
▁soviet	-11062
▁spider	-11063
▁stuart	-11064
▁suarez	-11065
▁summer	-11066
▁sunfat	-11067
▁swartz	-11068
▁tajfel	-11069
▁throve	-11070
▁tilson	-11071
▁truồng	-11072
▁truờng	-11073
▁vander	-11074
▁velcro	-11075
▁videos	-11076
▁vishna	-11077
▁willie	-11078
▁winter	-11079
▁woohoo	-11080
▁wurman	-11081
▁yester	-11082
enschatz	-11083
▁600,000	-11084
▁armenia	-11085
▁ataturk	-11086
▁aylward	-11087
▁barnett	-11088
▁bazooka	-11089
▁bercken	-11090
▁blakley	-11091
▁braille	-11092
▁brendan	-11093
▁britlin	-11094
▁brother	-11095
▁burundi	-11096
▁capitol	-11097
▁cassava	-11098
▁chagall	-11099
▁chaplin	-11100
▁chapman	-11101
▁chateau	-11102
▁chekhov	-11103
▁clooney	-11104
▁company	-11105
▁cricket	-11106
▁damasio	-11107
▁digital	-11108
▁dishman	-11109
▁elegans	-11110
▁elliott	-11111
▁emanuel	-11112
▁ferrari	-11113
▁freedom	-11114
▁friends	-11115
▁gagarin	-11116
▁general	-11117
▁generic	-11118
▁georges	-11119
▁gerhard	-11120
▁goliath	-11121
▁gordian	-11122
▁gorilla	-11123
▁gourley	-11124
▁griffin	-11125
▁hancock	-11126
▁harford	-11127
▁hawkins	-11128
▁heparin	-11129
▁hexanol	-11130
▁israeli	-11131
▁jawbone	-11132
▁jehovah	-11133
▁jobrani	-11134
▁johanna	-11135
▁joubert	-11136
▁khalida	-11137
▁khuyếch	-11138
▁kitchen	-11139
▁krishna	-11140
▁krypton	-11141
▁kwabena	-11142
▁leopold	-11143
▁lestari	-11144
▁mairead	-11145
▁mankoff	-11146
▁mellody	-11147
▁milimét	-11148
▁myanmar	-11149
▁nabokov	-11150
▁nanomet	-11151
▁nucleic	-11152
▁orville	-11153
▁pashtun	-11154
▁pentium	-11155
▁phyllis	-11156
▁pradesh	-11157
▁pratury	-11158
▁pringle	-11159
▁quentin	-11160
▁randall	-11161
▁raymond	-11162
▁reykjav	-11163
▁ritalin	-11164
▁rosalie	-11165
▁safeway	-11166
▁salinas	-11167
▁samboja	-11168
▁schlaug	-11169
▁shermer	-11170
▁sitopia	-11171
▁skinner	-11172
▁spinoza	-11173
▁sumatra	-11174
▁swahili	-11175
▁swenson	-11176
▁talking	-11177
▁tedxmid	-11178
▁telecom	-11179
▁thoreau	-11180
▁thrived	-11181
▁tibbits	-11182
▁tillett	-11183
▁trilogy	-11184
▁trumpet	-11185
▁turkmen	-11186
▁tuscany	-11187
▁wallace	-11188
▁whewell	-11189
▁whitney	-11190
▁winston	-11191
▁witness	-11192
▁xunphua	-11193
▁aberdeen	-11194
▁abrahams	-11195
▁adelaide	-11196
▁agaricon	-11197
▁angeline	-11198
▁aquarius	-11199
▁aremeyaw	-11200
▁asperger	-11201
▁bacillus	-11202
▁baraniuk	-11203
▁benedict	-11204
▁bertrand	-11205
▁biophony	-11206
▁brisbane	-11207
▁buettner	-11208
▁building	-11209
▁cacbonic	-11210
▁caffeine	-11211
▁carbohyd	-11212
▁catholic	-11213
▁centimet	-11214
▁clathrin	-11215
▁delaware	-11216
▁eliasson	-11217
▁enriquez	-11218
▁espresso	-11219
▁formalde	-11220
▁geoffrey	-11221
▁ghemawat	-11222
▁gigabyte	-11223
▁giovanni	-11224
▁griffith	-11225
▁hamilton	-11226
▁hemozoin	-11227
▁hercules	-11228
▁herschel	-11229
▁huaorani	-11230
▁humphrey	-11231
▁isoprene	-11232
▁jennings	-11233
▁johnston	-11234
▁kalenjin	-11235
▁koolhaas	-11236
▁limbaugh	-11237
▁linkedin	-11238
▁mccarthy	-11239
▁medicine	-11240
▁michaela	-11241
▁michelin	-11242
▁nephites	-11243
▁newsweek	-11244
▁nicotine	-11245
▁nintendo	-11246
▁parikrma	-11247
▁pranitha	-11248
▁sandberg	-11249
▁savannah	-11250
▁sharmeen	-11251
▁vannevar	-11252
▁vauxhall	-11253
▁winnipeg	-11254
▁yosemite	-11255
▁accordion	-11256
▁anatomage	-11257
▁anonymous	-11258
▁apartheid	-11259
▁architect	-11260
▁athabasca	-11261
▁auschwitz	-11262
▁catherine	-11263
▁cellulose	-11264
▁chihuahua	-11265
▁dartmouth	-11266
▁discovery	-11267
▁financial	-11268
▁francesca	-11269
▁fransisco	-11270
▁halloween	-11271
▁headphone	-11272
▁helvetica	-11273
▁hemingway	-11274
▁hitchcock	-11275
▁impactful	-11276
▁kamkwamba	-11277
▁macarthur	-11278
▁mashelkar	-11279
▁nashville	-11280
▁pasteurii	-11281
▁pragmatic	-11282
▁rapamycin	-11283
▁recaptcha	-11284
▁recording	-11285
▁rembrandt	-11286
▁stratford	-11287
▁tedxwomen	-11288
▁treatment	-11289
▁trytophan	-11290
▁wikihouse	-11291
▁winehouse	-11292
▁yesterday	-11293
▁adrenaline	-11294
▁barricelli	-11295
▁belshazzar	-11296
▁eisenhower	-11297
▁guttenberg	-11298
▁hallelujah	-11299
▁handspring	-11300
▁juanderson	-11301
▁leadbeater	-11302
▁magellanic	-11303
▁mandelbrot	-11304
▁mujahideen	-11305
▁parusharam	-11306
▁pettengill	-11307
▁sandwiches	-11308
▁siyathemba	-11309
▁summerwear	-11310
▁zuckerberg	-11311
▁balochistan	-11312
▁heatherwick	-11313
▁hockenberry	-11314
▁scandinavia	-11315
▁spectrogram	-11316
▁johannesburg	-11317
-9	-11318
22	-11319
33	-11320
41	-11321
44	-11322
53	-11323
81	-11324
83	-11325
bô	-11326
fk	-11327
fu	-11328
gn	-11329
gr	-11330
hệ	-11331
họ	-11332
lk	-11333
lr	-11334
mg	-11335
mỹ	-11336
nê	-11337
oy	-11338
pơ	-11339
rc	-11340
tư	-11341
từ	-11342
uu	-11343
vy	-11344
vì	-11345
về	-11346
wf	-11347
xt	-11348
yp	-11349
zơ	-11350
áz	-11351
âý	-11352
ég	-11353
ôt	-11354
ăp	-11355
đã	-11356
để	-11357
ịm	-11358
ỏo	-11359
ớc	-11360
▁~	-11361
▁£	-11362
▁́	-11363
,30	-11364
,70	-11365
-18	-11366
-19	-11367
-25	-11368
acs	-11369
ahu	-11370
aoh	-11371
aph	-11372
arh	-11373
auk	-11374
aun	-11375
aut	-11376
ave	-11377
avu	-11378
baw	-11379
bay	-11380
bio	-11381
bis	-11382
bit	-11383
bos	-11384
bow	-11385
cac	-11386
cad	-11387
chỉ	-11388
czy	-11389
cầu	-11390
daq	-11391
ddy	-11392
dle	-11393
dot	-11394
dur	-11395
dẫn	-11396
eee	-11397
ele	-11398
emb	-11399
15	-11400
-30	-11401
dep	-11402
eve	-11403
exe	-11404
eya	-11405
fed	-11406
fid	-11407
fis	-11408
fty	-11409
ges	-11410
gio	-11411
gis	-11412
gor	-11413
gov	-11414
gra	-11415
gre	-11416
gíc	-11417
hak	-11418
hay	-11419
hek	-11420
hnu	-11421
học	-11422
iah	-11423
ibo	-11424
idy	-11425
iew	-11426
igo	-11427
ime	-11428
isi	-11429
itu	-11430
iêp	-11431
jal	-11432
jon	-11433
kas	-11434
kon	-11435
kèm	-11436
lay	-11437
lid	-11438
lof	-11439
loh	-11440
lon	-11441
los	-11442
mir	-11443
mus	-11444
máy	-11445
nac	-11446
nan	-11447
nge	-11448
ngh	-11449
ngu	-11450
nom	-11451
nét	-11452
oli	-11453
omy	-11454
oni	-11455
opa	-11456
ope	-11457
oro	-11458
oty	-11459
oud	-11460
pat	-11461
pei	-11462
pid	-11463
pil	-11464
pri	-11465
psc	-11466
pse	-11467
ray	-11468
rea	-11469
rou	-11470
rrr	-11471
rut	-11472
rốc	-11473
ser	-11474
set	-11475
squ	-11476
ste	-11477
sét	-11478
tay	-11479
tec	-11480
thu	-11481
tip	-11482
ttt	-11483
tại	-11484
ubi	-11485
uca	-11486
ucn	-11487
ulo	-11488
uti	-11489
utu	-11490
uya	-11491
uốm	-11492
vig	-11493
von	-11494
vậy	-11495
wed	-11496
yam	-11497
yuz	-11498
zch	-11499
crô	-11500
kho	-11501
mbc	-11502
tru	-11503
uct	-11504
zzz	-11505
zôn	-11506
ème	-11507
óoc	-11508
đan	-11509
đặc	-11510
đốc	-11511
đổi	-11512
ướm	-11513
ướn	-11514
ườm	-11515
ễng	-11516
ịnh	-11517
ợng	-11518
▁01	-11519
▁81	-11520
▁ce	-11521
▁cõ	-11522
▁ei	-11523
▁ew	-11524
▁fa	-11525
▁gạ	-11526
▁gả	-11527
▁hk	-11528
▁hể	-11529
▁hỉ	-11530
▁ib	-11531
▁il	-11532
▁jl	-11533
▁jq	-11534
▁lp	-11535
▁lz	-11536
▁lĩ	-11537
▁mb	-11538
▁mj	-11539
▁nf	-11540
▁nk	-11541
▁nm	-11542
▁nỡ	-11543
▁ot	-11544
▁pb	-11545
▁ri	-11546
▁rp	-11547
▁rè	-11548
▁rú	-11549
▁rỗ	-11550
▁sg	-11551
▁sỏ	-11552
▁sủ	-11553
▁tỵ	-11554
▁vạ	-11555
▁zw	-11556
▁zx	-11557
▁àm	-11558
▁áy	-11559
▁ùa	-11560
▁úa	-11561
▁đâ	-11562
▁đư	-11563
▁đọ	-11564
▁ại	-11565
▁ậy	-11566
▁ới	-11567
▁ủa	-11568
▁ủn	-11569
.500	-11570
abra	-11571
acab	-11572
acam	-11573
aday	-11574
adne	-11575
alai	-11576
amín	-11577
anes	-11578
angi	-11579
aris	-11580
arke	-11581
arro	-11582
arti	-11583
arus	-11584
asia	-11585
ason	-11586
aste	-11587
asti	-11588
asub	-11589
atah	-11590
atic	-11591
atte	-11592
aude	-11593
aulk	-11594
ause	-11595
avet	-11596
avic	-11597
awak	-11598
baki	-11599
cci	-11600
dha	-11601
hãy	-11602
you	-11603
balt	-11604
beck	-11605
bian	-11606
boro	-11607
bows	-11608
bral	-11609
brio	-11610
bury	-11611
chev	-11612
chos	-11613
city	-11614
ción	-11615
club	-11616
code	-11617
coni	-11618
cort	-11619
ctal	-11620
deal	-11621
doug	-11622
ecue	-11623
edon	-11624
efer	-11625
eira	-11626
ekel	-11627
elis	-11628
elow	-11629
enbr	-11630
enda	-11631
enes	-11632
ents	-11633
eout	-11634
erre	-11635
ertz	-11636
etel	-11637
etzs	-11638
ewer	-11639
ezza	-11640
ffen	-11641
file	-11642
form	-11643
four	-11644
fran	-11645
gabe	-11646
gang	-11647
ggie	-11648
gham	-11649
ghts	-11650
gina	-11651
guez	-11652
heus	-11653
hoff	-11654
ichi	-11655
idan	-11656
idom	-11657
ieux	-11658
ific	-11659
igen	-11660
ikha	-11661
ilip	-11662
imes	-11663
imir	-11664
inch	-11665
inet	-11666
inoy	-11667
iper	-11668
ipus	-11669
iran	-11670
irez	-11671
irin	-11672
izer	-11673
jaro	-11674
jolf	-11675
kara	-11676
kier	-11677
ldus	-11678
lene	-11679
less	-11680
lier	-11681
lies	-11682
life	-11683
liku	-11684
lish	-11685
live	-11686
look	-11687
lynn	-11688
lưới	-11689
mite	-11690
moan	-11691
mour	-11692
mpus	-11693
mình	-11694
măng	-11695
mạng	-11696
nard	-11697
nier	-11698
ocal	-11699
bíp	-11700
ksw	-11701
ufl	-11702
2006	-11703
2012	-11704
aign	-11705
aloa	-11706
axon	-11707
dops	-11708
giới	-11709
gras	-11710
kbar	-11711
ocar	-11712
ocol	-11713
odle	-11714
oire	-11715
oldt	-11716
olog	-11717
onie	-11718
onna	-11719
ooks	-11720
oora	-11721
orah	-11722
oria	-11723
osis	-11724
otho	-11725
otic	-11726
otta	-11727
page	-11728
pall	-11729
peii	-11730
phen	-11731
pris	-11732
rana	-11733
rano	-11734
rast	-11735
ress	-11736
ribe	-11737
rict	-11738
ries	-11739
ring	-11740
rino	-11741
sees	-11742
sing	-11743
soon	-11744
sore	-11745
stad	-11746
stem	-11747
thay	-11748
theo	-11749
thật	-11750
tich	-11751
ting	-11752
town	-11753
tton	-11754
ugan	-11755
ughs	-11756
ular	-11757
ungu	-11758
upsy	-11759
usha	-11760
uska	-11761
usse	-11762
uyền	-11763
wafi	-11764
wana	-11765
wire	-11766
ydia	-11767
ylan	-11768
ylar	-11769
yola	-11770
york	-11771
your	-11772
zias	-11773
znia	-11774
zzar	-11775
▁0.3	-11776
▁0.7	-11777
▁1,1	-11778
▁1.9	-11779
▁106	-11780
▁108	-11781
▁111	-11782
▁123	-11783
▁127	-11784
▁129	-11785
▁132	-11786
▁134	-11787
▁144	-11788
▁148	-11789
▁154	-11790
▁173	-11791
▁174	-11792
▁2-5	-11793
▁2.2	-11794
▁232	-11795
▁256	-11796
▁3,4	-11797
▁3,7	-11798
▁3-5	-11799
,25	-11800
-47	-11801
hru	-11802
,900	-11803
caux	-11804
note	-11805
span	-11806
ujec	-11807
▁3.2	-11808
▁320	-11809
▁370	-11810
▁390	-11811
▁405	-11812
▁413	-11813
▁5.5	-11814
▁529	-11815
▁530	-11816
▁539	-11817
▁6,8	-11818
▁620	-11819
▁683	-11820
▁ace	-11821
▁ada	-11822
▁adv	-11823
▁aid	-11824
▁ald	-11825
▁ale	-11826
▁alh	-11827
▁aro	-11828
▁bad	-11829
▁bbq	-11830
▁bee	-11831
▁beo	-11832
▁bey	-11833
▁bma	-11834
▁bpa	-11835
▁buk	-11836
▁bum	-11837
▁bèo	-11838
▁bùi	-11839
▁bằn	-11840
▁bết	-11841
▁cer	-11842
▁cmu	-11843
▁cpu	-11844
▁csp	-11845
▁cus	-11846
▁còm	-11847
▁cúa	-11848
▁cũa	-11849
▁cạm	-11850
▁cới	-11851
▁cứa	-11852
▁dob	-11853
▁dog	-11854
▁dri	-11855
▁duh	-11856
▁dyn	-11857
▁dát	-11858
▁dũa	-11859
▁dổi	-11860
▁eag	-11861
▁eat	-11862
▁edu	-11863
▁eni	-11864
▁eno	-11865
▁eps	-11866
▁exl	-11867
▁exp	-11868
▁fal	-11869
▁fen	-11870
▁fli	-11871
▁fls	-11872
▁fry	-11873
▁fuk	-11874
▁fut	-11875
▁geg	-11876
▁gev	-11877
▁ghz	-11878
▁ghì	-11879
▁giẻ	-11880
▁glo	-11881
▁gly	-11882
▁gob	-11883
▁gop	-11884
▁got	-11885
▁gur	-11886
▁găm	-11887
▁gẫm	-11888
▁gỏi	-11889
▁gới	-11890
▁hab	-11891
▁hah	-11892
▁hak	-11893
▁hap	-11894
▁hew	-11895
▁his	-11896
▁hiu	-11897
▁how	-11898
▁hoỉ	-11899
czyc	-11900
enhe	-11901
surf	-11902
woai	-11903
▁4,6	-11904
▁8.1	-11905
▁gsm	-11906
▁hâu	-11907
▁híp	-11908
▁hòi	-11909
▁hất	-11910
▁hớn	-11911
▁hởi	-11912
▁icu	-11913
▁imu	-11914
▁int	-11915
▁kad	-11916
▁khz	-11917
▁kub	-11918
▁kèo	-11919
▁kỏo	-11920
▁lia	-11921
▁lot	-11922
▁lum	-11923
▁líp	-11924
▁lói	-11925
▁lất	-11926
▁lởn	-11927
▁meo	-11928
▁mol	-11929
▁msn	-11930
▁mut	-11931
▁már	-11932
▁mói	-11933
▁mõm	-11934
▁mấp	-11935
▁mắm	-11936
▁mọn	-11937
▁nal	-11938
▁ndd	-11939
▁neb	-11940
▁nhè	-11941
▁nhọ	-11942
▁npr	-11943
▁nul	-11944
▁nán	-11945
▁náy	-11946
▁nêm	-11947
▁núc	-11948
▁núp	-11949
▁nướ	-11950
▁nảo	-11951
▁nịt	-11952
▁obi	-11953
▁occ	-11954
▁ocr	-11955
▁ooo	-11956
▁ord	-11957
▁orw	-11958
▁our	-11959
▁pda	-11960
▁pes	-11961
▁pvc	-11962
▁quơ	-11963
▁quị	-11964
▁qúa	-11965
▁rai	-11966
▁raq	-11967
▁ret	-11968
▁rew	-11969
▁rib	-11970
▁rog	-11971
▁rot	-11972
▁rum	-11973
▁rut	-11974
▁rát	-11975
▁rêu	-11976
▁ríu	-11977
▁rận	-11978
▁rắt	-11979
▁rứt	-11980
▁sea	-11981
▁sed	-11982
▁sef	-11983
▁sog	-11984
▁suz	-11985
▁sạm	-11986
▁sất	-11987
▁sẫm	-11988
▁sến	-11989
▁sột	-11990
▁sủi	-11991
▁sứt	-11992
▁tag	-11993
▁tau	-11994
▁thừ	-11995
▁tod	-11996
▁tol	-11997
▁tzu	-11998
▁tùm	-11999
hyde	-12000
mahl	-12001
mblr	-12002
▁bcg	-12003
▁jfk	-12004
▁tẩu	-12005
▁tậu	-12006
▁tếu	-12007
▁tệp	-12008
▁uae	-12009
▁ufo	-12010
▁urb	-12011
▁víu	-12012
▁vôn	-12013
▁vẩy	-12014
▁vẹo	-12015
▁vởi	-12016
▁vởn	-12017
▁wak	-12018
▁wan	-12019
▁wax	-12020
▁wel	-12021
▁wuh	-12022
▁wwf	-12023
▁xel	-12024
▁xia	-12025
▁xoè	-12026
▁xuý	-12027
▁xuể	-12028
▁xém	-12029
▁xẩm	-12030
▁xết	-12031
▁xỉa	-12032
▁xối	-12033
▁xổm	-12034
▁xụp	-12035
▁yes	-12036
▁yip	-12037
▁yết	-12038
▁yểu	-12039
▁zac	-12040
▁zal	-12041
▁zem	-12042
▁zen	-12043
▁zod	-12044
▁ôxi	-12045
▁đao	-12046
▁đrô	-12047
▁đát	-12048
▁đáu	-12049
▁đât	-12050
▁đén	-12051
▁đăm	-12052
▁đẫn	-12053
▁đẽo	-12054
▁đềm	-12055
▁đển	-12056
▁đỏi	-12057
▁đớp	-12058
▁ạnh	-12059
abibi	-12060
acter	-12061
affic	-12062
aikum	-12063
aines	-12064
alind	-12065
allam	-12066
amets	-12067
amien	-12068
amine	-12069
andie	-12070
andis	-12071
andra	-12072
angea	-12073
aniam	-12074
anian	-12075
annon	-12076
aquin	-12077
arrow	-12078
atham	-12079
atten	-12080
aungu	-12081
avere	-12082
azeal	-12083
azine	-12084
brook	-12085
bsbaw	-12086
calfe	-12087
celos	-12088
clays	-12089
dorov	-12090
duras	-12091
ectus	-12092
ehrli	-12093
ement	-12094
erman	-12095
erony	-12096
eshat	-12097
estig	-12098
estra	-12099
▁ướm	-12100
etnam	-12101
etter	-12102
farin	-12103
fried	-12104
ghese	-12105
giống	-12106
gwart	-12107
ianna	-12108
ichie	-12109
icken	-12110
idone	-12111
iform	-12112
ikeya	-12113
ileen	-12114
iller	-12115
illia	-12116
ilway	-12117
imber	-12118
india	-12119
inect	-12120
inkle	-12121
inkra	-12122
innon	-12123
inska	-12124
issus	-12125
istol	-12126
itage	-12127
itesh	-12128
ithia	-12129
ities	-12130
jacob	-12131
ladni	-12132
lehem	-12133
madan	-12134
marie	-12135
mpson	-12136
neezy	-12137
nesty	-12138
ngược	-12139
ocene	-12140
ocopy	-12141
oleon	-12142
olloh	-12143
oping	-12144
orgen	-12145
orock	-12146
ortal	-12147
otion	-12148
oturf	-12149
owery	-12150
paris	-12151
peace	-12152
phael	-12153
pidou	-12154
quist	-12155
rahim	-12156
ramer	-12157
rasma	-12158
recht	-12159
riram	-12160
ritte	-12161
ropol	-12162
rovia	-12163
roxic	-12164
scape	-12165
shirt	-12166
strom	-12167
taire	-12168
taiya	-12169
talum	-12170
tario	-12171
tocot	-12172
toole	-12173
uania	-12174
uflon	-12175
unity	-12176
urday	-12177
usman	-12178
utain	-12179
vante	-12180
visor	-12181
▁13,7	-12182
▁13.7	-12183
▁1455	-12184
▁1700	-12185
▁1787	-12186
▁1812	-12187
▁1824	-12188
▁1829	-12189
▁1840	-12190
▁1863	-12191
▁1870	-12192
▁1871	-12193
▁1891	-12194
▁1903	-12195
▁1931	-12196
▁1933	-12197
▁1936	-12198
▁1955	-12199
▁2025	-12200
▁2300	-12201
▁26.2	-12202
▁2600	-12203
▁5500	-12204
▁99.5	-12205
▁aaah	-12206
▁aden	-12207
▁aidg	-12208
▁ajit	-12209
▁alma	-12210
▁also	-12211
▁amos	-12212
▁anil	-12213
▁anti	-12214
▁arap	-12215
▁arby	-12216
▁area	-12217
▁arts	-12218
▁arup	-12219
▁astr	-12220
▁aval	-12221
▁axis	-12222
▁axon	-12223
▁baja	-12224
▁bees	-12225
▁bela	-12226
▁berg	-12227
▁bhar	-12228
▁bing	-12229
▁bird	-12230
▁blan	-12231
▁blow	-12232
▁boyd	-12233
▁bric	-12234
▁brid	-12235
▁brig	-12236
▁bryn	-12237
▁bunn	-12238
▁bính	-12239
▁bươm	-12240
▁bảnh	-12241
▁bẵng	-12242
▁bỉnh	-12243
▁cain	-12244
▁capt	-12245
▁cary	-12246
▁cbgb	-12247
▁ches	-12248
▁chop	-12249
▁chít	-12250
▁chấy	-12251
▁chặc	-12252
▁chồm	-12253
▁cody	-12254
▁core	-12255
▁creo	-12256
▁cuội	-12257
▁cước	-12258
▁dame	-12259
▁dawn	-12260
▁dist	-12261
▁diên	-12262
▁diêu	-12263
▁dogs	-12264
▁dozo	-12265
▁eben	-12266
▁elip	-12267
▁emil	-12268
▁ergo	-12269
▁espn	-12270
▁esta	-12271
▁evil	-12272
▁fest	-12273
▁fiji	-12274
▁fish	-12275
▁fiss	-12276
▁fold	-12277
▁gcse	-12278
▁gero	-12279
▁ghém	-12280
▁giẫm	-12281
▁giếm	-12282
▁gonz	-12283
▁goos	-12284
▁grim	-12285
▁gris	-12286
▁guốc	-12287
▁gượm	-12288
▁gằng	-12289
▁haas	-12290
▁hale	-12291
▁half	-12292
▁hare	-12293
▁hash	-12294
▁hawa	-12295
▁heff	-12296
▁heis	-12297
▁here	-12298
▁hoay	-12299
▁hoen	-12300
▁holl	-12301
▁holy	-12302
▁hori	-12303
▁horn	-12304
▁hoạc	-12305
▁hsbc	-12306
▁huff	-12307
▁hugo	-12308
▁humb	-12309
▁huân	-12310
▁hypp	-12311
▁háng	-12312
▁hóoc	-12313
▁hĩnh	-12314
▁inca	-12315
▁indi	-12316
▁ishi	-12317
▁iucn	-12318
▁jang	-12319
▁kand	-12320
▁kanw	-12321
▁kard	-12322
▁katy	-12323
▁kemp	-12324
▁khat	-12325
▁kheo	-12326
▁khom	-12327
▁khâm	-12328
▁khập	-12329
▁khều	-12330
▁khổi	-12331
▁kich	-12332
▁kidd	-12333
▁know	-12334
▁kuhl	-12335
▁kình	-12336
▁kếch	-12337
▁laet	-12338
▁lane	-12339
▁lehi	-12340
▁leib	-12341
▁lizz	-12342
▁liến	-12343
▁loay	-12344
▁loud	-12345
▁loẹt	-12346
▁luis	-12347
▁lạng	-12348
▁lọng	-12349
▁lừng	-12350
▁macy	-12351
▁make	-12352
▁mala	-12353
▁marg	-12354
▁mayo	-12355
▁mcew	-12356
▁mcgu	-12357
▁meet	-12358
▁mega	-12359
▁mein	-12360
▁meme	-12361
▁menu	-12362
▁midi	-12363
▁mind	-12364
▁mmmm	-12365
▁moai	-12366
▁mobs	-12367
▁mons	-12368
▁mori	-12369
▁moss	-12370
▁mota	-12371
▁moto	-12372
▁mybo	-12373
▁nair	-12374
▁naná	-12375
▁nell	-12376
▁neop	-12377
▁ness	-12378
▁next	-12379
▁ngac	-12380
▁ngai	-12381
▁ngổn	-12382
▁ngớt	-12383
▁nhuệ	-12384
▁nhíu	-12385
▁nhón	-12386
▁nhưg	-12387
▁nhậu	-12388
▁nhẹm	-12389
▁nhẽo	-12390
▁nhổm	-12391
▁nhụt	-12392
▁nhữn	-12393
▁niag	-12394
▁ních	-12395
▁nựng	-12396
▁olof	-12397
▁omar	-12398
▁omen	-12399
▁otto	-12400
▁over	-12401
▁palu	-12402
▁panô	-12403
▁pari	-12404
▁penh	-12405
▁phia	-12406
▁phiá	-12407
▁phui	-12408
▁phảm	-12409
▁phấp	-12410
▁piar	-12411
▁pick	-12412
▁piff	-12413
▁pike	-12414
▁pisa	-12415
▁polo	-12416
▁prom	-12417
▁puck	-12418
▁puma	-12419
▁pune	-12420
▁quạc	-12421
▁quại	-12422
▁quằn	-12423
▁quẹo	-12424
▁rada	-12425
▁rafi	-12426
▁ragh	-12427
▁rahm	-12428
▁raku	-12429
▁rass	-12430
▁rcif	-12431
▁rees	-12432
▁rest	-12433
▁rode	-12434
▁rowe	-12435
▁rupe	-12436
▁rình	-12437
▁rườm	-12438
▁sage	-12439
▁sari	-12440
▁sass	-12441
▁save	-12442
▁scar	-12443
▁sham	-12444
▁shap	-12445
▁shea	-12446
▁shia	-12447
▁shot	-12448
▁side	-12449
▁sina	-12450
▁soda	-12451
▁soto	-12452
▁soạt	-12453
▁spir	-12454
▁stap	-12455
▁suey	-12456
▁swat	-12457
▁sượt	-12458
▁tana	-12459
▁thau	-12460
▁thel	-12461
▁they	-12462
▁thoã	-12463
▁thpt	-12464
▁thui	-12465
▁thãi	-12466
▁thìa	-12467
▁thẩy	-12468
▁thới	-12469
▁tiều	-12470
▁toni	-12471
▁tort	-12472
▁trad	-12473
▁trám	-12474
▁trâm	-12475
▁trót	-12476
▁trĩu	-12477
▁trạc	-12478
▁trịa	-12479
▁trức	-12480
▁tuýt	-12481
▁tuồn	-12482
▁twil	-12483
▁twin	-12484
▁tược	-12485
▁tượt	-12486
▁tấng	-12487
▁tịnh	-12488
▁udai	-12489
▁ueli	-12490
▁vall	-12491
▁vera	-12492
▁vest	-12493
▁viêt	-12494
▁vlad	-12495
▁vãng	-12496
▁vông	-12497
▁vược	-12498
▁waal	-12499
▁wald	-12500
▁walk	-12501
▁wern	-12502
▁wilk	-12503
▁wing	-12504
▁wire	-12505
▁wmap	-12506
▁work	-12507
▁xcot	-12508
▁xoài	-12509
▁yami	-12510
▁yang	-12511
▁yitz	-12512
▁zeta	-12513
▁zoom	-12514
▁zulu	-12515
▁điếm	-12516
▁đoái	-12517
▁đạng	-12518
▁đẵng	-12519
abytes	-12520
aldine	-12521
andria	-12522
anesia	-12523
antham	-12524
apolis	-12525
arayan	-12526
athrow	-12527
ayette	-12528
bisson	-12529
bridos	-12530
busier	-12531
cacbon	-12532
celium	-12533
chanan	-12534
change	-12535
chtwey	-12536
church	-12537
claude	-12538
diving	-12539
echley	-12540
efield	-12541
endish	-12542
eskind	-12543
essori	-12544
estein	-12545
ething	-12546
graphy	-12547
hannon	-12548
harata	-12549
ideout	-12550
illion	-12551
indler	-12552
inejad	-12553
insula	-12554
ipping	-12555
ishman	-12556
itchie	-12557
itchik	-12558
jordan	-12559
lewood	-12560
liding	-12561
lifert	-12562
lywood	-12563
nisone	-12564
nistan	-12565
ograph	-12566
onysus	-12567
otitan	-12568
ources	-12569
philip	-12570
piness	-12571
pinney	-12572
pscott	-12573
rannos	-12574
rannus	-12575
rosten	-12576
rusing	-12577
tstone	-12578
undsen	-12579
vantes	-12580
velier	-12581
vision	-12582
waites	-12583
weiser	-12584
worthy	-12585
zchild	-12586
ázquez	-12587
▁1,034	-12588
▁1,600	-12589
▁1,800	-12590
▁14000	-12591
▁2,200	-12592
▁30-40	-12593
▁5.300	-12594
▁7.500	-12595
▁75-25	-12596
▁9.000	-12597
▁aaaaa	-12598
▁abbey	-12599
▁acids	-12600
▁acorn	-12601
▁ashok	-12602
▁aston	-12603
▁atari	-12604
▁autom	-12605
▁baker	-12606
▁basin	-12607
▁baumg	-12608
▁becky	-12609
▁bitch	-12610
▁blake	-12611
▁blues	-12612
▁boing	-12613
▁braun	-12614
▁brene	-12615
▁brohi	-12616
▁bront	-12617
▁cantu	-12618
▁catch	-12619
▁cavat	-12620
▁chevy	-12621
▁chiat	-12622
▁chlam	-12623
▁chuôt	-12624
▁chyện	-12625
▁chình	-12626
▁chẵng	-12627
▁clive	-12628
▁crash	-12629
▁crete	-12630
▁crème	-12631
▁cyark	-12632
▁dalai	-12633
▁davos	-12634
▁demon	-12635
▁demos	-12636
▁dench	-12637
▁dijon	-12638
▁dimit	-12639
▁doang	-12640
▁donne	-12641
▁dylan	-12642
▁eigen	-12643
▁emdin	-12644
▁excel	-12645
▁faron	-12646
▁faulk	-12647
▁field	-12648
▁floyd	-12649
▁flynn	-12650
▁force	-12651
▁forte	-12652
▁franz	-12653
▁freef	-12654
▁fulla	-12655
▁gavin	-12656
▁geary	-12657
▁geert	-12658
▁genes	-12659
▁getty	-12660
▁ghềnh	-12661
▁girls	-12662
▁giêsu	-12663
▁gluon	-12664
▁gradi	-12665
▁graph	-12666
▁gucci	-12667
▁gusta	-12668
▁gường	-12669
▁haifa	-12670
▁haiku	-12671
▁halal	-12672
▁haven	-12673
▁haydn	-12674
▁healy	-12675
▁hello	-12676
▁hemis	-12677
▁henri	-12678
▁hertz	-12679
▁hijaz	-12680
▁honor	-12681
▁howey	-12682
▁hunts	-12683
▁huyễn	-12684
▁huênh	-12685
▁hường	-12686
▁indus	-12687
▁inver	-12688
▁issac	-12689
▁jacek	-12690
▁kafka	-12691
▁karol	-12692
▁kenny	-12693
▁khiên	-12694
▁khoáy	-12695
▁khoắc	-12696
▁khuân	-12697
▁khộng	-12698
▁kimbo	-12699
▁knopf	-12700
▁kraft	-12701
▁krill	-12702
▁kunst	-12703
▁laenn	-12704
▁lance	-12705
▁lanza	-12706
▁legos	-12707
▁lemon	-12708
▁levin	-12709
▁liber	-12710
▁linds	-12711
▁lloyd	-12712
▁logan	-12713
▁logar	-12714
▁louie	-12715
▁loạng	-12716
▁lucas	-12717
▁lynch	-12718
▁lélia	-12719
▁maeda	-12720
▁magic	-12721
▁major	-12722
▁malin	-12723
▁marge	-12724
▁masai	-12725
▁matas	-12726
▁metro	-12727
▁mikey	-12728
▁mikko	-12729
▁moshe	-12730
▁multi	-12731
▁muniz	-12732
▁nacho	-12733
▁nerve	-12734
▁nghía	-12735
▁ngiên	-12736
▁ngoãn	-12737
▁ngram	-12738
▁nhiểm	-12739
▁nhuốm	-12740
▁nhếch	-12741
▁nhộng	-12742
▁nhựng	-12743
▁noble	-12744
▁novak	-12745
▁obaid	-12746
▁ockel	-12747
▁ounce	-12748
▁paddy	-12749
▁pagel	-12750
▁paley	-12751
▁palme	-12752
▁pavlo	-12753
▁payne	-12754
▁phage	-12755
▁phnom	-12756
▁photo	-12757
▁phung	-12758
▁phộng	-12759
▁pixel	-12760
▁place	-12761
▁plexi	-12762
▁porto	-12763
▁prada	-12764
▁press	-12765
▁pshoo	-12766
▁quest	-12767
▁rajiv	-12768
▁reeve	-12769
▁right	-12770
▁rosin	-12771
▁rover	-12772
▁royce	-12773
▁ruồng	-12774
▁rôbốt	-12775
▁sabia	-12776
▁sacks	-12777
▁sangu	-12778
▁santo	-12779
▁sasha	-12780
▁seine	-12781
▁seuss	-12782
▁shiva	-12783
▁shree	-12784
▁shuff	-12785
▁skoll	-12786
▁smits	-12787
▁snack	-12788
▁soyuz	-12789
▁spiel	-12790
▁stacy	-12791
▁stawi	-12792
▁steel	-12793
▁taiga	-12794
▁takei	-12795
▁tampa	-12796
▁theme	-12797
▁think	-12798
▁thiêt	-12799
▁thiếc	-12800
▁tikal	-12801
▁tombs	-12802
▁torng	-12803
▁torre	-12804
▁triến	-12805
▁troll	-12806
▁trott	-12807
▁truất	-12808
▁trính	-12809
▁trạnh	-12810
▁trủng	-12811
▁trứơc	-12812
▁tufts	-12813
▁uldus	-12814
▁ursus	-12815
▁uttar	-12816
▁vardi	-12817
▁veron	-12818
▁vesta	-12819
▁villa	-12820
▁vitru	-12821
▁vocal	-12822
▁wayne	-12823
▁weber	-12824
▁wendy	-12825
▁widow	-12826
▁wolfe	-12827
▁wolff	-12828
▁wonka	-12829
▁wujec	-12830
▁xavan	-12831
▁xiềng	-12832
▁xoàng	-12833
▁yadda	-12834
▁yorke	-12835
▁yossi	-12836
▁zvika	-12837
acabana	-12838
acamole	-12839
anderas	-12840
asubram	-12841
aveteli	-12842
avicini	-12843
braltar	-12844
busters	-12845
carlton	-12846
dington	-12847
dopsins	-12848
dougall	-12849
elysees	-12850
emaster	-12851
etzsche	-12852
formers	-12853
houette	-12854
houston	-12855
illiard	-12856
italium	-12857
itución	-12858
ization	-12859
lassian	-12860
minator	-12861
olution	-12862
rovirus	-12863
roxicam	-12864
stadter	-12865
surfing	-12866
tichini	-12867
tisland	-12868
uchadne	-12869
western	-12870
▁......	-12871
▁100000	-12872
▁11,000	-12873
▁13.000	-12874
▁19,000	-12875
▁32,000	-12876
▁36,000	-12877
▁400000	-12878
▁45,000	-12879
▁60.000	-12880
▁66.000	-12881
▁75,000	-12882
▁agusta	-12883
▁airpix	-12884
▁alisch	-12885
▁andres	-12886
▁angelo	-12887
▁arctic	-12888
▁arusha	-12889
▁arvind	-12890
▁athens	-12891
▁auenbr	-12892
▁babush	-12893
▁bailey	-12894
▁barcia	-12895
▁barrow	-12896
▁beaver	-12897
▁beloit	-12898
▁bengal	-12899
▁bernie	-12900
▁besser	-12901
▁bharti	-12902
▁biggie	-12903
▁bloggs	-12904
▁boothe	-12905
▁botero	-12906
▁bowden	-12907
▁bowery	-12908
▁buddha	-12909
▁buffet	-12910
▁bukavu	-12911
▁calvin	-12912
▁camfed	-12913
▁caribê	-12914
▁carlos	-12915
▁carole	-12916
▁carrel	-12917
▁cayman	-12918
▁challe	-12919
▁change	-12920
▁chinoy	-12921
▁choạng	-12922
▁clonie	-12923
▁cobalt	-12924
▁conrad	-12925
▁crunch	-12926
▁cukier	-12927
▁curios	-12928
▁custer	-12929
▁damien	-12930
▁dassen	-12931
▁dayton	-12932
▁declan	-12933
▁diffee	-12934
▁diybio	-12935
▁dodson	-12936
▁domain	-12937
▁doodle	-12938
▁dorset	-12939
▁dunham	-12940
▁dutton	-12941
▁eagles	-12942
▁editor	-12943
▁edmund	-12944
▁eggers	-12945
▁eileen	-12946
▁eisner	-12947
▁emails	-12948
▁emmart	-12949
▁fedeli	-12950
▁finkle	-12951
▁flupsy	-12952
▁format	-12953
▁friend	-12954
▁garten	-12955
▁gibbon	-12956
▁ginger	-12957
▁gneezy	-12958
▁gopnik	-12959
▁grammy	-12960
▁habibi	-12961
▁harbor	-12962
▁harlan	-12963
▁hawkes	-12964
▁hebron	-12965
▁herman	-12966
▁hetain	-12967
▁hillel	-12968
▁hillis	-12969
▁hippie	-12970
▁hobbes	-12971
▁hockey	-12972
▁hoover	-12973
▁horner	-12974
▁hughes	-12975
▁indian	-12976
▁ingrid	-12977
▁inside	-12978
▁jacobs	-12979
▁jagger	-12980
▁jaipur	-12981
▁jayant	-12982
▁julius	-12983
▁julián	-12984
▁kalash	-12985
▁kenyon	-12986
▁khiễng	-12987
▁khuông	-12988
▁kibaki	-12989
▁kinect	-12990
▁koblin	-12991
▁kruger	-12992
▁kuiper	-12993
▁kỏoảng	-12994
▁lauder	-12995
▁lawler	-12996
▁lepage	-12997
▁limbic	-12998
▁lolita	-12999
▁louvre	-13000
▁loyola	-13001
▁madhav	-13002
▁madoff	-13003
▁maersk	-13004
▁maezza	-13005
▁mahler	-13006
▁maison	-13007
▁malone	-13008
▁manila	-13009
▁manuel	-13010
▁marley	-13011
▁mather	-13012
▁matter	-13013
▁mechai	-13014
▁mehico	-13015
▁mental	-13016
▁methyl	-13017
▁michal	-13018
▁micron	-13019
▁miriam	-13020
▁mirren	-13021
▁mister	-13022
▁mugabe	-13023
▁mulgan	-13024
▁mullis	-13025
▁mwenda	-13026
▁mysore	-13027
▁nalini	-13028
▁nanoty	-13029
▁neshat	-13030
▁newark	-13031
▁nghiêp	-13032
▁nickel	-13033
▁ntaiya	-13034
▁nuland	-13035
▁obiang	-13036
▁office	-13037
▁orange	-13038
▁oxalat	-13039
▁pajama	-13040
▁paldin	-13041
▁pangea	-13042
▁perasa	-13043
▁peruse	-13044
▁petrus	-13045
▁phelps	-13046
▁plains	-13047
▁plasma	-13048
▁police	-13049
▁pollan	-13050
▁polyme	-13051
▁portal	-13052
▁powell	-13053
▁praagh	-13054
▁proust	-13055
▁ramsey	-13056
▁random	-13057
▁review	-13058
▁ricard	-13059
▁risper	-13060
▁rodney	-13061
▁rogers	-13062
▁romela	-13063
▁rospil	-13064
▁safdie	-13065
▁schrod	-13066
▁scotch	-13067
▁senior	-13068
▁sergio	-13069
▁sharon	-13070
▁sheikh	-13071
▁shekel	-13072
▁shimon	-13073
▁shukla	-13074
▁siegel	-13075
▁sietas	-13076
▁simone	-13077
▁skylar	-13078
▁slides	-13079
▁smolin	-13080
▁snoopy	-13081
▁sokoto	-13082
▁soleil	-13083
▁solove	-13084
▁sophal	-13085
▁stereo	-13086
▁stones	-13087
▁sunfua	-13088
▁svante	-13089
▁system	-13090
▁tahiti	-13091
▁talmud	-13092
▁talwar	-13093
▁tammet	-13094
▁tandon	-13095
▁target	-13096
▁terkel	-13097
▁things	-13098
▁ticket	-13099
▁tirana	-13100
▁torres	-13101
▁tracey	-13102
▁tumblr	-13103
▁tupper	-13104
▁turner	-13105
▁update	-13106
▁vascon	-13107
▁vector	-13108
▁vibrio	-13109
▁vienna	-13110
▁viewer	-13111
▁viktor	-13112
▁vishnu	-13113
▁volksw	-13114
▁warhol	-13115
▁wehrli	-13116
▁whisky	-13117
▁willis	-13118
▁woznia	-13119
▁yaourt	-13120
▁zeisel	-13121
▁zodiac	-13122
baptiste	-13123
eronymus	-13124
imanjaro	-13125
jolfsson	-13126
likuppam	-13127
otaxites	-13128
▁155.000	-13129
▁160.000	-13130
▁450.000	-13131
▁500.000	-13132
▁600.000	-13133
▁adinkra	-13134
▁alaikum	-13135
▁amnesty	-13136
▁aptamer	-13137
▁arduino	-13138
▁arianna	-13139
▁ashanti	-13140
▁ashburn	-13141
▁aurasma	-13142
▁baldwin	-13143
▁bamiyan	-13144
▁barnaby	-13145
▁battery	-13146
▁bigelow	-13147
▁biology	-13148
▁bismark	-13149
▁boswana	-13150
▁brahimi	-13151
▁brigade	-13152
▁bristol	-13153
▁britney	-13154
▁cacilda	-13155
▁caliban	-13156
▁camilla	-13157
▁capgras	-13158
▁carlton	-13159
▁carroll	-13160
▁catalog	-13161
▁charley	-13162
▁chicken	-13163
▁chladni	-13164
▁citizen	-13165
▁clayton	-13166
▁climber	-13167
▁colbert	-13168
▁coleman	-13169
▁collier	-13170
▁deavere	-13171
▁deborah	-13172
▁dennett	-13173
▁deskbar	-13174
▁develop	-13175
▁dickens	-13176
▁ecorock	-13177
▁ecuador	-13178
▁eduardo	-13179
▁english	-13180
▁epsilon	-13181
▁erectus	-13182
▁estelle	-13183
▁express	-13184
▁favelas	-13185
▁fernand	-13186
▁fission	-13187
▁fleming	-13188
▁forever	-13189
▁fractal	-13190
▁gallery	-13191
▁ganesha	-13192
▁garrett	-13193
▁gelatin	-13194
▁gillian	-13195
▁giudice	-13196
▁grandin	-13197
▁hadrian	-13198
▁hanczyc	-13199
▁hartman	-13200
▁heerden	-13201
▁hercles	-13202
▁hiroshi	-13203
▁hobsbaw	-13204
▁hodgman	-13205
▁hogwart	-13206
▁ibrahim	-13207
▁iphones	-13208
▁jakarta	-13209
▁jeffrey	-13210
▁joaquin	-13211
▁juliana	-13212
▁jumping	-13213
▁khanfar	-13214
▁kipling	-13215
▁kirsten	-13216
▁larsson	-13217
▁lascaux	-13218
▁letters	-13219
▁maasais	-13220
▁madonna	-13221
▁mallory	-13222
▁managua	-13223
▁mariner	-13224
▁markham	-13225
▁marmite	-13226
▁maureen	-13227
▁maxwell	-13228
▁melcher	-13229
▁methane	-13230
▁micheal	-13231
▁morieux	-13232
▁mouflon	-13233
▁moussao	-13234
▁murdoch	-13235
▁murugan	-13236
▁márquez	-13237
▁newyork	-13238
▁niagara	-13239
▁nielsen	-13240
▁oedipus	-13241
▁okolloh	-13242
▁olympus	-13243
▁ontario	-13244
▁oppenhe	-13245
▁othello	-13246
▁outlook	-13247
▁parikma	-13248
▁penzias	-13249
▁pharaoh	-13250
▁pickles	-13251
▁pompeii	-13252
▁pratham	-13253
▁proctor	-13254
▁profile	-13255
▁pythago	-13256
▁railway	-13257
▁ramadan	-13258
▁ramirez	-13259
▁raphael	-13260
▁reading	-13261
▁ricardo	-13262
▁ritchie	-13263
▁rodrigo	-13264
▁rolling	-13265
▁rushing	-13266
▁saatchi	-13267
▁sanford	-13268
▁sapling	-13269
▁sarawak	-13270
▁sashimi	-13271
▁scandal	-13272
▁sebasti	-13273
▁sevitha	-13274
▁shannon	-13275
▁sheikha	-13276
▁sherwin	-13277
▁shinola	-13278
▁shriram	-13279
▁sinaloa	-13280
▁southam	-13281
▁species	-13282
▁spitzer	-13283
▁stamets	-13284
▁steffen	-13285
▁steindl	-13286
▁steiner	-13287
▁stevens	-13288
▁stuxnet	-13289
▁sulfate	-13290
▁sussman	-13291
▁templar	-13292
▁thandie	-13293
▁theodor	-13294
▁todorov	-13295
▁tribeca	-13296
▁turbine	-13297
▁udaipur	-13298
▁valenti	-13299
▁vanilla	-13300
▁ventura	-13301
▁vietnam	-13302
▁virgina	-13303
▁volkman	-13304
▁walkman	-13305
▁wasichu	-13306
▁wernick	-13307
▁wolpert	-13308
▁yitzhak	-13309
▁yucatan	-13310
graphical	-13311
ingsworth	-13312
tocotylus	-13313
▁10,20,30	-13314
▁adriatic	-13315
▁albright	-13316
▁amstrong	-13317
▁banderas	-13318
▁bangoora	-13319
▁barbecue	-13320
▁barclays	-13321
▁bavelier	-13322
▁beaufort	-13323
▁beauvoir	-13324
▁benjamín	-13325
▁bitcoins	-13326
▁bolinsky	-13327
▁breazeal	-13328
▁buchanan	-13329
▁buechley	-13330
▁burstein	-13331
▁campaign	-13332
▁carnival	-13333
▁chinanet	-13334
▁citywalk	-13335
▁columbus	-13336
▁cristine	-13337
▁damascus	-13338
▁danielle	-13339
▁dionysus	-13340
▁district	-13341
▁electric	-13342
▁famillia	-13343
▁faulkner	-13344
▁filmclub	-13345
▁frederic	-13346
▁fusiform	-13347
▁genspace	-13348
▁guinness	-13349
▁heathrow	-13350
▁heritage	-13351
▁highline	-13352
▁holladay	-13353
▁honduras	-13354
▁humboldt	-13355
▁hypponen	-13356
▁kadinsky	-13357
▁kaminsky	-13358
▁khatanga	-13359
▁kilogram	-13360
▁krishnan	-13361
▁laetitia	-13362
▁laughing	-13363
▁laurence	-13364
▁magritte	-13365
▁mahattan	-13366
▁mapquest	-13367
▁mcfadden	-13368
▁mckinsey	-13369
▁megaffic	-13370
▁melville	-13371
▁metcalfe	-13372
▁metropol	-13373
▁michelle	-13374
▁micromet	-13375
▁missmahl	-13376
▁monrovia	-13377
▁motorola	-13378
▁musallam	-13379
▁mycelium	-13380
▁nachtwey	-13381
▁napoleon	-13382
▁neoprene	-13383
▁netscape	-13384
▁neutrino	-13385
▁nicolaus	-13386
▁partners	-13387
▁phillipp	-13388
▁polaroid	-13389
▁pompidou	-13390
▁projects	-13391
▁protocol	-13392
▁rasselas	-13393
▁remotion	-13394
▁robotics	-13395
▁rosalind	-13396
▁saturday	-13397
▁schaefer	-13398
▁scottish	-13399
▁selinger	-13400
▁shepherd	-13401
▁spelling	-13402
▁superior	-13403
▁superman	-13404
▁takaungu	-13405
▁talithia	-13406
▁tantalum	-13407
▁tapscott	-13408
▁tedindia	-13409
▁thompson	-13410
▁thwaites	-13411
▁titanium	-13412
▁tunguska	-13413
▁twilight	-13414
▁tyrannos	-13415
▁valencia	-13416
▁vladimir	-13417
▁warfarin	-13418
▁washburn	-13419
▁wolfgang	-13420
▁wuhahaha	-13421
hemoglobin	-13422
▁alaveteli	-13423
▁androsten	-13424
▁astroturf	-13425
▁atlassian	-13426
▁beckstrom	-13427
▁benefield	-13428
▁bethlehem	-13429
▁bollywood	-13430
▁budweiser	-13431
▁caledonia	-13432
▁canaletto	-13433
▁cavendish	-13434
▁cervantes	-13435
▁chlamydia	-13436
▁chorusing	-13437
▁christien	-13438
▁christine	-13439
▁christoph	-13440
▁corbusier	-13441
▁cranbrook	-13442
▁diamandis	-13443
▁doolittle	-13444
▁dougherty	-13445
▁electrons	-13446
▁farmville	-13447
▁firestein	-13448
▁friedrich	-13449
▁geraldine	-13450
▁gibraltar	-13451
▁greenspan	-13452
▁guacamole	-13453
▁harbisson	-13454
▁hazlewood	-13455
▁inception	-13456
▁insideout	-13457
▁interaxon	-13458
▁juilliard	-13459
▁kanwisher	-13460
▁kartikeya	-13461
▁kymaerica	-13462
▁lafayette	-13463
▁libeskind	-13464
▁limburger	-13465
▁lithuania	-13466
▁livermore	-13467
▁mackinnon	-13468
▁mallifert	-13469
▁mcdougall	-13470
▁moneyball	-13471
▁mountains	-13472
▁narcissus	-13473
▁nicolelis	-13474
▁nietzsche	-13475
▁ockelford	-13476
▁photocopy	-13477
▁piroxicam	-13478
▁resources	-13479
▁rewilding	-13480
▁rodriguez	-13481
▁schindler	-13482
▁skydiving	-13483
▁smartbird	-13484
▁spielberg	-13485
▁starshade	-13486
▁steinberg	-13487
▁tedxparis	-13488
▁telecomix	-13489
▁tinkering	-13490
▁velázquez	-13491
▁vitruvian	-13492
▁washinton	-13493
▁watergate	-13494
▁zacharias	-13495
uchadnezzar	-13496
▁adventists	-13497
▁alessandro	-13498
▁alexandria	-13499
▁anatotitan	-13500
▁balasubram	-13501
▁cloudburst	-13502
▁copacabana	-13503
▁denisovans	-13504
▁federation	-13505
▁flintstone	-13506
▁freeflying	-13507
▁fullbright	-13508
▁genitalium	-13509
▁gooseberry	-13510
▁greenpeace	-13511
▁heisenberg	-13512
▁hieronymus	-13513
▁huffington	-13514
▁jacqueline	-13515
▁karolinska	-13516
▁kryptonite	-13517
▁michoacana	-13518
▁millennium	-13519
▁montessori	-13520
▁paravicini	-13521
▁prednisone	-13522
▁prometheus	-13523
▁reichental	-13524
▁retrovirus	-13525
▁rustichini	-13526
▁silhouette	-13527
▁streetview	-13528
▁tedxsydney	-13529
▁terminator	-13530
▁tupperware	-13531
▁uzbekistan	-13532
▁waterhouse	-13533
▁whitesides	-13534
▁williamson	-13535
▁ahmadinejad	-13536
▁auenbrugger	-13537
▁burntisland	-13538
▁gegenschatz	-13539
▁hydrocacbon	-13540
▁hydrocarbon	-13541
▁kallikuppam	-13542
▁kickstarter	-13543
▁kilimanjaro	-13544
▁mahabharata	-13545
▁paragliding	-13546
▁paralympics	-13547
▁pleistocene	-13548
▁productions	-13549
▁providencia	-13550
▁risperidone	-13551
▁schrodinger	-13552
▁tedxhouston	-13553
▁vasconcelos	-13554
▁wonderbread	-13555
▁architecture	-13556
▁brynjolfsson	-13557
▁carbohydrate	-13558
▁christchurch	-13559
▁constitución	-13560
▁formaldehyde	-13561
▁hectocotylus	-13562
▁michelangelo	-13563
▁nanotyrannus	-13564
▁peterborough	-13565
▁prototaxites	-13566
▁schwarzchild	-13567
▁soloveitchik	-13568
▁ticketmaster	-13569
▁transformers	-13570
▁turkmenistan	-13571
▁williamsburg	-13572
▁killingsworth	-13573
▁muruganantham	-13574
▁nebuchadnezzar	-13575
▁balasubramaniam	-13576
▁lexicographical	-13577
.4	-13578
02	-13579
16	-13580
18	-13581
26	-13582
39	-13583
48	-13584
52	-13585
57	-13586
62	-13587
70	-13588
84	-13589
bà	-13590
cơ	-13591
cỡ	-13592
fy	-13593
fê	-13594
kn	-13595
lb	-13596
lv	-13597
lé	-13598
mê	-13599
07	-13600
19	-13601
cả	-13602
gp	-13603
há	-13604
mĩ	-13605
nc	-13606
nj	-13607
nu	-13608
qi	-13609
sd	-13610
sf	-13611
tb	-13612
uo	-13613
ye	-13614
yi	-13615
zl	-13616
zu	-13617
àm	-13618
ço	-13619
ík	-13620
øl	-13621
ăc	-13622
đê	-13623
ưc	-13624
ưã	-13625
ầt	-13626
ởm	-13627
ựt	-13628
▁`	-13629
▁ù	-13630
▁̀	-13631
▁่	-13632
▁ỡ	-13633
▁ỷ	-13634
▁	-13635
,17	-13636
,18	-13637
,19	-13638
-83	-13639
.12	-13640
00-	-13641
456	-13642
8,7	-13643
999	-13644
abo	-13645
alm	-13646
amy	-13647
anb	-13648
anz	-13649
ask	-13650
auf	-13651
aum	-13652
bap	-13653
bat	-13654
boy	-13655
chk	-13656
chq	-13657
chr	-13658
chw	-13659
ctv	-13660
cảm	-13661
dak	-13662
dro	-13663
dân	-13664
ede	-13665
eer	-13666
emo	-13667
emö	-13668
eno	-13669
eon	-13670
eou	-13671
erf	-13672
erg	-13673
erh	-13674
fan	-13675
fat	-13676
fit	-13677
fić	-13678
fre	-13679
gaa	-13680
gal	-13681
gei	-13682
geo	-13683
gha	-13684
gie	-13685
giả	-13686
giờ	-13687
hae	-13688
hoe	-13689
hui	-13690
hun	-13691
hái	-13692
hợp	-13693
iao	-13694
iat	-13695
iec	-13696
ilo	-13697
ioz	-13698
iwe	-13699
esi	-13700
fal	-13701
fos	-13702
gle	-13703
icz	-13704
jar	-13705
jec	-13706
jet	-13707
kim	-13708
kro	-13709
lom	-13710
lus	-13711
lên	-13712
lại	-13713
lấy	-13714
lợi	-13715
mut	-13716
mát	-13717
mặt	-13718
mức	-13719
nay	-13720
nel	-13721
ngo	-13722
nho	-13723
nor	-13724
nus	-13725
nếu	-13726
oia	-13727
okg	-13728
olm	-13729
oly	-13730
omb	-13731
omi	-13732
orr	-13733
oso	-13734
otn	-13735
owe	-13736
phy	-13737
pác	-13738
rae	-13739
rag	-13740
rav	-13741
roc	-13742
rot	-13743
sau	-13744
smo	-13745
sum	-13746
tam	-13747
thử	-13748
tit	-13749
ttl	-13750
ttp	-13751
tuy	-13752
tân	-13753
udi	-13754
una	-13755
unn	-13756
uto	-13757
uts	-13758
uve	-13759
uyu	-13760
vez	-13761
ván	-13762
với	-13763
wak	-13764
wig	-13765
xen	-13766
xeo	-13767
xit	-13768
xám	-13769
ych	-13770
yes	-13771
zer	-13772
zol	-13773
øre	-13774
úât	-13775
đại	-13776
đến	-13777
đối	-13778
ớng	-13779
▁06	-13780
▁08	-13781
▁3-	-13782
▁bn	-13783
▁bv	-13784
▁bả	-13785
▁ck	-13786
▁câ	-13787
▁cã	-13788
▁cầ	-13789
▁cữ	-13790
▁dn	-13791
▁dw	-13792
▁dô	-13793
▁dọ	-13794
▁dồ	-13795
▁dộ	-13796
▁dợ	-13797
▁fc	-13798
▁fê	-13799
edo	-13800
etw	-13801
ety	-13802
iba	-13803
nat	-13804
xet	-13805
xít	-13806
ôma	-13807
▁aj	-13808
▁gm	-13809
▁gp	-13810
▁gá	-13811
▁gâ	-13812
▁gê	-13813
▁gọ	-13814
▁gổ	-13815
▁hí	-13816
▁hý	-13817
▁iw	-13818
▁jd	-13819
▁jp	-13820
▁jw	-13821
▁kk	-13822
▁kp	-13823
▁kà	-13824
▁lc	-13825
▁lù	-13826
▁lỳ	-13827
▁lỹ	-13828
▁mv	-13829
▁mö	-13830
▁mỵ	-13831
▁mỷ	-13832
▁nị	-13833
▁oc	-13834
▁oẹ	-13835
▁pg	-13836
▁rĩ	-13837
▁rạ	-13838
▁rờ	-13839
▁rủ	-13840
▁sd	-13841
▁sq	-13842
▁sv	-13843
▁sí	-13844
▁tj	-13845
▁tl	-13846
▁tp	-13847
▁tt	-13848
▁tấ	-13849
▁tỳ	-13850
▁vẫ	-13851
▁vậ	-13852
▁vỉ	-13853
▁ws	-13854
▁xừ	-13855
▁xữ	-13856
▁yê	-13857
▁zh	-13858
▁àh	-13859
▁âý	-13860
▁ói	-13861
▁đò	-13862
▁đù	-13863
▁ắn	-13864
▁ếu	-13865
▁ỉn	-13866
,230	-13867
,849	-13868
,931	-13869
.125	-13870
5049	-13871
abin	-13872
adde	-13873
ages	-13874
ahab	-13875
ahar	-13876
aikh	-13877
alam	-13878
algo	-13879
ally	-13880
alom	-13881
amia	-13882
ance	-13883
ania	-13884
ante	-13885
antu	-13886
apes	-13887
ares	-13888
aria	-13889
arms	-13890
arog	-13891
asey	-13892
aten	-13893
atia	-13894
auer	-13895
aurs	-13896
aves	-13897
awar	-13898
awro	-13899
aps	-13900
cle	-13901
eye	-13902
jax	-13903
trở	-13904
uds	-13905
▁if	-13906
▁iy	-13907
▁oẻ	-13908
alil	-13909
amas	-13910
andr	-13911
arle	-13912
ayer	-13913
bake	-13914
bein	-13915
bent	-13916
bery	-13917
bhan	-13918
cade	-13919
caly	-13920
chet	-13921
chuy	-13922
chằm	-13923
chết	-13924
crat	-13925
cuso	-13926
công	-13927
căng	-13928
dine	-13929
dnar	-13930
dong	-13931
dorp	-13932
eads	-13933
eati	-13934
eban	-13935
ebec	-13936
ebot	-13937
edes	-13938
eeea	-13939
elia	-13940
emin	-13941
ench	-13942
ency	-13943
enem	-13944
ener	-13945
enet	-13946
enth	-13947
eral	-13948
eram	-13949
erio	-13950
eros	-13951
esab	-13952
esch	-13953
esin	-13954
etch	-13955
ethe	-13956
etra	-13957
eyes	-13958
fana	-13959
flow	-13960
foot	-13961
gest	-13962
heir	-13963
hood	-13964
houd	-13965
houk	-13966
hwed	-13967
hàng	-13968
ibin	-13969
icur	-13970
iday	-13971
iero	-13972
iles	-13973
ilin	-13974
illy	-13975
imos	-13976
inau	-13977
inho	-13978
inos	-13979
ipar	-13980
ipur	-13981
iraq	-13982
isen	-13983
ists	-13984
itas	-13985
iter	-13986
itis	-13987
itte	-13988
ivio	-13989
iệnh	-13990
jali	-13991
jave	-13992
jens	-13993
kami	-13994
karz	-13995
khay	-13996
khắc	-13997
kian	-13998
kinh	-13999
.--	-14000
aca	-14001
aco	-14002
ebb	-14003
gad	-14004
geb	-14005
ido	-14006
igg	-14007
mac	-14008
ouw	-14009
,100	-14010
4583	-14011
acas	-14012
adas	-14013
atts	-14014
auge	-14015
dano	-14016
exia	-14017
gian	-14018
idic	-14019
imid	-14020
ivik	-14021
just	-14022
lano	-14023
lich	-14024
lick	-14025
litt	-14026
luse	-14027
mian	-14028
niez	-14029
nion	-14030
olla	-14031
ombo	-14032
onda	-14033
onto	-14034
opic	-14035
opot	-14036
orts	-14037
oshi	-14038
oter	-14039
othi	-14040
ouni	-14041
oxet	-14042
pash	-14043
pass	-14044
path	-14045
pery	-14046
pfar	-14047
phin	-14048
phop	-14049
phải	-14050
pian	-14051
ping	-14052
pool	-14053
raen	-14054
rain	-14055
ramm	-14056
rand	-14057
reat	-14058
repo	-14059
riba	-14060
rier	-14061
rill	-14062
rine	-14063
rley	-14064
sava	-14065
seas	-14066
seum	-14067
skin	-14068
sons	-14069
stin	-14070
tene	-14071
teri	-14072
tern	-14073
tham	-14074
thần	-14075
tron	-14076
tter	-14077
têin	-14078
uber	-14079
uera	-14080
umin	-14081
unge	-14082
unky	-14083
urai	-14084
urem	-14085
urst	-14086
vajo	-14087
vall	-14088
varo	-14089
vern	-14090
việc	-14091
weck	-14092
wesi	-14093
woma	-14094
ylic	-14095
ysia	-14096
zent	-14097
zuka	-14098
éter	-14099
ahr	-14100
hah	-14101
ioc	-14102
liv	-14103
lou	-14104
mom	-14105
sur	-14106
▁ốn	-14107
,041	-14108
acom	-14109
ahen	-14110
auri	-14111
bria	-14112
dard	-14113
eggy	-14114
feld	-14115
igon	-14116
oley	-14117
omét	-14118
phur	-14119
phạt	-14120
pine	-14121
thai	-14122
thra	-14123
tius	-14124
urra	-14125
xton	-14126
điêu	-14127
đúng	-14128
đồng	-14129
đừng	-14130
▁0.0	-14131
▁113	-14132
▁114	-14133
▁115	-14134
▁124	-14135
▁128	-14136
▁146	-14137
▁171	-14138
▁2,6	-14139
▁2.9	-14140
▁24-	-14141
▁311	-14142
▁325	-14143
▁4,1	-14144
▁410	-14145
▁470	-14146
▁498	-14147
▁50-	-14148
▁533	-14149
▁540	-14150
▁6,4	-14151
▁6.7	-14152
▁7.9	-14153
▁720	-14154
▁722	-14155
▁987	-14156
▁aak	-14157
▁aal	-14158
▁abe	-14159
▁aeg	-14160
▁aer	-14161
▁ain	-14162
▁als	-14163
▁alu	-14164
▁alô	-14165
▁amr	-14166
▁apl	-14167
▁att	-14168
▁auv	-14169
▁aww	-14170
▁bes	-14171
▁bib	-14172
▁bic	-14173
▁bid	-14174
▁bim	-14175
▁bio	-14176
▁báy	-14177
▁bìu	-14178
▁bòn	-14179
▁băm	-14180
▁bải	-14181
▁bẽo	-14182
▁bệt	-14183
▁bổi	-14184
▁chò	-14185
▁chư	-14186
▁chạ	-14187
▁chẻ	-14188
▁chề	-14189
▁chể	-14190
▁cic	-14191
▁cob	-14192
▁coo	-14193
▁cso	-14194
▁cóp	-14195
▁cùi	-14196
▁cạp	-14197
▁cựa	-14198
▁dac	-14199
agi	-14200
aku	-14201
but	-14202
exu	-14203
nut	-14204
pie	-14205
utz	-14206
acag	-14207
agag	-14208
aked	-14209
aken	-14210
aoke	-14211
care	-14212
ehab	-14213
enbo	-14214
evan	-14215
eves	-14216
girl	-14217
haly	-14218
lach	-14219
ocup	-14220
rawa	-14221
rman	-14222
tman	-14223
zman	-14224
▁254	-14225
▁737	-14226
▁amd	-14227
▁bry	-14228
▁dat	-14229
▁def	-14230
▁deo	-14231
▁dil	-14232
▁dip	-14233
▁dix	-14234
▁doa	-14235
▁doc	-14236
▁dos	-14237
▁dud	-14238
▁dăm	-14239
▁dạc	-14240
▁dấm	-14241
▁dấp	-14242
▁eco	-14243
▁emm	-14244
▁ett	-14245
▁fao	-14246
▁fay	-14247
▁fit	-14248
▁fot	-14249
▁gad	-14250
▁gin	-14251
▁giã	-14252
▁grừ	-14253
▁gug	-14254
▁gum	-14255
▁gáp	-14256
▁gém	-14257
▁gải	-14258
▁gảy	-14259
▁gẫn	-14260
▁gắp	-14261
▁gộc	-14262
▁gữa	-14263
▁hau	-14264
▁hes	-14265
▁hij	-14266
▁hil	-14267
▁hog	-14268
▁hub	-14269
▁hyp	-14270
▁hêt	-14271
▁hạm	-14272
▁hẵn	-14273
▁hữa	-14274
▁hực	-14275
▁iim	-14276
▁jae	-14277
▁jah	-14278
▁jao	-14279
▁jew	-14280
▁jok	-14281
▁joy	-14282
▁kav	-14283
▁khè	-14284
▁khò	-14285
▁khỏ	-14286
▁kol	-14287
▁kom	-14288
▁kon	-14289
▁kop	-14290
▁kyr	-14291
▁kếp	-14292
▁kềm	-14293
▁lal	-14294
▁lap	-14295
▁lid	-14296
▁lis	-14297
▁liv	-14298
▁lor	-14299
haz	-14300
ify	-14301
ipe	-14302
uum	-14303
côzơ	-14304
dick	-14305
egan	-14306
egel	-14307
fone	-14308
hazy	-14309
inov	-14310
ipes	-14311
jack	-14312
nhyd	-14313
olum	-14314
shop	-14315
tioz	-14316
ulla	-14317
ulos	-14318
▁730	-14319
▁bec	-14320
▁brt	-14321
▁càc	-14322
▁loá	-14323
▁lul	-14324
▁lyd	-14325
▁lào	-14326
▁láo	-14327
▁láy	-14328
▁lôn	-14329
▁lăp	-14330
▁lạn	-14331
▁lảo	-14332
▁lẩu	-14333
▁lẩy	-14334
▁lệu	-14335
▁lịm	-14336
▁lọn	-14337
▁lốt	-14338
▁lợp	-14339
▁lức	-14340
▁maa	-14341
▁mee	-14342
▁mex	-14343
▁mhz	-14344
▁miy	-14345
▁mok	-14346
▁mèm	-14347
▁mít	-14348
▁mơn	-14349
▁mần	-14350
▁mận	-14351
▁mồn	-14352
▁nag	-14353
▁nau	-14354
▁naw	-14355
▁naỳ	-14356
▁ngĩ	-14357
▁nhg	-14358
▁nhú	-14359
▁nhứ	-14360
▁noí	-14361
▁nsf	-14362
▁num	-14363
▁nuy	-14364
▁nẩy	-14365
▁nết	-14366
▁nột	-14367
▁oef	-14368
▁olm	-14369
▁owl	-14370
▁oán	-14371
▁oăm	-14372
▁oải	-14373
▁pay	-14374
▁pec	-14375
▁pis	-14376
▁psh	-14377
▁qat	-14378
▁què	-14379
▁quỉ	-14380
▁rag	-14381
▁ras	-14382
▁rat	-14383
▁raở	-14384
▁rex	-14385
▁rko	-14386
▁rue	-14387
▁róc	-14388
▁rúc	-14389
▁rảo	-14390
▁rặt	-14391
▁rếu	-14392
▁rền	-14393
▁rỏi	-14394
▁rởm	-14395
▁rợp	-14396
▁saw	-14397
▁sec	-14398
▁sho	-14399
dok	-14400
eez	-14401
obe	-14402
xco	-14403
aitz	-14404
arts	-14405
azar	-14406
bisa	-14407
cart	-14408
doku	-14409
dsor	-14410
erge	-14411
ffin	-14412
ifax	-14413
jima	-14414
lomo	-14415
olke	-14416
uệch	-14417
▁137	-14418
▁221	-14419
▁850	-14420
▁ela	-14421
▁elk	-14422
▁hèm	-14423
▁ntn	-14424
▁rug	-14425
▁sic	-14426
▁six	-14427
▁ske	-14428
▁sla	-14429
▁sop	-14430
▁sor	-14431
▁sow	-14432
▁spa	-14433
▁srd	-14434
▁sta	-14435
▁sub	-14436
▁suw	-14437
▁sùi	-14438
▁súa	-14439
▁sưc	-14440
▁sạp	-14441
▁sẩn	-14442
▁sụa	-14443
▁sựu	-14444
▁tas	-14445
▁tax	-14446
▁taz	-14447
▁tec	-14448
▁thè	-14449
▁thồ	-14450
▁tnc	-14451
▁toq	-14452
▁tot	-14453
▁toé	-14454
▁trg	-14455
▁trô	-14456
▁trũ	-14457
▁trố	-14458
▁trồ	-14459
▁tse	-14460
▁ttn	-14461
▁tép	-14462
▁tóp	-14463
▁tấc	-14464
▁tậm	-14465
▁tếp	-14466
▁tỏi	-14467
▁tốp	-14468
▁tửu	-14469
▁uni	-14470
▁unt	-14471
▁ury	-14472
▁veb	-14473
▁vet	-14474
▁vig	-14475
▁viz	-14476
▁việ	-14477
▁voà	-14478
▁vta	-14479
▁vàt	-14480
▁véc	-14481
▁vía	-14482
▁vấy	-14483
▁vẻn	-14484
▁weg	-14485
▁wig	-14486
▁wud	-14487
▁xil	-14488
▁xvi	-14489
▁xép	-14490
▁xúi	-14491
▁xúm	-14492
▁yad	-14493
▁yan	-14494
▁yud	-14495
▁yut	-14496
▁zak	-14497
▁zed	-14498
▁zim	-14499
ppp	-14500
pps	-14501
uda	-14502
▁ợt	-14503
ails	-14504
aryl	-14505
athw	-14506
away	-14507
iere	-14508
logy	-14509
shaw	-14510
vara	-14511
▁179	-14512
▁430	-14513
▁cỏn	-14514
▁edo	-14515
▁epp	-14516
▁hớp	-14517
▁moh	-14518
▁paw	-14519
▁spe	-14520
▁uce	-14521
▁zom	-14522
▁zôn	-14523
▁óng	-14524
▁đoá	-14525
▁đoạ	-14526
▁đày	-14527
▁đơi	-14528
▁đẩu	-14529
▁đểm	-14530
▁đễn	-14531
▁đủi	-14532
▁ạch	-14533
▁ịch	-14534
▁ộng	-14535
-800-	-14536
7,000	-14537
abien	-14538
acker	-14539
ademy	-14540
adian	-14541
agina	-14542
alisa	-14543
allah	-14544
allum	-14545
anamo	-14546
andex	-14547
andon	-14548
anger	-14549
ankar	-14550
aprio	-14551
apton	-14552
aravi	-14553
arine	-14554
asach	-14555
attie	-14556
aulle	-14557
ausen	-14558
auser	-14559
bbutz	-14560
berly	-14561
board	-14562
borni	-14563
bucha	-14564
bundi	-14565
ccino	-14566
certo	-14567
chand	-14568
chell	-14569
chera	-14570
chman	-14571
chong	-14572
chter	-14573
chống	-14574
ciety	-14575
codin	-14576
diale	-14577
donil	-14578
dương	-14579
edust	-14580
egger	-14581
emach	-14582
emore	-14583
emund	-14584
encer	-14585
endez	-14586
ensen	-14587
erama	-14588
ernac	-14589
ernan	-14590
esian	-14591
esler	-14592
essen	-14593
estar	-14594
etate	-14595
etton	-14596
evsky	-14597
ffein	-14598
firio	-14599
dyk	-14600
mbi	-14601
nef	-14602
oux	-14603
ove	-14604
psu	-14605
psy	-14606
ubh	-14607
alek	-14608
dfas	-14609
drix	-14610
eith	-14611
ioca	-14612
kley	-14613
lind	-14614
nasa	-14615
▁1.0	-14616
▁244	-14617
▁bez	-14618
▁hưũ	-14619
▁ips	-14620
▁nểu	-14621
▁plc	-14622
▁riz	-14623
artzi	-14624
ccles	-14625
flyer	-14626
force	-14627
genhe	-14628
ghter	-14629
giông	-14630
golia	-14631
icity	-14632
idari	-14633
idine	-14634
idjan	-14635
ienne	-14636
igail	-14637
igeru	-14638
ikine	-14639
ilale	-14640
iliad	-14641
ilisi	-14642
illac	-14643
ilver	-14644
incon	-14645
ineph	-14646
inker	-14647
ipcar	-14648
ipede	-14649
iston	-14650
itius	-14651
itrea	-14652
itron	-14653
itsyn	-14654
jacic	-14655
jayne	-14656
jones	-14657
lando	-14658
lands	-14659
lboro	-14660
leith	-14661
lexig	-14662
lines	-14663
maker	-14664
marin	-14665
morin	-14666
nelly	-14667
ngato	-14668
ngoại	-14669
nhall	-14670
ocent	-14671
oleum	-14672
omics	-14673
onnes	-14674
ophon	-14675
opsia	-14676
orter	-14677
ovych	-14678
owsky	-14679
padoc	-14680
patte	-14681
peach	-14682
phine	-14683
phins	-14684
phony	-14685
phích	-14686
ppets	-14687
ppler	-14688
radle	-14689
rance	-14690
reira	-14691
relin	-14692
renhe	-14693
reyek	-14694
richa	-14695
rient	-14696
salon	-14697
sburg	-14698
shine	-14699
pez	-14700
aven	-14701
dees	-14702
elov	-14703
kyol	-14704
meng	-14705
mert	-14706
onyx	-14707
ovan	-14708
owme	-14709
üfer	-14710
▁457	-14711
▁abs	-14712
▁acr	-14713
▁aus	-14714
▁crp	-14715
▁guỹ	-14716
▁hbo	-14717
▁ida	-14718
ampus	-14719
andme	-14720
eskes	-14721
lding	-14722
okite	-14723
rdata	-14724
shwin	-14725
sinia	-14726
sting	-14727
swick	-14728
tambo	-14729
terma	-14730
thira	-14731
thiên	-14732
thành	-14733
thích	-14734
thống	-14735
track	-14736
traso	-14737
triệu	-14738
tương	-14739
udini	-14740
ulate	-14741
ulter	-14742
ummit	-14743
unger	-14744
unner	-14745
usand	-14746
ussen	-14747
utsch	-14748
viron	-14749
vitak	-14750
wford	-14751
which	-14752
xơlen	-14753
yanka	-14754
yczan	-14755
ynski	-14756
ynsky	-14757
ynter	-14758
zetti	-14759
ziger	-14760
ôcrat	-14761
▁1.98	-14762
▁12,5	-14763
▁13.5	-14764
▁1323	-14765
▁1369	-14766
▁1450	-14767
▁1750	-14768
▁1838	-14769
▁1851	-14770
▁1865	-14771
▁1868	-14772
▁1872	-14773
▁1896	-14774
▁1921	-14775
▁1925	-14776
▁1946	-14777
▁2027	-14778
▁2042	-14779
▁2200	-14780
▁2400	-14781
▁3481	-14782
▁5-10	-14783
▁7599	-14784
▁8649	-14785
▁99,9	-14786
▁abou	-14787
▁acce	-14788
▁acre	-14789
▁acta	-14790
▁adri	-14791
▁afra	-14792
▁aida	-14793
▁alej	-14794
▁allo	-14795
▁ally	-14796
▁alon	-14797
▁amed	-14798
▁ames	-14799
kaj	-14800
nén	-14801
▁òm	-14802
cini	-14803
come	-14804
niel	-14805
raka	-14806
reth	-14807
tped	-14808
▁757	-14809
▁8.5	-14810
▁boh	-14811
▁haa	-14812
▁rộp	-14813
▁sòm	-14814
aglio	-14815
ainab	-14816
anish	-14817
asted	-14818
astev	-14819
astic	-14820
fense	-14821
fresh	-14822
lings	-14823
mpton	-14824
teoit	-14825
ureth	-14826
yanua	-14827
▁1830	-14828
▁ambi	-14829
▁anta	-14830
▁arav	-14831
▁arun	-14832
▁asia	-14833
▁asim	-14834
▁auck	-14835
▁baba	-14836
▁back	-14837
▁baer	-14838
▁baku	-14839
▁bapt	-14840
▁baro	-14841
▁beam	-14842
▁bedi	-14843
▁bend	-14844
▁bioh	-14845
▁biop	-14846
▁biét	-14847
▁blen	-14848
▁blis	-14849
▁bour	-14850
▁brút	-14851
▁bute	-14852
▁béat	-14853
▁bích	-14854
▁bạnh	-14855
▁calm	-14856
▁cama	-14857
▁cand	-14858
▁care	-14859
▁cari	-14860
▁cart	-14861
▁cheo	-14862
▁chez	-14863
▁chàm	-14864
▁chát	-14865
▁chât	-14866
▁chãi	-14867
▁chêm	-14868
▁chôm	-14869
▁chúi	-14870
▁chúm	-14871
▁chún	-14872
▁chạn	-14873
▁chầu	-14874
▁chẩm	-14875
▁chậc	-14876
▁chếc	-14877
▁chờn	-14878
▁chụt	-14879
▁clor	-14880
▁cola	-14881
▁cole	-14882
▁coli	-14883
▁come	-14884
▁copp	-14885
▁cụng	-14886
▁daly	-14887
▁dari	-14888
▁dash	-14889
▁dead	-14890
▁deam	-14891
▁dear	-14892
▁dech	-14893
▁dell	-14894
▁dest	-14895
▁dett	-14896
▁diop	-14897
▁dios	-14898
▁diva	-14899
ocy	-14900
apse	-14901
isse	-14902
kofa	-14903
lane	-14904
luth	-14905
nery	-14906
oody	-14907
▁idi	-14908
▁lse	-14909
▁plu	-14910
▁pog	-14911
arney	-14912
atlan	-14913
ebach	-14914
elope	-14915
erocy	-14916
light	-14917
queen	-14918
steen	-14919
▁1820	-14920
▁1942	-14921
▁audi	-14922
▁balo	-14923
▁dill	-14924
▁diếm	-14925
▁diết	-14926
▁drag	-14927
▁dres	-14928
▁drop	-14929
▁duck	-14930
▁duới	-14931
▁dước	-14932
▁dằng	-14933
▁dọng	-14934
▁ecol	-14935
▁edge	-14936
▁edit	-14937
▁elah	-14938
▁elif	-14939
▁eneb	-14940
▁epfl	-14941
▁esqu	-14942
▁ezra	-14943
▁face	-14944
▁fala	-14945
▁fare	-14946
▁fick	-14947
▁fife	-14948
▁flag	-14949
▁form	-14950
▁gahr	-14951
▁gama	-14952
▁ganz	-14953
▁gate	-14954
▁gaus	-14955
▁gert	-14956
▁ghez	-14957
▁ghén	-14958
▁gini	-14959
▁giza	-14960
▁giãi	-14961
▁giòi	-14962
▁giập	-14963
▁giối	-14964
▁giộp	-14965
▁giởi	-14966
▁gobi	-14967
▁godi	-14968
▁grég	-14969
▁guar	-14970
▁gích	-14971
▁gẳng	-14972
▁gặng	-14973
▁gọng	-14974
▁hass	-14975
▁heap	-14976
▁hick	-14977
▁hiêu	-14978
▁hiễu	-14979
▁hook	-14980
▁hoáy	-14981
▁huey	-14982
▁hull	-14983
▁hume	-14984
▁hích	-14985
▁hóng	-14986
▁húng	-14987
▁hẳng	-14988
▁hỗng	-14989
▁imam	-14990
▁inge	-14991
▁jebb	-14992
▁jimi	-14993
▁jodr	-14994
▁jone	-14995
▁jove	-14996
▁judi	-14997
▁junk	-14998
▁jura	-14999
weh	-15000
dour	-15001
eida	-15002
isha	-15003
ivak	-15004
ugia	-15005
▁275	-15006
▁eug	-15007
▁mât	-15008
▁nij	-15009
▁xiv	-15010
▁xỉu	-15011
annie	-15012
emann	-15013
hound	-15014
ishas	-15015
monic	-15016
osper	-15017
ridge	-15018
▁12,2	-15019
▁1860	-15020
▁1877	-15021
▁arno	-15022
▁eyre	-15023
▁giựt	-15024
▁gorg	-15025
▁kahn	-15026
▁kail	-15027
▁kali	-15028
▁kamp	-15029
▁kary	-15030
▁kash	-15031
▁keck	-15032
▁kess	-15033
▁keys	-15034
▁khac	-15035
▁khêu	-15036
▁khạc	-15037
▁khẩm	-15038
▁khịt	-15039
▁kiệu	-15040
▁klin	-15041
▁knox	-15042
▁kosh	-15043
▁kệch	-15044
▁lakh	-15045
▁lama	-15046
▁lamm	-15047
▁laut	-15048
▁lava	-15049
▁leah	-15050
▁lech	-15051
▁leic	-15052
▁leku	-15053
▁levy	-15054
▁lian	-15055
▁lier	-15056
▁ling	-15057
▁linz	-15058
▁liti	-15059
▁liza	-15060
▁lobo	-15061
▁look	-15062
▁lost	-15063
▁luna	-15064
▁lích	-15065
▁lềnh	-15066
▁lụât	-15067
▁macs	-15068
▁madd	-15069
▁maes	-15070
▁many	-15071
▁mcwh	-15072
▁meat	-15073
▁meer	-15074
▁metz	-15075
▁milw	-15076
▁mine	-15077
▁miro	-15078
▁miru	-15079
▁mitt	-15080
▁miện	-15081
▁moel	-15082
▁mris	-15083
▁mugs	-15084
▁musk	-15085
▁mute	-15086
▁muth	-15087
▁muồn	-15088
▁mính	-15089
▁môtơ	-15090
▁mọng	-15091
▁mồng	-15092
▁nada	-15093
▁name	-15094
▁nass	-15095
▁nate	-15096
▁nebr	-15097
▁neda	-15098
▁nein	-15099
jaf	-15100
ogr	-15101
wei	-15102
ypt	-15103
2009	-15104
eyou	-15105
gaon	-15106
iago	-15107
ledy	-15108
metz	-15109
ptic	-15110
▁280	-15111
▁321	-15112
▁awe	-15113
▁bât	-15114
▁icd	-15115
▁iib	-15116
▁iii	-15117
▁old	-15118
▁pga	-15119
▁yue	-15120
▁ửng	-15121
antom	-15122
eshow	-15123
xcova	-15124
▁1917	-15125
▁apex	-15126
▁asin	-15127
▁avid	-15128
▁bakh	-15129
▁dửng	-15130
▁earl	-15131
▁euan	-15132
▁grou	-15133
▁have	-15134
▁imja	-15135
▁keem	-15136
▁kees	-15137
▁lenz	-15138
▁nexi	-15139
▁ngao	-15140
▁ngoa	-15141
▁ngoạ	-15142
▁ngèo	-15143
▁ngòm	-15144
▁ngĩa	-15145
▁ngưu	-15146
▁ngườ	-15147
▁ngải	-15148
▁ngậy	-15149
▁ngữa	-15150
▁nhem	-15151
▁nhâm	-15152
▁nhăm	-15153
▁nhắt	-15154
▁nhặn	-15155
▁nhẹp	-15156
▁nhọt	-15157
▁nhỏm	-15158
▁nhớp	-15159
▁nhớt	-15160
▁nhụi	-15161
▁nine	-15162
▁nito	-15163
▁niệu	-15164
▁nord	-15165
▁nore	-15166
▁nười	-15167
▁nẫng	-15168
▁nững	-15169
▁odin	-15170
▁okey	-15171
▁okon	-15172
▁olpc	-15173
▁only	-15174
▁oort	-15175
▁orch	-15176
▁orff	-15177
▁oyes	-15178
▁pain	-15179
▁patk	-15180
▁peak	-15181
▁pean	-15182
▁peek	-15183
▁pepp	-15184
▁pern	-15185
▁pesh	-15186
▁petr	-15187
▁phip	-15188
▁phom	-15189
▁phuy	-15190
▁phẩn	-15191
▁phẫm	-15192
▁phụt	-15193
▁phủi	-15194
▁pill	-15195
▁plat	-15196
▁plur	-15197
▁plus	-15198
▁pock	-15199
,80	-15200
-14	-15201
ofi	-15202
oxy	-15203
uki	-15204
zzy	-15205
▁ốp	-15206
-150	-15207
eive	-15208
erox	-15209
john	-15210
khác	-15211
ukon	-15212
▁0.4	-15213
▁331	-15214
▁334	-15215
▁7-8	-15216
▁9.3	-15217
▁dvr	-15218
▁irc	-15219
▁xẹo	-15220
▁ziy	-15221
chant	-15222
dance	-15223
otsie	-15224
▁12-1	-15225
▁1813	-15226
▁2,70	-15227
▁3300	-15228
▁cory	-15229
▁ctôi	-15230
▁fens	-15231
▁ghẹo	-15232
▁glia	-15233
▁khúm	-15234
▁pogo	-15235
▁pong	-15236
▁prai	-15237
▁prog	-15238
▁push	-15239
▁puya	-15240
▁quyể	-15241
▁quôc	-15242
▁quẫn	-15243
▁quặn	-15244
▁quặt	-15245
▁quẹt	-15246
▁quết	-15247
▁radi	-15248
▁rapt	-15249
▁rash	-15250
▁rasm	-15251
▁rauf	-15252
▁raul	-15253
▁reid	-15254
▁rene	-15255
▁reno	-15256
▁rens	-15257
▁rfid	-15258
▁riết	-15259
▁rohe	-15260
▁root	-15261
▁rout	-15262
▁rube	-15263
▁rule	-15264
▁ruth	-15265
▁rúng	-15266
▁rượi	-15267
▁rống	-15268
▁salg	-15269
▁salv	-15270
▁sans	-15271
▁sate	-15272
▁sbir	-15273
▁schu	-15274
▁serb	-15275
▁sica	-15276
▁sick	-15277
▁sieg	-15278
▁silk	-15279
▁sims	-15280
▁sind	-15281
▁site	-15282
▁skyd	-15283
▁slam	-15284
▁slim	-15285
▁smil	-15286
▁solz	-15287
▁some	-15288
▁sona	-15289
▁soul	-15290
▁spac	-15291
▁spca	-15292
▁spit	-15293
▁spla	-15294
▁spok	-15295
▁spot	-15296
▁stop	-15297
▁subo	-15298
▁suck	-15299
faas	-15300
face	-15301
giây	-15302
ombe	-15303
ouin	-15304
ybot	-15305
▁480	-15306
45837	-15307
ahari	-15308
arche	-15309
bloom	-15310
idyar	-15311
iface	-15312
ified	-15313
prize	-15314
raper	-15315
ussou	-15316
▁1913	-15317
▁ashe	-15318
▁dust	-15319
▁dyan	-15320
▁extr	-15321
▁fisa	-15322
▁gchq	-15323
▁gosh	-15324
▁kras	-15325
▁kuhn	-15326
▁rott	-15327
▁sula	-15328
▁summ	-15329
▁suny	-15330
▁swaz	-15331
▁sòng	-15332
▁taio	-15333
▁tale	-15334
▁tavi	-15335
▁team	-15336
▁tedu	-15337
▁tenz	-15338
▁text	-15339
▁that	-15340
▁thuc	-15341
▁thài	-15342
▁thày	-15343
▁tháy	-15344
▁thót	-15345
▁thẫm	-15346
▁thết	-15347
▁thỏi	-15348
▁thỏm	-15349
▁thởi	-15350
▁thủa	-15351
▁tick	-15352
▁tipp	-15353
▁tiếu	-15354
▁tiển	-15355
▁tory	-15356
▁toto	-15357
▁truc	-15358
▁tráo	-15359
▁trãi	-15360
▁tróc	-15361
▁trấu	-15362
▁trầu	-15363
▁trằn	-15364
▁trẻo	-15365
▁tutu	-15366
▁typo	-15367
▁tòng	-15368
▁tươm	-15369
▁tạch	-15370
▁tạnh	-15371
▁tỏng	-15372
▁ucsf	-15373
▁umbc	-15374
▁unit	-15375
▁venn	-15376
▁vers	-15377
▁vick	-15378
▁viii	-15379
▁voda	-15380
▁vánh	-15381
▁vạng	-15382
▁waco	-15383
▁wade	-15384
▁weet	-15385
▁wein	-15386
▁wess	-15387
▁what	-15388
▁wild	-15389
▁wino	-15390
▁wird	-15391
▁wold	-15392
▁wooo	-15393
▁wren	-15394
▁xang	-15395
▁xbox	-15396
▁xiêu	-15397
▁xoan	-15398
▁xúât	-15399
,16	-15400
fox	-15401
endu	-15402
gbre	-15403
roll	-15404
ruck	-15405
sote	-15406
stoy	-15407
▁0,1	-15408
▁3.1	-15409
▁4-5	-15410
▁864	-15411
▁jcc	-15412
▁nyu	-15413
▁ucl	-15414
▁woa	-15415
abend	-15416
iband	-15417
ikahn	-15418
miral	-15419
rador	-15420
raina	-15421
youth	-15422
▁1298	-15423
▁1876	-15424
▁1934	-15425
▁38,7	-15426
▁9600	-15427
▁akan	-15428
▁belk	-15429
▁bors	-15430
▁buzz	-15431
▁cats	-15432
▁ebox	-15433
▁educ	-15434
▁jesu	-15435
▁kurt	-15436
▁pitt	-15437
▁rani	-15438
▁rasa	-15439
▁sese	-15440
▁utko	-15441
▁wise	-15442
▁xkey	-15443
▁xẻng	-15444
▁xỉnh	-15445
▁yash	-15446
▁yoav	-15447
▁yogi	-15448
▁yong	-15449
▁yuck	-15450
▁yuri	-15451
▁yuyu	-15452
▁yvon	-15453
▁zara	-15454
▁ôzôn	-15455
▁đâui	-15456
▁đênh	-15457
▁đững	-15458
.125.2	-15459
40,000	-15460
actica	-15461
addafi	-15462
agadde	-15463
ailles	-15464
ainier	-15465
akenya	-15466
akouma	-15467
akshmi	-15468
amanda	-15469
andani	-15470
ankard	-15471
apside	-15472
ardner	-15473
aroglu	-15474
artame	-15475
artney	-15476
ashian	-15477
astair	-15478
aswami	-15479
aswamy	-15480
atient	-15481
ations	-15482
attiya	-15483
ayanan	-15484
bachev	-15485
berlin	-15486
brogio	-15487
carmen	-15488
chover	-15489
contra	-15490
dealab	-15491
derick	-15492
dfasdf	-15493
dinand	-15494
dottir	-15495
eeeaaw	-15496
eeping	-15497
eleine	-15498
emarle	-15499
380	-15500
612	-15501
ksy	-15502
▁3.0	-15503
▁3.4	-15504
▁787	-15505
▁880	-15506
▁vvv	-15507
acyra	-15508
iasis	-15509
meyer	-15510
olars	-15511
score	-15512
▁1.33	-15513
▁1902	-15514
▁bưởi	-15515
▁corp	-15516
▁dirk	-15517
▁dềnh	-15518
▁haaa	-15519
▁hotz	-15520
▁http	-15521
▁huhh	-15522
▁jude	-15523
▁liêt	-15524
▁miwa	-15525
▁paes	-15526
▁visc	-15527
enphia	-15528
ensing	-15529
erhans	-15530
ertgeb	-15531
ertsma	-15532
escafe	-15533
estero	-15534
estown	-15535
everin	-15536
eville	-15537
flower	-15538
hausen	-15539
ibouti	-15540
ically	-15541
ideric	-15542
ieland	-15543
illing	-15544
imedia	-15545
inaudo	-15546
ingall	-15547
inique	-15548
ishane	-15549
isinin	-15550
isting	-15551
itable	-15552
itania	-15553
iticus	-15554
iweala	-15555
kowicz	-15556
lasela	-15557
lebrot	-15558
livion	-15559
manity	-15560
montos	-15561
mortal	-15562
mpilot	-15563
neally	-15564
neider	-15565
nghiệp	-15566
ochrom	-15567
olymer	-15568
onelli	-15569
onover	-15570
osevic	-15571
ospero	-15572
otting	-15573
pashin	-15574
platin	-15575
prüfer	-15576
rainec	-15577
ricity	-15578
rigami	-15579
rikaan	-15580
roughs	-15581
rumque	-15582
sworth	-15583
tonomy	-15584
uctose	-15585
udwick	-15586
ulites	-15587
ushima	-15588
vegrip	-15589
wardeh	-15590
weiler	-15591
▁1,200	-15592
▁1,250	-15593
▁1.200	-15594
▁11000	-15595
▁13000	-15596
▁20-50	-15597
▁36000	-15598
▁38000	-15599
gyz	-15600
-400	-15601
.212	-15602
clic	-15603
▁0,2	-15604
▁7.7	-15605
▁8.2	-15606
▁eos	-15607
▁lỏm	-15608
▁đso	-15609
abaab	-15610
actos	-15611
aidab	-15612
aidya	-15613
izoph	-15614
karia	-15615
levue	-15616
richt	-15617
rides	-15618
▁14.7	-15619
▁1788	-15620
▁1862	-15621
▁1897	-15622
▁77,8	-15623
▁chỏm	-15624
▁fuju	-15625
▁fuke	-15626
▁gulp	-15627
▁haji	-15628
▁lẵng	-15629
▁mohr	-15630
▁munk	-15631
▁pawa	-15632
▁rags	-15633
▁saks	-15634
▁zaha	-15635
26.212	-15636
engels	-15637
▁4,500	-15638
▁40000	-15639
▁42000	-15640
▁6,000	-15641
▁6.500	-15642
▁65000	-15643
▁7.000	-15644
▁7.200	-15645
▁7.682	-15646
▁70000	-15647
▁9,000	-15648
▁abani	-15649
▁abott	-15650
▁abram	-15651
▁accra	-15652
▁achor	-15653
▁adami	-15654
▁aditi	-15655
▁adobe	-15656
▁adora	-15657
▁adork	-15658
▁aedes	-15659
▁aeron	-15660
▁again	-15661
▁ahhhh	-15662
▁aiden	-15663
▁akyol	-15664
▁alami	-15665
▁alams	-15666
▁altip	-15667
▁amish	-15668
▁anast	-15669
▁apatz	-15670
▁appro	-15671
▁arcas	-15672
▁arias	-15673
▁asher	-15674
▁auden	-15675
▁award	-15676
▁awtin	-15677
▁aydah	-15678
▁aykro	-15679
▁aziza	-15680
▁babri	-15681
▁bacha	-15682
▁bahia	-15683
▁bahub	-15684
▁bambi	-15685
▁bandi	-15686
▁barss	-15687
▁basel	-15688
▁batur	-15689
▁bauer	-15690
▁bayer	-15691
▁bazan	-15692
▁beery	-15693
▁belle	-15694
▁bensc	-15695
▁berns	-15696
▁bipin	-15697
▁birth	-15698
▁bjork	-15699
,300	-15700
hurt	-15701
tree	-15702
▁8.3	-15703
▁gía	-15704
▁psy	-15705
actyl	-15706
malya	-15707
rassa	-15708
rynin	-15709
storm	-15710
velle	-15711
woman	-15712
▁1887	-15713
▁1888	-15714
▁2021	-15715
▁5,25	-15716
▁boko	-15717
▁fema	-15718
▁lmao	-15719
▁nhều	-15720
▁ranj	-15721
▁vểnh	-15722
aznick	-15723
iosare	-15724
▁astor	-15725
▁audur	-15726
▁auret	-15727
▁bland	-15728
▁bolin	-15729
▁books	-15730
▁booth	-15731
▁borde	-15732
▁bound	-15733
▁bowie	-15734
▁bracy	-15735
▁breel	-15736
▁brené	-15737
▁brett	-15738
▁broca	-15739
▁brock	-15740
▁brrrr	-15741
▁buchw	-15742
▁buddy	-15743
▁bulaj	-15744
▁burch	-15745
▁burke	-15746
▁buten	-15747
▁cajal	-15748
▁carin	-15749
▁carta	-15750
▁chadd	-15751
▁chade	-15752
▁chiho	-15753
▁chiền	-15754
▁chiểu	-15755
▁chíng	-15756
▁chược	-15757
▁chạng	-15758
▁chảng	-15759
▁chựng	-15760
▁cilli	-15761
▁coder	-15762
▁coles	-15763
▁comed	-15764
▁comer	-15765
▁compa	-15766
▁coron	-15767
▁corps	-15768
▁could	-15769
▁cover	-15770
▁crane	-15771
▁crock	-15772
▁crohn	-15773
▁curie	-15774
▁dafur	-15775
▁dahbi	-15776
▁daisy	-15777
▁dante	-15778
▁darby	-15779
▁debit	-15780
▁delle	-15781
▁desai	-15782
▁deton	-15783
▁devec	-15784
▁dewar	-15785
▁dietz	-15786
▁dilma	-15787
▁djinn	-15788
▁doing	-15789
▁dolla	-15790
▁dolls	-15791
▁domin	-15792
▁doren	-15793
▁downs	-15794
▁drake	-15795
▁dumas	-15796
▁dutch	-15797
▁ebina	-15798
▁ebook	-15799
.800	-15800
2013	-15801
afak	-15802
baya	-15803
ease	-15804
kaya	-15805
noff	-15806
tyne	-15807
▁0,6	-15808
▁3,6	-15809
▁dsm	-15810
bourg	-15811
brien	-15812
green	-15813
▁dõng	-15814
▁fehr	-15815
▁hulk	-15816
▁hẫng	-15817
▁luxo	-15818
▁lõng	-15819
▁múôn	-15820
canada	-15821
▁10-20	-15822
▁7.800	-15823
▁alwar	-15824
▁areca	-15825
▁chase	-15826
▁echel	-15827
▁ecoli	-15828
▁edger	-15829
▁eglan	-15830
▁eiger	-15831
▁ekman	-15832
▁eleph	-15833
▁elton	-15834
▁erica	-15835
▁espys	-15836
▁ester	-15837
▁fahad	-15838
▁fankh	-15839
▁fatah	-15840
▁faust	-15841
▁fears	-15842
▁felix	-15843
▁feyer	-15844
▁fitch	-15845
▁fonda	-15846
▁forum	-15847
▁fredy	-15848
▁frida	-15849
▁fuchu	-15850
▁fuego	-15851
▁gafić	-15852
▁gamow	-15853
▁garth	-15854
▁geron	-15855
▁giler	-15856
▁gióng	-15857
▁goetz	-15858
▁goget	-15859
▁goles	-15860
▁golgi	-15861
▁golub	-15862
▁gomer	-15863
▁gooch	-15864
▁goose	-15865
▁grade	-15866
▁grady	-15867
▁granh	-15868
▁grimm	-15869
▁group	-15870
▁guant	-15871
▁guide	-15872
▁guier	-15873
▁gusty	-15874
▁guten	-15875
▁hadid	-15876
▁hadyn	-15877
▁hague	-15878
▁halla	-15879
▁hanks	-15880
▁haram	-15881
▁hayek	-15882
▁hazel	-15883
▁heart	-15884
▁heide	-15885
▁hersh	-15886
▁hesta	-15887
▁hicks	-15888
▁horiz	-15889
▁horse	-15890
▁hymal	-15891
▁hưỡng	-15892
▁indyk	-15893
▁inlet	-15894
▁irene	-15895
▁iwasa	-15896
▁jaime	-15897
▁jamal	-15898
▁jamil	-15899
1978	-15900
epol	-15901
jebr	-15902
▁6-7	-15903
▁ldl	-15904
▁tâp	-15905
▁xdr	-15906
apoli	-15907
lajeh	-15908
santo	-15909
slist	-15910
▁1833	-15911
▁2048	-15912
▁funk	-15913
▁iqui	-15914
aquila	-15915
epolis	-15916
escott	-15917
lovich	-15918
orenzo	-15919
usseff	-15920
zurich	-15921
▁csiks	-15922
▁elahi	-15923
▁ghost	-15924
▁janie	-15925
▁janis	-15926
▁janna	-15927
▁jawad	-15928
▁jenna	-15929
▁jessa	-15930
▁joann	-15931
▁jolie	-15932
▁josef	-15933
▁kanji	-15934
▁keves	-15935
▁khaki	-15936
▁khoắn	-15937
▁khuây	-15938
▁khước	-15939
▁kitin	-15940
▁kiềng	-15941
▁knife	-15942
▁knols	-15943
▁koala	-15944
▁koska	-15945
▁kowan	-15946
▁krane	-15947
▁kreme	-15948
▁krens	-15949
▁kroll	-15950
▁krump	-15951
▁kumar	-15952
▁kwong	-15953
▁leave	-15954
▁leded	-15955
▁leica	-15956
▁lenin	-15957
▁leuna	-15958
▁lewes	-15959
▁lgbtq	-15960
▁lhasa	-15961
▁liban	-15962
▁liger	-15963
▁lipid	-15964
▁lizzi	-15965
▁local	-15966
▁losee	-15967
▁lotus	-15968
▁lumin	-15969
▁luwak	-15970
▁luống	-15971
▁lybia	-15972
▁lyman	-15973
▁lynne	-15974
▁lôgic	-15975
▁magma	-15976
▁magna	-15977
▁maira	-15978
▁makau	-15979
▁malem	-15980
▁mamet	-15981
▁manen	-15982
▁marks	-15983
▁marqu	-15984
▁marty	-15985
▁mcdon	-15986
▁mcrae	-15987
▁mebot	-15988
▁medan	-15989
▁megan	-15990
▁meind	-15991
▁memex	-15992
▁merri	-15993
▁midon	-15994
▁miley	-15995
▁milig	-15996
▁minne	-15997
▁mobis	-15998
▁monet	-15999
928	-16000
▁อย	-16001
▁อร	-16002
çois	-16003
▁4.0	-16004
▁4.4	-16005
enzie	-16006
konan	-16007
leigh	-16008
megen	-16009
racek	-16010
strip	-16011
viton	-16012
▁1584	-16013
▁1819	-16014
▁2054	-16015
▁ihub	-16016
▁orde	-16017
▁rhim	-16018
▁seko	-16019
aleuca	-16020
chuyển	-16021
elinde	-16022
etrios	-16023
icious	-16024
iparko	-16025
kaerts	-16026
▁2,700	-16027
▁bizon	-16028
▁cross	-16029
▁cutts	-16030
▁lydia	-16031
▁mmmmm	-16032
▁monte	-16033
▁motel	-16034
▁murad	-16035
▁murch	-16036
▁môđun	-16037
▁nails	-16038
▁naran	-16039
▁narco	-16040
▁natri	-16041
▁nawaz	-16042
▁nghìm	-16043
▁nghịu	-16044
▁ngiệm	-16045
▁ngozi	-16046
▁ngoèo	-16047
▁ngoạm	-16048
▁nguow	-16049
▁ngưới	-16050
▁ngạnh	-16051
▁ngừời	-16052
▁ngững	-16053
▁nhiêm	-16054
▁nhiêt	-16055
▁nhiếc	-16056
▁nhiếu	-16057
▁nhiền	-16058
▁nhiễn	-16059
▁nhiệp	-16060
▁nhăng	-16061
▁nicks	-16062
▁niels	-16063
▁niese	-16064
▁ninos	-16065
▁nolan	-16066
▁notre	-16067
▁oates	-16068
▁ogami	-16069
▁ollan	-16070
▁omaha	-16071
▁paabo	-16072
▁pagan	-16073
▁pahir	-16074
▁panzi	-16075
▁parad	-16076
▁parry	-16077
▁parsi	-16078
▁pavna	-16079
▁peggy	-16080
▁pelop	-16081
▁penix	-16082
▁phảng	-16083
▁phịch	-16084
▁piazz	-16085
▁pinat	-16086
▁pixar	-16087
▁plait	-16088
▁polio	-16089
▁polyn	-16090
▁poole	-16091
▁potts	-16092
▁puchu	-16093
▁pyrex	-16094
▁queda	-16095
▁quyen	-16096
▁quyêt	-16097
▁quạnh	-16098
▁rahul	-16099
thuế	-16100
▁nfb	-16101
aukee	-16102
ayloh	-16103
fizer	-16104
henge	-16105
nacle	-16106
prise	-16107
trans	-16108
▁1776	-16109
▁frog	-16110
▁huxt	-16111
▁koro	-16112
▁pttt	-16113
▁seyi	-16114
bowski	-16115
cortex	-16116
inetob	-16117
phenol	-16118
square	-16119
thenes	-16120
uliani	-16121
▁20-30	-16122
▁arghs	-16123
▁aztec	-16124
▁cours	-16125
▁doggy	-16126
▁mbubi	-16127
▁nehru	-16128
▁nkali	-16129
▁pablo	-16130
▁ramen	-16131
▁ramos	-16132
▁raven	-16133
▁ravin	-16134
▁ready	-16135
▁renzo	-16136
▁rever	-16137
▁ribad	-16138
▁rican	-16139
▁riker	-16140
▁roach	-16141
▁roald	-16142
▁robyn	-16143
▁rocha	-16144
▁rocky	-16145
▁roden	-16146
▁roper	-16147
▁round	-16148
▁rupee	-16149
▁rutan	-16150
▁ryder	-16151
▁rường	-16152
▁sadik	-16153
▁sahar	-16154
▁salbi	-16155
▁salsa	-16156
▁samar	-16157
▁sands	-16158
▁satch	-16159
▁scala	-16160
▁schad	-16161
▁serif	-16162
▁shand	-16163
▁shane	-16164
▁shang	-16165
▁sheep	-16166
▁shino	-16167
▁shook	-16168
▁short	-16169
▁shubh	-16170
▁shyam	-16171
▁siera	-16172
▁sight	-16173
▁sinai	-16174
▁singh	-16175
▁sipes	-16176
▁smule	-16177
▁softy	-16178
▁sokol	-16179
▁solar	-16180
▁soler	-16181
▁soles	-16182
▁songs	-16183
▁sound	-16184
▁space	-16185
▁stair	-16186
▁stars	-16187
▁stato	-16188
▁story	-16189
▁styro	-16190
▁sufis	-16191
▁swing	-16192
▁symbi	-16193
▁synth	-16194
▁taber	-16195
▁tajik	-16196
▁tania	-16197
▁tarja	-16198
▁taryn	-16199
8,71	-16200
▁nưã	-16201
eigha	-16202
smoke	-16203
▁cctv	-16204
▁eetw	-16205
▁fête	-16206
▁hoăc	-16207
▁nướu	-16208
▁oooh	-16209
▁peso	-16210
▁raqs	-16211
▁rums	-16212
chkiss	-16213
eneuve	-16214
falgar	-16215
nataka	-16216
quisti	-16217
▁05049	-16218
▁advil	-16219
▁agnor	-16220
▁battl	-16221
▁dynam	-16222
▁globe	-16223
▁iliad	-16224
▁kubla	-16225
▁msnbc	-16226
▁niemö	-16227
▁støre	-16228
▁teach	-16229
▁teddy	-16230
▁teder	-16231
▁thida	-16232
▁thiến	-16233
▁thoắt	-16234
▁thula	-16235
▁thuân	-16236
▁thuôc	-16237
▁thuẩn	-16238
▁thõng	-16239
▁tinto	-16240
▁title	-16241
▁tiêng	-16242
▁torch	-16243
▁toáng	-16244
▁trice	-16245
▁trita	-16246
▁truân	-16247
▁trươc	-16248
▁trịch	-16249
▁trịnh	-16250
▁tuyện	-16251
▁tuếch	-16252
▁tuổii	-16253
▁tuỵêt	-16254
▁ultra	-16255
▁unama	-16256
▁urban	-16257
▁usaid	-16258
▁varty	-16259
▁videp	-16260
▁vinyl	-16261
▁viola	-16262
▁virav	-16263
▁visit	-16264
▁waldo	-16265
▁wally	-16266
▁wells	-16267
▁wilde	-16268
▁wiles	-16269
▁wolpe	-16270
▁women	-16271
▁woody	-16272
▁wyatt	-16273
▁yukon	-16274
▁zahab	-16275
▁ziyah	-16276
▁điếng	-16277
achalam	-16278
actosyl	-16279
alandar	-16280
antuono	-16281
ardyman	-16282
atorial	-16283
biotics	-16284
cadabra	-16285
cerelli	-16286
chiwitz	-16287
cksberg	-16288
codefor	-16289
colombo	-16290
eberman	-16291
edonian	-16292
enboeck	-16293
exupery	-16294
fenberg	-16295
founder	-16296
genheim	-16297
idariot	-16298
illaria	-16299
halyi	-16300
▁ajax	-16301
awrous	-16302
cartes	-16303
eaties	-16304
etchup	-16305
houdin	-16306
ibiniz	-16307
icurus	-16308
khalil	-16309
tinuum	-16310
▁50-80	-16311
▁7,100	-16312
▁bíppp	-16313
▁ciero	-16314
▁deoxy	-16315
▁dweck	-16316
▁femin	-16317
▁furst	-16318
▁gauge	-16319
▁mugsy	-16320
▁nurem	-16321
▁pogue	-16322
▁péter	-16323
▁ragav	-16324
▁srdja	-16325
▁yanuk	-16326
acaglia	-16327
andreou	-16328
bapenem	-16329
boxylic	-16330
calypse	-16331
hwedder	-16332
[...]
